<unk>	0
<s>	0
</s>	0
▁	-3.11387
▁и	-3.43219
–	-3.60494
а	-3.72699
е	-3.92086
▁не	-3.99253
и	-3.99473
▁в	-4.05233
▁он	-4.24467
▁что	-4.26438
й	-4.32479
у	-4.44467
я	-4.47981
▁с	-4.51598
▁на	-4.57344
▁она	-4.82734
▁я	-4.91113
м	-4.98629
▁как	-5.00031
▁но	-5.02594
▁его	-5.05157
ю	-5.09807
▁это	-5.17103
ся	-5.19051
ы	-5.20474
▁к	-5.21281
▁сказал	-5.26823
го	-5.2866
о	-5.29843
▁был	-5.30452
▁все	-5.30598
х	-5.31
ть	-5.33584
▁то	-5.42998
▁ее	-5.43488
▁о	-5.46071
ом	-5.48931
▁так	-5.50413
▁было	-5.50706
▁левин	-5.52926
▁за	-5.5739
▁по	-5.68465
▁же	-5.70203
▁«	-5.72211
ой	-5.7307
»	-5.77118
▁от	-5.7754
▁ему	-5.79751
▁да	-5.8775
ую	-5.93298
▁вы	-5.9544
▁а	-5.96116
▁только	-5.98139
▁у	-6.00747
сь	-6.03217
▁ты	-6.05539
▁бы	-6.10727
...	-6.12168
▁из	-6.12894
▁ни	-6.14605
▁когда	-6.16926
▁дл	-6.17225
▁теперь	-6.22952
ая	-6.27304
▁свое	-6.29784
▁еще	-6.37061
▁мне	-6.40392
ь	-6.41699
т	-6.41788
▁ей	-6.43044
▁кити	-6.43141
ого	-6.45664
▁говорил	-6.46178
▁алексе	-6.47712
лся	-6.47908
ми	-6.4806
▁потом	-6.50333
в	-6.50445
ясь	-6.50926
лась	-6.52287
▁уже	-6.53064
▁него	-6.55463
▁очень	-6.56171
▁быть	-6.58911
▁нет	-6.59931
▁степан	-6.62121
▁аркадьич	-6.62483
▁которо	-6.6286
▁чтобы	-6.63074
▁они	-6.63174
то	-6.63254
▁меня	-6.63591
ов	-6.67838
▁при	-6.68037
▁вронский	-6.68643
▁анна	-6.69331
▁себя	-6.69609
▁себе	-6.69804
▁этого	-6.70805
лось	-6.71627
▁ничего	-6.74483
▁если	-6.74516
▁том	-6.75328
▁того	-6.76817
▁ну	-6.78075
▁александрович	-6.78174
▁чем	-6.79994
▁до	-6.80011
ем	-6.81831
▁тем	-6.85972
▁эти	-6.86761
▁может	-6.87721
▁ним	-6.91658
▁есть	-6.91907
▁ли	-6.9272
л	-6.93384
▁раз	-6.94887
пять	-6.94937
ами	-6.95916
▁мог	-6.95949
▁под	-6.9702
▁вот	-6.98404
▁или	-6.9979
▁время	-7.00058
▁будет	-7.0007
▁надо	-7.00738
ться	-7.01979
же	-7.03344
▁про	-7.04566
▁их	-7.04661
▁мы	-7.06198
▁ней	-7.06979
ет	-7.07296
▁об	-7.07587
▁видел	-7.11427
▁одно	-7.13092
▁котор	-7.13605
▁лицо	-7.1446
▁во	-7.15024
ей	-7.15062
ись	-7.16698
▁стал	-7.17262
▁со	-7.17299
▁которые	-7.19825
▁человек	-7.20079
▁руку	-7.20466
лись	-7.21028
▁серге	-7.21105
▁долли	-7.22096
ых	-7.22126
▁сам	-7.2269
ла	-7.23421
▁отвечал	-7.24336
▁всегда	-7.25781
те	-7.26315
▁знал	-7.27037
▁чтото	-7.27407
▁дело	-7.27606
▁без	-7.27628
▁этот	-7.29541
▁после	-7.29836
▁этом	-7.29856
▁вас	-7.30774
▁сказать	-7.31167
▁боле	-7.31206
ах	-7.3142
▁который	-7.31451
▁жизни	-7.31717
▁больше	-7.32118
▁вдруг	-7.33559
▁пред	-7.3421
▁иванович	-7.35017
их	-7.35925
▁могу	-7.3636
шел	-7.37095
когда	-7.38086
▁хотел	-7.39231
▁разговор	-7.40322
▁где	-7.4155
▁спросил	-7.4207
ду	-7.44552
ен	-7.47649
▁знаю	-7.48981
ли	-7.49196
▁говорить	-7.49462
▁хорошо	-7.49514
▁один	-7.49896
▁нужно	-7.49953
▁улыба	-7.50916
▁брат	-7.51134
му	-7.51465
▁чувствовал	-7.51659
▁своим	-7.51679
▁лучше	-7.51784
▁вронского	-7.54344
▁тебя	-7.54793
▁нельзя	-7.5525
▁нее	-7.56156
▁глаза	-7.56575
▁особенно	-7.56814
▁тебе	-7.57098
▁друг	-7.57221
▁каза	-7.57341
▁прежде	-7.57503
▁чтоб	-7.57728
▁всех	-7.57826
▁вопрос	-7.5791
▁думал	-7.58468
▁вам	-7.58811
▁само	-7.58886
▁слова	-7.59357
ый	-7.61059
ешь	-7.61284
▁одна	-7.61441
ошел	-7.63091
тчас	-7.63524
ок	-7.64211
▁хотя	-7.64434
ась	-7.65252
▁чего	-7.65671
▁меж	-7.65865
▁тут	-7.67061
▁жизнь	-7.67841
▁совершенно	-7.6803
▁глядя	-7.68444
ехать	-7.69059
▁этим	-7.69482
▁взгляд	-7.70137
▁которая	-7.70484
▁свои	-7.71428
▁эта	-7.71671
▁вместе	-7.71778
вою	-7.72022
▁будто	-7.72728
▁голос	-7.72754
ется	-7.74065
▁приехал	-7.74615
▁над	-7.75051
но	-7.75364
ым	-7.75971
▁много	-7.76209
▁день	-7.76592
▁минут	-7.7703
▁дела	-7.77048
▁княгиня	-7.77531
▁понял	-7.77741
▁нему	-7.779
▁чувство	-7.78576
▁эту	-7.7889
▁там	-7.79842
▁уж	-7.79874
▁можно	-7.80658
▁могл	-7.81032
смотря	-7.82112
▁очевидно	-7.84285
▁никак	-7.84378
▁выражение	-7.85585
▁делать	-7.8609
▁графин	-7.86288
▁нынче	-7.86769
▁весело	-7.86924
да	-7.87193
▁мысли	-7.88404
▁ж	-7.8862
▁смотрел	-7.8879
▁другой	-7.90425
▁франц	-7.91212
▁сделать	-7.91311
▁кто	-7.918
▁хотела	-7.91802
▁своем	-7.92474
▁два	-7.92586
▁буду	-7.92664
▁александровна	-7.93211
тоже	-7.93704
чего	-7.93785
▁сама	-7.9379
▁подумал	-7.94063
▁совсем	-7.94546
ою	-7.94771
▁любил	-7.94943
▁стара	-7.9552
▁им	-7.95603
▁голову	-7.9562
▁видеть	-7.95644
▁руки	-7.95714
▁тому	-7.95817
▁нескольк	-7.95966
сказала	-7.96187
▁тех	-7.96309
2	-7.96457
▁положение	-7.96599
▁них	-7.96668
▁улыбко	-7.98014
ки	-7.9813
▁кроме	-7.9873
▁которым	-7.99309
▁голов	-8.00663
▁давно	-8.01551
▁ч	-8.01712
дарья	-8.02106
час	-8.0227
▁те	-8.0293
5	-8.03283
▁комнат	-8.03662
▁анны	-8.0385
к	-8.04044
▁лица	-8.04362
▁мужа	-8.04396
▁начал	-8.04459
▁человека	-8.04611
▁говорит	-8.04634
▁ведь	-8.04689
с	-8.04895
▁сво	-8.05027
▁котором	-8.05094
▁дома	-8.05234
▁мысль	-8.05324
▁имел	-8.06078
таки	-8.06841
▁б	-8.07786
▁должен	-8.08357
▁други	-8.08586
▁понимаю	-8.08769
▁знала	-8.08946
▁стоял	-8.09703
ка	-8.09827
▁собой	-8.10309
могла	-8.10619
▁здесь	-8.12304
▁всем	-8.12535
▁пошел	-8.13098
▁людей	-8.13142
▁быстро	-8.13192
▁вид	-8.1329
ось	-8.13585
▁мать	-8.14008
▁прибавил	-8.14162
▁всю	-8.14189
▁весь	-8.14397
▁шаг	-8.14784
▁тогда	-8.14785
▁своих	-8.15614
▁глазами	-8.16022
сти	-8.16328
йти	-8.17127
▁константин	-8.17307
▁доктор	-8.17384
▁зачем	-8.17431
▁муж	-8.17437
▁ту	-8.17786
▁именно	-8.18152
▁князь	-8.18198
▁такое	-8.18636
▁тот	-8.18783
▁почти	-8.18929
▁мужик	-8.19001
▁нем	-8.19261
ная	-8.19384
не	-8.1977
▁этой	-8.19808
▁самы	-8.19929
▁брата	-8.2002
▁ах	-8.20142
▁просто	-8.20549
▁рад	-8.2063
▁лиди	-8.20749
▁сей	-8.20765
▁продолжал	-8.20842
▁почувствовал	-8.20877
▁свой	-8.21224
▁думать	-8.21386
▁ясно	-8.21559
▁больно	-8.2173
▁кажется	-8.21842
▁встал	-8.2188
▁жен	-8.22021
была	-8.22144
▁сделал	-8.22489
вши	-8.22906
ста	-8.23607
▁особенност	-8.24103
▁этому	-8.24141
▁нас	-8.24796
▁проговорил	-8.24934
▁чувству	-8.25245
i	-8.25523
нибудь	-8.25759
▁толстой	-8.259
▁стол	-8.264
▁александровича	-8.26894
▁развод	-8.27297
▁отношения	-8.27312
▁первы	-8.27553
▁вперед	-8.27841
▁деревн	-8.27963
▁жела	-8.28016
▁бетси	-8.28057
▁пожалуй	-8.28093
▁прямо	-8.28115
вший	-8.29443
ец	-8.29601
▁любви	-8.30016
▁любовь	-8.30331
▁правда	-8.30591
ому	-8.30618
▁думала	-8.30838
▁три	-8.3117
7	-8.32018
▁обеда	-8.32147
▁вышл	-8.32231
ных	-8.32909
лишк	-8.32931
▁дурно	-8.33009
▁жить	-8.33194
▁разве	-8.33601
▁мой	-8.33708
3	-8.33875
▁письмо	-8.33985
▁остановил	-8.34345
▁долго	-8.34555
▁народ	-8.34875
ерез	-8.35242
▁люди	-8.35347
▁ник	-8.35535
▁обратил	-8.35701
▁душе	-8.36094
1	-8.36252
▁пере	-8.36301
▁должно	-8.36594
▁взял	-8.36668
ло	-8.36815
▁хочет	-8.37049
▁ног	-8.37622
▁главно	-8.37699
▁улыбк	-8.3821
▁испытывал	-8.38225
▁место	-8.38631
▁точно	-8.39281
▁ужасно	-8.39284
▁труд	-8.39513
▁слов	-8.39651
▁та	-8.39883
▁ребенк	-8.40133
▁знаешь	-8.40179
▁понимал	-8.40416
▁г	-8.40503
▁сердце	-8.40688
▁книг	-8.40868
▁сел	-8.41001
▁хочу	-8.41209
▁невольно	-8.41255
▁почему	-8.41272
▁мое	-8.41632
сть	-8.42125
анне	-8.42169
▁детей	-8.42297
▁жена	-8.42588
▁хотелось	-8.42741
▁вечер	-8.42764
▁перво	-8.42803
шь	-8.42927
▁вчера	-8.43394
▁понять	-8.43463
▁куда	-8.43482
▁женщина	-8.43718
▁год	-8.43735
▁облонски	-8.43837
▁знает	-8.43838
▁тяжело	-8.43869
4	-8.44253
▁знать	-8.4432
▁думаю	-8.4436
▁свет	-8.44488
▁дверь	-8.44517
▁ваше	-8.45046
▁скольк	-8.4524
▁часто	-8.45698
▁зна	-8.46253
ный	-8.46308
▁ко	-8.46381
▁слез	-8.46641
▁свияжски	-8.46699
▁варенька	-8.47101
▁положения	-8.47765
▁матери	-8.47816
▁т	-8.4844
▁лошадь	-8.49134
▁двери	-8.4916
▁вронском	-8.49286
▁неприятно	-8.49609
▁ряд	-8.4986
▁сына	-8.50452
▁назад	-8.50464
▁лице	-8.50615
▁стороны	-8.50689
▁ужас	-8.5142
▁узнал	-8.5145
▁шляп	-8.51459
▁взглянул	-8.51729
ку	-8.5194
▁новы	-8.52509
6	-8.5261
ко	-8.52825
▁лет	-8.5287
▁ново	-8.52966
ое	-8.53049
▁слышал	-8.5331
▁пор	-8.53372
▁желал	-8.53536
▁минуты	-8.53812
▁такой	-8.53976
▁заметил	-8.54239
ют	-8.54532
▁решительно	-8.54539
9	-8.54634
ить	-8.55219
▁гостин	-8.55534
▁поехал	-8.55648
ий	-8.55816
вшего	-8.56081
▁какое	-8.56309
▁катавасов	-8.56352
▁жалко	-8.56463
▁скоро	-8.56466
▁москв	-8.56921
▁легко	-8.56938
▁рук	-8.57063
▁право	-8.57083
▁михайловн	-8.57251
▁дом	-8.5745
▁агафь	-8.57652
▁какой	-8.57755
▁домой	-8.57972
тся	-8.5834
на	-8.5862
▁кого	-8.5868
▁чувства	-8.58719
меть	-8.59037
▁спокойно	-8.59169
▁странно	-8.59204
▁кажды	-8.59227
▁самом	-8.60293
▁положени	-8.60679
▁слушал	-8.60711
вшая	-8.60813
▁последне	-8.61036
▁какие	-8.61548
▁вспомни	-8.61658
▁чувствовала	-8.6166
▁времени	-8.61676
▁женщин	-8.61725
▁равно	-8.61888
▁кабинет	-8.62113
▁каренина	-8.62536
стало	-8.62579
▁глаз	-8.62592
▁дня	-8.62855
▁дети	-8.62901
▁завтра	-8.63084
e	-8.63523
▁против	-8.63536
▁вижу	-8.63697
▁тысяч	-8.63734
▁дел	-8.63787
▁страшно	-8.64236
▁люблю	-8.64297
н	-8.64475
▁стары	-8.64701
▁любить	-8.64723
▁знакомы	-8.64938
8	-8.65421
▁сад	-8.65422
ые	-8.65542
▁должн	-8.65895
▁души	-8.65931
▁увидав	-8.66526
▁подробност	-8.66677
0	-8.66769
▁старик	-8.66916
▁посмотрел	-8.66982
ной	-8.6718
смотреть	-8.67202
▁две	-8.67378
ную	-8.67842
▁весловский	-8.68367
▁хуже	-8.68368
▁счастье	-8.68406
▁другое	-8.68474
▁москве	-8.6914
▁рада	-8.69285
▁губ	-8.693
▁напротив	-8.69819
▁мало	-8.70214
▁слово	-8.70491
▁рукам	-8.70527
▁д	-8.70627
▁сережа	-8.71109
▁голенищев	-8.71244
▁лаке	-8.71329
▁анну	-8.71356
▁говорю	-8.71387
▁прекрасно	-8.71398
▁увидал	-8.71484
▁разумеется	-8.71764
полне	-8.71991
▁чтонибудь	-8.72004
▁знаете	-8.72369
▁сторон	-8.72457
▁подле	-8.72663
ился	-8.72801
▁говорят	-8.72859
▁приятно	-8.72969
▁женщины	-8.73362
▁жену	-8.73403
▁невозможно	-8.73415
▁сидел	-8.73491
ями	-8.73993
ного	-8.74174
▁изза	-8.74256
▁васеньк	-8.74315
▁дам	-8.7433
▁верно	-8.74619
▁николай	-8.74688
▁лиц	-8.74722
▁бог	-8.74737
вести	-8.74867
▁ивановна	-8.75683
▁деньги	-8.75726
▁платье	-8.75769
▁одной	-8.75815
▁звук	-8.75819
▁лошади	-8.76056
▁писал	-8.76369
того	-8.76484
▁заговорил	-8.7665
ее	-8.76764
▁работ	-8.77172
▁яшвин	-8.77206
▁находил	-8.77284
▁глазах	-8.77367
▁смысл	-8.77516
▁радост	-8.77571
▁имеет	-8.77589
▁вспомина	-8.77781
▁действительно	-8.78231
▁дорог	-8.78285
▁отношени	-8.78337
▁любит	-8.78371
▁вронским	-8.78827
▁хочешь	-8.78865
ные	-8.79188
▁решил	-8.79429
▁душ	-8.79514
▁оста	-8.79661
▁какая	-8.79669
▁уехал	-8.79786
жены	-8.79792
▁граф	-8.80387
▁стар	-8.80571
▁столь	-8.8068
▁должны	-8.81333
▁ждал	-8.81416
▁сестр	-8.81892
▁утро	-8.81951
▁187	-8.82102
▁повторил	-8.82156
▁лес	-8.82219
▁причин	-8.82367
▁двух	-8.82383
ек	-8.82628
▁мужу	-8.82723
▁анн	-8.83247
▁считал	-8.83549
▁понимает	-8.83706
▁узна	-8.83926
▁новое	-8.84373
▁делал	-8.84451
▁вод	-8.84533
▁таким	-8.85308
▁наконец	-8.8533
▁поспешно	-8.8537
▁велел	-8.85393
▁сила	-8.85481
▁видал	-8.855
скольк	-8.85813
▁радостно	-8.86269
▁коляск	-8.87025
▁смерти	-8.8707
▁толп	-8.87074
▁ответил	-8.87129
▁удовольствие	-8.87254
▁указыва	-8.87485
▁твердо	-8.87602
▁хозяйство	-8.87953
▁женой	-8.88186
▁свете	-8.88369
▁идти	-8.88749
начала	-8.89521
x	-8.90016
▁радость	-8.90116
▁стыд	-8.90738
▁улыбнул	-8.91115
▁поднял	-8.91289
▁вареньк	-8.9139
▁петербурге	-8.91637
▁каким	-8.91675
▁сделала	-8.91715
▁перв	-8.91753
▁строго	-8.92046
▁швейцар	-8.92087
▁хороши	-8.92187
▁возможно	-8.9241
▁отвеча	-8.92584
▁всеми	-8.92591
▁наш	-8.92738
▁россии	-8.92744
▁бога	-8.92851
▁моя	-8.92852
▁фигур	-8.92912
▁встретил	-8.93055
▁другим	-8.93167
▁столько	-8.93315
▁княгин	-8.93538
▁неловко	-8.93659
▁большой	-8.93847
ужел	-8.94397
одну	-8.94408
▁xi	-8.94602
▁молча	-8.94753
ются	-8.9485
юсь	-8.94938
ным	-8.94999
▁молодо	-8.95011
▁волос	-8.95036
▁живо	-8.9522
▁мрачно	-8.95468
▁молод	-8.95484
▁движение	-8.95529
▁скажи	-8.95565
▁мож	-8.95695
▁одни	-8.95699
▁старая	-8.957
▁чуть	-8.96149
▁представи	-8.96224
▁получил	-8.96532
▁ожидал	-8.96661
▁деле	-8.96753
▁работа	-8.96844
▁тво	-8.97025
▁друга	-8.971
▁виноват	-8.97119
▁хо	-8.97555
▁круг	-8.97995
▁права	-8.9801
▁записк	-8.98094
▁продолжала	-8.98748
▁нам	-8.99005
▁начала	-8.99191
▁нею	-8.99196
его	-8.99464
▁девушк	-8.99473
▁щербацки	-8.99515
▁часть	-8.99611
▁служб	-8.99769
▁половин	-8.99828
▁покраснел	-8.99863
▁характер	-8.99962
▁читал	-8.99962
ты	-9.00022
ят	-9.00066
▁оба	-9.00132
ну	-9.00214
▁п	-9.00711
им	-9.00741
▁разговора	-9.00905
▁готов	-9.01188
▁значение	-9.01402
были	-9.01417
▁интерес	-9.01713
ообще	-9.01727
▁иначе	-9.0173
ное	-9.01736
▁вскрикнул	-9.01736
▁парти	-9.01741
▁пойдем	-9.01788
▁мной	-9.0181
▁сын	-9.01858
ею	-9.02106
▁прошел	-9.02237
▁скажу	-9.0225
▁пока	-9.02488
▁впечатление	-9.02581
▁доме	-9.02757
▁сильно	-9.02817
▁всяко	-9.03041
▁случи	-9.0336
▁толсто	-9.03593
нет	-9.03636
▁вся	-9.03941
▁обо	-9.0399
▁мальчик	-9.04087
▁рука	-9.04294
▁отца	-9.04587
▁карет	-9.04618
▁лошаде	-9.04685
▁ответ	-9.04717
бывает	-9.05057
▁перед	-9.0534
под	-9.05363
▁верну	-9.05446
▁ma	-9.0546
▁приказчик	-9.05523
▁подошл	-9.05606
йся	-9.05655
иться	-9.0566
▁штал	-9.05788
▁карениной	-9.06015
▁просил	-9.06457
вшую	-9.06661
▁важно	-9.06779
▁счастлив	-9.07089
тельно	-9.07098
▁состояние	-9.07129
▁иног	-9.07676
▁дочь	-9.07888
▁впрочем	-9.0791
▁взяв	-9.07921
▁перебил	-9.08055
▁шел	-9.08184
▁твое	-9.08254
▁деть	-9.08668
▁месяц	-9.08827
стью	-9.09296
▁дух	-9.09404
▁взглянув	-9.09471
▁обед	-9.09622
▁кос	-9.10012
▁часов	-9.10071
вшей	-9.10082
▁видно	-9.10142
▁станци	-9.10264
ать	-9.10369
▁услыхал	-9.10573
▁марь	-9.10723
▁михайлов	-9.10817
▁состояни	-9.10861
▁де	-9.10988
▁полно	-9.11304
▁белы	-9.11416
▁жил	-9.11696
▁дарь	-9.11792
нее	-9.1181
▁страх	-9.11824
п	-9.11875
▁уверен	-9.11921
▁выбор	-9.11973
ились	-9.12026
▁непременн	-9.12155
▁священник	-9.12159
▁прелесть	-9.12215
▁года	-9.12306
▁приезд	-9.12327
▁внимательно	-9.12352
▁обыкновенно	-9.12388
▁забыл	-9.12404
дать	-9.12462
▁ночь	-9.12463
▁вошл	-9.1259
▁спрашивал	-9.12827
▁смея	-9.12851
▁вер	-9.12937
▁ходить	-9.12991
▁сил	-9.13128
▁холодно	-9.13314
▁охот	-9.13372
▁села	-9.13457
▁мужчин	-9.13534
▁прав	-9.13537
▁хотите	-9.14379
▁делает	-9.14411
▁взять	-9.1442
▁александровн	-9.14657
▁стола	-9.14658
еся	-9.14759
▁идет	-9.1476
▁вспомнил	-9.14881
▁улыбну	-9.15293
▁голоса	-9.15636
▁дал	-9.15798
▁обрати	-9.16282
ыми	-9.16366
вших	-9.16428
▁границ	-9.16523
▁пут	-9.16565
▁смерть	-9.16712
▁молоды	-9.16758
▁скучно	-9.16776
▁большо	-9.16819
▁княжн	-9.16949
▁тихо	-9.16991
▁больш	-9.1708
▁помещик	-9.17101
▁мимо	-9.17141
▁успел	-9.17328
▁детск	-9.17329
▁семь	-9.17644
▁перемен	-9.17938
▁осторожно	-9.17982
▁выходил	-9.18337
▁окн	-9.18375
▁держа	-9.18717
▁хороша	-9.18844
▁самым	-9.18863
▁кем	-9.18875
▁дмитрич	-9.18979
▁воз	-9.19095
▁верил	-9.19114
▁мер	-9.19118
йте	-9.19121
▁говоря	-9.19197
▁ивановн	-9.19388
льше	-9.19403
▁одним	-9.19493
встреч	-9.19529
▁рассказал	-9.1958
▁мир	-9.19636
▁замуж	-9.19665
▁другом	-9.19676
▁взяла	-9.19706
▁оглядывая	-9.19724
что	-9.19881
▁русски	-9.20089
▁собо	-9.20258
t	-9.20376
▁обраща	-9.20398
▁княз	-9.20535
▁мучительно	-9.20627
▁доктора	-9.20656
▁облонск	-9.20756
▁бес	-9.21219
▁рублей	-9.21402
▁внимание	-9.21479
▁думает	-9.21485
▁места	-9.21693
▁досад	-9.21778
▁узнав	-9.21911
▁кончил	-9.22087
думаешь	-9.22117
▁стива	-9.22381
юю	-9.2246
▁принял	-9.22503
▁красне	-9.22758
▁княгине	-9.23048
▁едет	-9.23051
▁дороги	-9.23149
ною	-9.23483
▁хозяйк	-9.23796
▁вещи	-9.23799
▁боюсь	-9.23804
▁предложение	-9.23806
▁нарочн	-9.23834
▁ваш	-9.23917
ости	-9.23983
▁написал	-9.24001
▁заметив	-9.24096
▁здоровье	-9.24289
▁мнение	-9.2435
▁силы	-9.24533
▁ласка	-9.24564
▁маленьк	-9.24755
▁сделан	-9.24816
▁отъезд	-9.25073
▁хороше	-9.25422
▁член	-9.25563
▁сторону	-9.25767
▁солнце	-9.25792
▁вспомнила	-9.25837
▁маленьки	-9.25938
ке	-9.25956
ками	-9.26046
кой	-9.26063
вшие	-9.26172
▁скажет	-9.262
раздо	-9.26292
ти	-9.26311
▁значит	-9.26346
▁мысле	-9.2635
▁господин	-9.26489
▁моей	-9.26663
▁верить	-9.26903
▁согласи	-9.26935
▁ездил	-9.26971
▁спин	-9.26973
г	-9.27128
▁стул	-9.27131
▁высоко	-9.27172
▁2	-9.27341
▁тон	-9.27525
▁необыкновенно	-9.27648
▁улыбка	-9.27829
он	-9.27833
▁одном	-9.28047
▁сереж	-9.2808
▁подал	-9.28129
▁целы	-9.28177
▁c	-9.28188
▁цвет	-9.28264
▁кучер	-9.28546
▁руко	-9.28657
▁желание	-9.28833
▁скорее	-9.28866
▁доволен	-9.28907
▁сюда	-9.28959
▁xxi	-9.29031
▁несомненно	-9.29045
▁поедем	-9.29054
▁сказан	-9.29079
▁слушая	-9.29142
тесь	-9.29168
▁привычк	-9.29293
▁часы	-9.29332
▁пошла	-9.2939
▁вниз	-9.29437
зади	-9.29444
▁образ	-9.29542
▁чему	-9.29997
▁портрет	-9.30173
▁боя	-9.30229
▁условия	-9.30243
▁свобод	-9.30385
▁комнате	-9.30568
место	-9.3089
▁останови	-9.31128
▁поцеловал	-9.31492
▁мама	-9.31497
▁называл	-9.31524
▁ребенок	-9.31563
▁церкви	-9.31567
▁левиным	-9.31671
▁поеду	-9.31681
▁придет	-9.31979
▁каждо	-9.32011
▁простить	-9.32013
р	-9.32242
▁спал	-9.32576
б	-9.32644
▁вагон	-9.32714
▁послал	-9.32783
▁сидела	-9.32984
▁цель	-9.33177
▁волнение	-9.33467
▁собак	-9.33478
▁представля	-9.3374
▁романа	-9.33895
man	-9.34102
▁песцов	-9.34194
▁тобой	-9.34199
▁спать	-9.3422
крикнул	-9.34248
▁мило	-9.34263
говорила	-9.34419
▁рассказыва	-9.34697
писать	-9.34767
▁удовольствия	-9.34856
▁дочер	-9.34857
▁необходимо	-9.34962
▁трудно	-9.3504
▁послышал	-9.35145
▁занимал	-9.35168
▁выше	-9.35168
▁лев	-9.35254
▁случае	-9.35451
говорить	-9.35622
следствие	-9.35657
▁пять	-9.35683
▁город	-9.3575
▁больши	-9.35859
▁девочка	-9.35983
▁папа	-9.3601
▁показа	-9.3624
▁тело	-9.36475
▁мере	-9.36505
▁общество	-9.36833
▁богу	-9.36928
▁воздух	-9.36973
▁грудь	-9.36973
▁спальн	-9.36974
▁деятельности	-9.36974
▁общества	-9.36975
▁чрез	-9.36978
▁громко	-9.3698
▁вероятно	-9.37
▁серьезно	-9.37135
▁движения	-9.37337
д	-9.37429
▁жизнью	-9.37469
o	-9.37554
▁умел	-9.37566
▁хозяин	-9.37656
▁духа	-9.37718
▁черт	-9.37951
▁положи	-9.38172
▁дарье	-9.38336
чи	-9.38507
▁плеч	-9.38527
ит	-9.38671
▁прости	-9.38786
▁веселы	-9.38853
▁соглас	-9.38959
▁вс	-9.39092
▁обращая	-9.391
▁картин	-9.39117
▁добры	-9.39464
▁скачк	-9.39571
ближе	-9.39834
▁провел	-9.39877
▁медленно	-9.39885
▁план	-9.39899
▁будем	-9.39939
▁решить	-9.39968
▁вернувши	-9.39994
▁обещал	-9.40146
▁смех	-9.4019
▁ii	-9.40266
▁ответа	-9.40308
...»	-9.40311
▁середин	-9.40343
▁счастья	-9.40574
▁виновата	-9.40648
▁лож	-9.40663
▁иваныч	-9.40676
французски	-9.40956
▁лежал	-9.40972
▁последни	-9.41258
iv	-9.41337
▁крик	-9.41439
ния	-9.41672
▁второ	-9.4207
шло	-9.42093
▁встреча	-9.42356
▁чувствую	-9.42729
▁комисси	-9.4277
▁чащ	-9.42771
▁язык	-9.42772
около	-9.42783
▁жив	-9.42817
▁николаевн	-9.42838
▁знаком	-9.42913
▁искал	-9.42998
▁наверх	-9.4304
▁понимать	-9.43075
▁6	-9.43172
▁выход	-9.43319
▁поэтом	-9.43699
▁степен	-9.43709
▁показал	-9.43736
нье	-9.43774
▁выражения	-9.43967
▁дума	-9.44154
▁весн	-9.44166
▁рассказывал	-9.4431
▁роман	-9.44449
ii	-9.44527
▁видимо	-9.44763
▁показало	-9.44767
▁обще	-9.44796
▁крайне	-9.44803
ставая	-9.44919
▁стоит	-9.44953
▁паль	-9.44995
▁новым	-9.45189
▁остава	-9.45269
▁красиво	-9.45417
▁добро	-9.45579
ль	-9.45605
▁предводител	-9.45634
▁пар	-9.45635
рд	-9.45646
▁вернул	-9.45655
▁ссор	-9.45782
on	-9.45789
▁блеск	-9.45801
▁костя	-9.45816
▁приедет	-9.45861
▁чрезвычайно	-9.45891
▁поздн	-9.45909
▁кончено	-9.45942
▁прош	-9.45944
▁мене	-9.45983
▁интересовал	-9.46112
▁злоб	-9.46158
▁петербург	-9.46262
ля	-9.4632
▁значени	-9.46337
▁девушка	-9.46423
▁обе	-9.46467
▁прошло	-9.46536
▁хозяйства	-9.46651
▁некоторы	-9.46667
ожидая	-9.46674
▁народа	-9.46794
re	-9.46806
▁стоя	-9.47044
ноги	-9.47333
▁муже	-9.47462
▁возвраща	-9.47566
ал	-9.47614
▁воспоминание	-9.4762
▁связ	-9.47742
▁особенны	-9.47837
▁смешно	-9.47945
▁главны	-9.47992
▁прежне	-9.48253
▁каренин	-9.4831
▁мундир	-9.48323
▁зим	-9.48429
престанн	-9.48926
▁прислушива	-9.4893
▁совестно	-9.48935
▁воображени	-9.48935
▁третий	-9.48948
▁пить	-9.49013
▁забыть	-9.49093
▁позволь	-9.49201
▁сомнения	-9.49321
▁успех	-9.49354
бывало	-9.49372
▁няня	-9.49393
▁увидел	-9.49399
просить	-9.49437
▁любим	-9.49474
▁сердито	-9.49505
▁помоч	-9.49601
▁хорош	-9.49638
▁счастлива	-9.49784
▁вглядыва	-9.49825
▁пожал	-9.50053
▁просить	-9.50163
▁боже	-9.50224
▁двадцат	-9.50274
▁серди	-9.5033
нег	-9.50425
▁петр	-9.50443
▁выражени	-9.50488
оглянулся	-9.50635
ходить	-9.5064
▁цен	-9.50715
▁связи	-9.50801
▁кофе	-9.5084
▁серпуховско	-9.50911
▁газет	-9.5094
▁остави	-9.51217
▁бело	-9.51303
▁вспоминал	-9.51381
▁госте	-9.51411
▁поезд	-9.51414
▁пол	-9.51582
▁боль	-9.51655
ны	-9.51704
▁александровне	-9.51713
▁благодар	-9.51794
▁страдания	-9.51842
ющего	-9.51845
▁платья	-9.52187
▁тверск	-9.52276
▁пойду	-9.52364
▁i	-9.52372
▁сами	-9.52389
▁давал	-9.5257
▁всяки	-9.52594
▁ход	-9.52618
▁каждом	-9.52694
▁вздохнул	-9.52701
▁молчал	-9.52727
▁тонко	-9.52773
вшему	-9.52807
▁пошли	-9.52937
▁волнени	-9.53104
▁аркадьевн	-9.5312
▁глупо	-9.53168
довольно	-9.53361
▁месте	-9.53522
▁последний	-9.53541
▁мои	-9.53605
▁фраз	-9.53621
▁трав	-9.53779
ут	-9.53841
▁форм	-9.53885
▁чувствова	-9.54243
▁vii	-9.54288
казать	-9.54322
▁шла	-9.5445
▁поле	-9.54457
давая	-9.54549
все	-9.54594
▁нужны	-9.54653
та	-9.54673
▁всему	-9.548
▁открыл	-9.548
a	-9.55043
▁ваши	-9.55065
▁наше	-9.55152
▁письма	-9.55268
▁относи	-9.55302
▁сп	-9.55413
▁мира	-9.5543
▁товарищ	-9.55446
▁утра	-9.55505
новь	-9.55521
едва	-9.5561
▁чай	-9.55631
▁внимания	-9.55666
▁постоянно	-9.55666
▁име	-9.55668
▁говори	-9.55679
▁присутстви	-9.55685
▁пише	-9.55726
▁постой	-9.55744
видишь	-9.55749
▁движени	-9.55924
▁передал	-9.55941
▁буд	-9.56012
▁мужикам	-9.56172
▁мою	-9.56256
▁стыдно	-9.56259
▁удивля	-9.56366
▁сознание	-9.56394
▁подходил	-9.56506
тем	-9.56604
▁высше	-9.56761
▁кажд	-9.5681
▁приходил	-9.56821
▁xvii	-9.57128
▁слышала	-9.57132
десять	-9.57168
▁воспоминания	-9.57325
▁ума	-9.57408
▁влюблен	-9.5757
шься	-9.57599
▁речь	-9.57674
▁слыша	-9.57947
▁иди	-9.57952
много	-9.57967
▁игра	-9.58071
▁земл	-9.58165
▁положил	-9.58325
▁понятия	-9.58339
ения	-9.58378
▁художник	-9.58484
▁вкус	-9.58497
au	-9.58527
▁руке	-9.58529
как	-9.58559
▁обществе	-9.58641
▁призна	-9.58741
▁вслед	-9.58933
▁телеграмм	-9.58933
▁львов	-9.58947
▁удивление	-9.58954
▁хлеб	-9.59013
▁говоришь	-9.5909
▁общи	-9.59129
▁ради	-9.59151
▁колен	-9.59196
▁клуб	-9.5922
▁отношение	-9.59287
стала	-9.59318
▁открыва	-9.59394
▁цел	-9.59438
▁рабоче	-9.59449
▁быстрым	-9.59519
▁прекрасны	-9.5991
ил	-9.60272
▁перестал	-9.60365
▁de	-9.60396
▁показать	-9.60528
▁представлял	-9.60663
▁мучал	-9.60664
адам	-9.60666
▁далеко	-9.60751
▁словам	-9.60775
▁свеч	-9.60829
▁поездк	-9.60843
▁ехал	-9.60902
▁виде	-9.61066
▁признак	-9.61198
▁оставил	-9.61276
▁весел	-9.61365
▁слав	-9.61433
з	-9.61698
легка	-9.61838
округ	-9.61885
▁люби	-9.62081
▁рот	-9.62365
s	-9.62446
▁бекас	-9.62504
▁восемь	-9.62504
▁произошл	-9.62526
▁полковник	-9.62527
▁шепот	-9.62552
▁трех	-9.62572
▁пришла	-9.62575
▁семейно	-9.62601
▁фруфру	-9.62602
▁матве	-9.62602
▁пора	-9.62625
▁образовани	-9.62686
▁василий	-9.62758
▁помнил	-9.6277
ишь	-9.62786
▁бумаг	-9.62853
▁отлично	-9.62915
▁полюбил	-9.62946
▁читать	-9.62989
u	-9.63111
▁убил	-9.63244
ном	-9.63458
▁редко	-9.63464
▁ходил	-9.63541
▁слушать	-9.63562
▁правд	-9.63596
est	-9.63621
▁сердца	-9.63698
▁конце	-9.63722
▁знакомым	-9.63844
▁запах	-9.63882
ях	-9.63915
▁взгляда	-9.64203
▁прежни	-9.6438
▁перемени	-9.64543
▁подняла	-9.6459
▁карету	-9.64621
ложить	-9.64845
▁любовью	-9.64932
▁час	-9.64973
▁одному	-9.64987
▁аркадьевна	-9.65105
▁принес	-9.65161
нимая	-9.65163
▁дожд	-9.65237
▁неожиданно	-9.6529
ши	-9.65361
▁держал	-9.65398
▁зло	-9.65456
▁определенно	-9.65539
▁э	-9.65598
▁рас	-9.65829
▁офицер	-9.65866
▁11	-9.65867
▁подходя	-9.66089
▁профессор	-9.66208
▁секунд	-9.66208
▁деятельность	-9.6622
▁залу	-9.6622
▁бал	-9.66244
▁удержать	-9.66354
▁живет	-9.66356
▁произвел	-9.66406
▁увидала	-9.66409
▁досадно	-9.6642
ешься	-9.66436
▁гор	-9.66464
▁света	-9.66657
▁столов	-9.66774
▁часа	-9.66809
▁вопроса	-9.67072
▁робко	-9.67079
▁желания	-9.67281
▁горе	-9.67507
▁перестава	-9.67525
▁полны	-9.67542
▁петрицки	-9.67682
▁начинал	-9.67755
▁лето	-9.67849
▁влияние	-9.67855
▁двор	-9.67886
▁повторял	-9.67975
▁труда	-9.67999
▁большим	-9.68112
▁последн	-9.68136
▁25	-9.68387
▁интересно	-9.68403
▁никола	-9.68481
▁занятия	-9.68508
▁мил	-9.68516
▁отыскива	-9.68667
▁извести	-9.68758
▁возможност	-9.6914
▁нежно	-9.69157
▁живу	-9.69333
▁смотри	-9.69362
▁поняв	-9.69689
▁20	-9.69802
▁спокойствие	-9.69813
▁станови	-9.69816
▁1	-9.69987
▁собира	-9.70008
▁всяк	-9.70014
▁действи	-9.70032
▁подъезд	-9.70054
▁туалет	-9.70055
▁мгновение	-9.70078
▁матерь	-9.70085
▁новая	-9.70099
▁аннушк	-9.70181
▁подтвердил	-9.7025
▁шесть	-9.70255
▁англичанк	-9.70424
▁другая	-9.70478
▁вопросительно	-9.70531
▁крепко	-9.70632
▁мест	-9.7066
▁имени	-9.70683
▁высказать	-9.70697
вую	-9.70698
своему	-9.70777
речи	-9.70837
тоном	-9.70944
▁поговорить	-9.70956
▁чувствует	-9.71093
▁коротко	-9.71271
▁участие	-9.71279
▁людя	-9.71386
▁толст	-9.71438
▁мыслям	-9.71562
▁ра	-9.71565
▁диван	-9.71579
▁продолжа	-9.71589
▁знают	-9.71621
▁застал	-9.71676
▁невест	-9.71677
ющих	-9.71771
▁свияжско	-9.71858
▁адвокат	-9.71903
ющее	-9.72101
▁кому	-9.72111
▁туда	-9.72247
стон	-9.72321
стать	-9.72361
▁бывал	-9.72884
▁стен	-9.72972
▁vi	-9.73099
▁разговарива	-9.73106
▁30	-9.73219
▁усилие	-9.7324
ков	-9.73327
▁русск	-9.73469
▁поклони	-9.73676
▁здорова	-9.73738
▁чт	-9.73791
едешь	-9.73882
er	-9.73958
▁тени	-9.73966
▁общем	-9.74021
▁закричал	-9.74054
▁кознышев	-9.74054
▁тушкевич	-9.74054
▁метров	-9.74055
▁70	-9.74061
▁незаметно	-9.7407
▁веселым	-9.74071
▁страсть	-9.74081
▁презрительно	-9.7409
▁судьб	-9.74106
▁пожимая	-9.74138
▁объяснить	-9.74138
ью	-9.74151
▁лизавет	-9.74164
▁тит	-9.74185
▁воспоминани	-9.7424
куда	-9.74273
▁чашк	-9.7429
▁малый	-9.74432
▁помощь	-9.7454
▁общего	-9.74738
▁таком	-9.74745
▁известно	-9.74794
▁умно	-9.74876
▁религии	-9.74932
▁настоящ	-9.74941
▁чувством	-9.74943
▁углу	-9.74947
▁оставши	-9.75024
▁извини	-9.75028
▁занят	-9.75109
▁жест	-9.75112
▁какою	-9.75113
▁мнения	-9.75247
ne	-9.75299
▁26	-9.75454
▁ласк	-9.75492
▁покраснев	-9.756
▁успокоить	-9.75609
v	-9.7573
▁барин	-9.75788
▁пальцам	-9.75793
▁признавал	-9.75805
▁удивительно	-9.75838
▁звезд	-9.75948
▁замечал	-9.75985
▁предмет	-9.75987
бо	-9.76115
▁водк	-9.76657
▁жила	-9.76689
▁романе	-9.76766
жен	-9.7691
ер	-9.77212
▁xii	-9.77216
▁испуганно	-9.77434
▁дворян	-9.77468
land	-9.77591
▁10	-9.77605
▁университет	-9.77845
▁книга	-9.77875
▁рода	-9.77944
▁32	-9.78106
▁щек	-9.78196
▁имею	-9.78197
▁вздор	-9.78221
▁недостатк	-9.78223
▁ручк	-9.78299
▁истори	-9.78319
▁снял	-9.78329
▁разум	-9.78405
▁испытал	-9.78445
▁предводитель	-9.78453
▁поднимая	-9.78622
▁24	-9.78666
▁называ	-9.78685
▁беседк	-9.78733
вшее	-9.78749
▁пуска	-9.78874
▁рано	-9.78941
▁земли	-9.78943
▁милая	-9.79064
▁побежал	-9.79135
▁сме	-9.79181
шего	-9.79183
▁подава	-9.79184
▁закон	-9.79325
ш	-9.79344
оды	-9.79407
▁родны	-9.79465
▁многие	-9.79632
▁охотник	-9.79776
▁снег	-9.79825
▁спор	-9.79863
▁услови	-9.79886
▁голуб	-9.79915
▁сделает	-9.7996
▁отдал	-9.7999
▁будуще	-9.79997
▁связан	-9.80212
шею	-9.80253
▁28	-9.80473
▁ошиб	-9.80533
▁сказав	-9.8058
▁хорошенько	-9.80809
части	-9.80955
▁театр	-9.81029
вшим	-9.81048
▁неправд	-9.81252
анна	-9.81415
▁круга	-9.81472
▁земле	-9.81515
▁имя	-9.81568
▁блестящи	-9.81607
че	-9.81781
нья	-9.81821
▁маленько	-9.82001
▁семье	-9.82061
▁суд	-9.82124
▁молодым	-9.82172
▁длинн	-9.82189
▁брак	-9.823
▁войн	-9.82344
▁присутствие	-9.8236
доволен	-9.82488
▁плат	-9.82502
▁александр	-9.82528
дка	-9.82565
▁рябинин	-9.82569
▁командир	-9.82569
▁женитьб	-9.82569
▁малейше	-9.8257
▁прошептал	-9.82579
▁угодно	-9.82623
▁тан	-9.8265
▁платформ	-9.82688
▁надеюсь	-9.82702
▁расположени	-9.82709
давно	-9.82764
▁полу	-9.82795
▁поедет	-9.82807
▁границей	-9.82825
▁несчастие	-9.82879
▁добр	-9.8291
▁заботы	-9.82991
▁продолжать	-9.83006
▁пре	-9.83091
▁желает	-9.8314
▁встретить	-9.83232
▁милый	-9.83267
▁боял	-9.83311
давать	-9.83343
▁усилия	-9.83404
▁душевно	-9.83405
ние	-9.83428
▁наши	-9.83512
▁сыном	-9.83529
ему	-9.83533
▁спуская	-9.83572
лы	-9.83652
▁выходя	-9.83696
▁186	-9.8393
▁входил	-9.84007
▁люд	-9.84131
ивая	-9.84161
▁16	-9.84202
▁уйти	-9.84226
▁крыльц	-9.84297
▁значительно	-9.84445
▁начальник	-9.84454
▁приня	-9.84483
▁обычны	-9.84504
▁изменить	-9.8469
▁достал	-9.8499
▁вагона	-9.85051
▁xxvii	-9.85149
▁вход	-9.85206
чик	-9.85267
▁дороге	-9.85313
меют	-9.85444
▁насмешливо	-9.85587
▁моли	-9.85661
▁грустно	-9.85861
▁принимал	-9.86079
▁решени	-9.8608
▁27	-9.86313
▁хозяина	-9.86321
▁испуга	-9.86391
is	-9.86502
▁дама	-9.8654
▁борьб	-9.86554
▁m	-9.86633
▁окна	-9.86663
▁черно	-9.86755
ойти	-9.8679
▁гости	-9.8689
▁xxii	-9.87031
▁гладиатор	-9.87114
▁заседани	-9.87114
▁кузьм	-9.87114
▁махотин	-9.87114
▁предстояще	-9.87114
▁прокричал	-9.87114
▁стремов	-9.87115
▁происходил	-9.8715
▁понимаешь	-9.87156
▁двум	-9.87162
▁покос	-9.87205
едем	-9.87207
▁ничем	-9.87213
▁гувернантк	-9.87239
▁англичанин	-9.87249
▁спрашива	-9.87274
▁перчатк	-9.87277
▁вскочил	-9.87278
▁дорого	-9.87306
▁болото	-9.87324
▁пр	-9.87349
▁нашла	-9.87391
▁школы	-9.87394
▁спокойстви	-9.87401
▁чуж	-9.87414
▁существо	-9.8742
▁кричал	-9.87429
▁везде	-9.87469
▁приятны	-9.87473
▁сцен	-9.8753
кажете	-9.8754
ложив	-9.87579
▁недел	-9.87596
▁сомнева	-9.87716
▁десятин	-9.87728
▁заметно	-9.87749
▁счита	-9.87884
пустить	-9.87962
по	-9.8799
▁вину	-9.88001
▁сильне	-9.88011
▁огромны	-9.88059
▁хозяйстве	-9.88081
▁задумал	-9.88184
▁избега	-9.88217
▁делают	-9.88249
▁воли	-9.88286
▁сено	-9.88378
▁надежд	-9.88461
дите	-9.88551
▁добра	-9.88564
▁ружье	-9.88669
▁высокий	-9.88719
▁сделали	-9.88741
▁больна	-9.88785
▁добродушно	-9.88797
▁14	-9.88877
ни	-9.89054
▁ждала	-9.89155
▁черн	-9.89199
▁признать	-9.8931
▁гриб	-9.89322
▁неприятны	-9.89325
▁луг	-9.89331
▁вел	-9.89364
▁щербацк	-9.89406
▁лучши	-9.89623
хорошо	-9.89656
▁12	-9.89774
▁близки	-9.8983
▁никог	-9.89867
▁сделаю	-9.90083
▁физически	-9.90148
▁полк	-9.90247
▁огромно	-9.9032
▁дверя	-9.90506
▁d	-9.90576
▁получив	-9.90625
▁твои	-9.90802
▁холод	-9.90887
▁плохо	-9.90901
▁начина	-9.90931
▁совет	-9.90939
ского	-9.91137
▁29	-9.91278
▁огляну	-9.91368
▁la	-9.91431
▁дает	-9.91619
енно	-9.91806
▁33	-9.91807
▁свадьб	-9.91876
▁туровцын	-9.91876
▁отчаяние	-9.91877
▁поразил	-9.91877
ской	-9.91878
▁возьми	-9.9189
▁просиял	-9.91901
▁федор	-9.91935
▁целуя	-9.91944
▁отвращение	-9.91972
легче	-9.91978
▁эпох	-9.92008
▁нежность	-9.92099
▁справедливо	-9.92105
дней	-9.9211
пример	-9.92147
искать	-9.92158
▁наверно	-9.92218
где	-9.92303
▁скаче	-9.92304
▁корне	-9.92309
▁слыхал	-9.92338
▁изре	-9.92338
▁скрыть	-9.92349
▁вне	-9.9235
▁посла	-9.92392
▁пользу	-9.92402
▁искренно	-9.92414
▁образование	-9.92443
▁годов	-9.92453
▁15	-9.92494
вот	-9.92526
ойдя	-9.92533
▁стоил	-9.92605
▁ужаса	-9.92608
▁первая	-9.92625
долго	-9.92706
▁сто	-9.92709
▁зато	-9.92748
▁урок	-9.92772
▁кучера	-9.92832
▁впечатления	-9.92865
▁1873	-9.92937
▁пойми	-9.92942
▁крест	-9.92984
▁нужна	-9.93031
▁бров	-9.93034
▁лакея	-9.93066
▁французски	-9.93071
▁меньше	-9.93086
▁жар	-9.9313
▁лестнице	-9.9328
▁глубине	-9.93318
▁русско	-9.93359
▁старо	-9.93369
▁делается	-9.93472
▁лоб	-9.93476
▁считаю	-9.93543
▁подума	-9.93589
▁отда	-9.93901
▁23	-9.93917
▁противно	-9.94088
▁нынешни	-9.94103
▁шуб	-9.94225
▁похоже	-9.9427
▁верх	-9.94279
▁x	-9.94312
▁экипаж	-9.94343
▁переговори	-9.94555
илась	-9.9468
▁решение	-9.94828
▁мнени	-9.94835
▁расход	-9.94837
▁довод	-9.94848
▁плечи	-9.95048
▁счет	-9.95111
▁широко	-9.95142
▁общественно	-9.95185
▁влюблена	-9.95396
▁сен	-9.95427
▁поняти	-9.95617
▁свидани	-9.9564
▁нумер	-9.95689
▁повери	-9.95696
▁длинны	-9.95776
▁рубашк	-9.95894
▁волосам	-9.95907
▁мире	-9.9604
▁простит	-9.96064
вал	-9.96154
▁прощай	-9.96245
▁сделав	-9.96258
ком	-9.96275
▁жале	-9.96324
▁поговори	-9.96395
▁вызвал	-9.96423
▁жалост	-9.96447
▁мужика	-9.96677
▁ожидани	-9.96701
▁повернул	-9.96831
▁находит	-9.96846
дни	-9.96854
▁коридор	-9.96876
▁террас	-9.96876
▁фамили	-9.96876
▁птиц	-9.96877
▁заснул	-9.96877
▁раскаива	-9.96879
▁попросил	-9.96888
▁чиновник	-9.96916
▁черным	-9.96922
▁устроить	-9.96986
▁полагаю	-9.9699
▁кончится	-9.9699
▁горя	-9.97001
▁выступил	-9.97007
▁выйдет	-9.97035
вых	-9.97056
▁коров	-9.97069
▁поступил	-9.97096
▁найдет	-9.97301
▁необходимость	-9.97306
▁улиц	-9.97336
▁шум	-9.97544
всегда	-9.9755
зрения	-9.97564
▁направление	-9.97566
▁р	-9.97686
▁знамениты	-9.977
▁умны	-9.97703
▁обеим	-9.97722
▁откуда	-9.97838
▁объявил	-9.97986
▁картины	-9.98007
▁дурны	-9.98174
ьев	-9.98279
▁н	-9.98383
▁кон	-9.98451
▁низко	-9.98496
▁заставил	-9.98573
нной	-9.98676
▁останавлива	-9.98808
▁желаю	-9.98847
▁отдать	-9.98929
▁лично	-9.98984
▁делала	-9.99127
▁нынешне	-9.99202
▁истории	-9.99265
▁мешал	-9.99499
▁торопи	-9.99525
▁xvi	-9.99604
▁дочерь	-9.99752
▁лист	-9.99899
ите	-9.99913
▁прошли	-9.99918
▁решен	-10.0032
▁состоял	-10.0033
▁звал	-10.0038
▁считать	-10.0047
честь	-10.0059
кто	-10.0063
▁одевать	-10.007
▁ф	-10.0072
▁начинает	-10.0092
▁соч	-10.0127
▁доказыва	-10.0143
ьми	-10.0165
▁извинит	-10.0181
▁xx	-10.0188
▁обдума	-10.0191
изм	-10.0194
▁положив	-10.02
▁блестящим	-10.0202
▁христ	-10.0211
▁отчаяния	-10.0214
▁лжи	-10.0214
▁напряжени	-10.0214
▁помню	-10.0215
▁конец	-10.0217
▁гнев	-10.0217
▁13	-10.0219
▁оставь	-10.022
▁принимать	-10.022
▁шее	-10.0222
▁губернски	-10.0222
▁оставаться	-10.0229
▁разрешени	-10.0229
▁ласково	-10.023
▁событие	-10.0234
▁верст	-10.0248
▁другу	-10.0249
▁v	-10.0249
▁глядел	-10.025
▁леса	-10.025
▁ногам	-10.0251
▁роль	-10.0252
▁исполнени	-10.026
▁подобное	-10.0263
▁жених	-10.0266
▁известны	-10.0268
▁обязанности	-10.0281
▁проче	-10.0281
▁губами	-10.0288
▁лиза	-10.03
▁бросил	-10.0303
первы	-10.0309
▁сюртук	-10.0316
▁стив	-10.0337
▁философи	-10.0338
▁близко	-10.0344
▁французско	-10.0346
▁поставил	-10.0355
имся	-10.0356
▁болезни	-10.0363
▁проходил	-10.0371
▁бород	-10.0379
▁сестра	-10.038
▁сомнение	-10.0393
▁молчание	-10.0397
шли	-10.0411
38	-10.0419
▁каренину	-10.0428
▁сереже	-10.0438
▁белым	-10.045
цы	-10.0458
▁платк	-10.0468
▁слыш	-10.0475
▁дожида	-10.048
казался	-10.0499
ту	-10.051
▁непонятно	-10.0518
▁приятел	-10.0523
ье	-10.0529
или	-10.0551
▁прошедше	-10.0553
ошла	-10.0554
вой	-10.0559
▁силу	-10.0564
▁видит	-10.0576
нов	-10.0577
▁броси	-10.0583
▁шут	-10.0588
▁отц	-10.0608
▁собственно	-10.0609
▁услыха	-10.0614
▁остан	-10.0625
средство	-10.063
▁петербурга	-10.0638
роде	-10.0655
▁разны	-10.0657
▁детств	-10.0659
▁открыт	-10.0661
▁признаю	-10.0682
нять	-10.0686
▁столе	-10.0697
▁счастливо	-10.0697
▁замеча	-10.0697
ле	-10.0699
▁честь	-10.0706
▁важны	-10.0709
▁знаменит	-10.0725
▁баб	-10.0726
▁устал	-10.0731
▁памят	-10.0731
ев	-10.0739
спокоен	-10.0739
▁сон	-10.075
так	-10.0752
енного	-10.0756
ость	-10.076
▁вода	-10.0762
▁старше	-10.0763
▁лент	-10.0768
▁догадыва	-10.0769
▁восторг	-10.0769
▁преимуществ	-10.077
▁крыш	-10.077
▁хмуря	-10.077
▁барын	-10.0771
▁телег	-10.0771
▁случа	-10.0774
енье	-10.0784
▁сигар	-10.0785
▁одинаково	-10.0786
▁значило	-10.0789
▁мо	-10.079
▁приеду	-10.0793
▁31	-10.0793
зубы	-10.0793
▁перебира	-10.0794
▁работник	-10.0801
▁подъехал	-10.0802
▁объяснения	-10.0804
ский	-10.0813
▁оживленно	-10.0814
▁гордость	-10.0814
▁слушаю	-10.0814
вы	-10.0816
▁сквоз	-10.0822
▁другою	-10.0826
▁судар	-10.0828
▁нравственно	-10.0835
▁чемнибудь	-10.084
▁опустил	-10.085
▁девочк	-10.087
войны	-10.0872
▁обман	-10.0882
десят	-10.0885
чать	-10.0903
ила	-10.0909
▁помолчал	-10.091
разу	-10.0916
▁боли	-10.092
▁наде	-10.0926
чки	-10.0956
▁зеркало	-10.0999
▁кресло	-10.1029
йтесь	-10.1038
▁небо	-10.1047
остоит	-10.1048
▁естественно	-10.1055
очку	-10.1065
▁моем	-10.1069
▁засмея	-10.1088
прекрасный	-10.1089
▁конц	-10.1092
▁шар	-10.1093
ж	-10.1095
▁сухо	-10.1109
идеть	-10.1111
▁варвар	-10.1119
ч	-10.1141
▁какую	-10.1145
▁надежда	-10.1153
▁забыва	-10.116
▁ужина	-10.1165
▁многи	-10.1167
▁выгод	-10.1167
▁надел	-10.1172
▁посмотрит	-10.1192
▁холодны	-10.1209
▁перевод	-10.1211
▁прием	-10.1219
анны	-10.1221
▁петербургски	-10.1224
▁соображени	-10.1225
c	-10.1241
▁сапог	-10.1249
▁умер	-10.1252
низ	-10.126
▁англ	-10.126
▁опозда	-10.1261
▁полн	-10.1285
▁славны	-10.1285
▁длинно	-10.1285
▁спокойны	-10.1308
▁замети	-10.1311
▁понравил	-10.1319
▁каренины	-10.1323
▁ре	-10.1326
▁маха	-10.1328
▁чисто	-10.1333
▁любите	-10.1336
▁xv	-10.1355
▁ламп	-10.1358
▁процесс	-10.1358
▁павловн	-10.1358
▁поскоре	-10.1358
ньше	-10.1358
направо	-10.136
▁неприлично	-10.1363
▁мягкая	-10.1366
▁мною	-10.1367
▁сдела	-10.1373
▁старичок	-10.1375
▁тяжесть	-10.1375
ступить	-10.1375
▁понрави	-10.1382
▁позвонил	-10.1382
гу	-10.1389
▁ничто	-10.1391
▁тень	-10.1391
▁части	-10.1393
▁картина	-10.1395
▁нахожу	-10.1401
▁велико	-10.1402
▁открыто	-10.1403
▁притворя	-10.1404
▁счастия	-10.1405
▁губернии	-10.1409
▁обманывать	-10.1413
▁проводил	-10.1418
кому	-10.1418
▁счастливы	-10.1419
▁получал	-10.1424
▁установи	-10.1426
▁гостиниц	-10.1427
▁обдумыва	-10.143
▁вечера	-10.1436
▁конца	-10.1437
нный	-10.1443
▁страдани	-10.1448
ел	-10.145
▁отказала	-10.1457
▁независимо	-10.146
ющий	-10.1469
де	-10.1471
▁удерживая	-10.1472
▁погод	-10.1495
▁прелестно	-10.1496
▁свидания	-10.1506
▁даст	-10.1514
▁следил	-10.152
▁особенн	-10.152
это	-10.1521
▁требовал	-10.1523
▁какого	-10.1527
▁рабочи	-10.1531
▁высказал	-10.1532
▁пойдет	-10.1532
ции	-10.1533
▁статьи	-10.1545
аясь	-10.1555
той	-10.1562
▁уважение	-10.1566
▁рек	-10.1569
▁тысячи	-10.157
дут	-10.1577
▁поступ	-10.1586
▁22	-10.1588
▁красивы	-10.1589
▁машин	-10.1591
▁гадко	-10.1594
▁сер	-10.1596
▁бед	-10.1613
▁свист	-10.1617
▁варвара	-10.1619
чаю	-10.1634
▁смотрит	-10.1637
▁разговаривал	-10.1641
▁гриш	-10.1643
▁развити	-10.1658
▁извозчик	-10.166
▁понима	-10.1663
▁проходя	-10.1664
▁похожи	-10.1669
▁каких	-10.1674
▁новом	-10.1693
▁каса	-10.1694
▁общественны	-10.1696
▁позволит	-10.1699
▁xxx	-10.1699
илось	-10.1706
▁честны	-10.1711
▁видите	-10.1726
ходивших	-10.1732
▁высок	-10.1734
▁основ	-10.1737
▁манер	-10.1742
▁несчастлив	-10.1751
▁мальчика	-10.1751
▁искусство	-10.1754
▁министерств	-10.1755
▁устроил	-10.1758
▁выйд	-10.1759
▁ш	-10.1767
▁кресл	-10.1767
нн	-10.1769
▁знание	-10.1775
упить	-10.1776
▁болот	-10.1785
▁кормилиц	-10.1787
▁интересны	-10.1808
▁болота	-10.1819
ющие	-10.1827
▁помолча	-10.1828
▁голова	-10.1833
▁па	-10.1852
▁француз	-10.1862
▁карточк	-10.1869
▁помощ	-10.1875
▁плечам	-10.1881
▁мягко	-10.1888
▁втор	-10.1895
▁высот	-10.1911
▁среди	-10.1912
чел	-10.1915
▁живопис	-10.1918
▁показывал	-10.1929
▁сознани	-10.1931
19	-10.1947
▁постел	-10.1956
14	-10.1958
▁ревност	-10.1959
едет	-10.1959
▁окончив	-10.196
▁оде	-10.1976
▁бакенбард	-10.1983
▁михаил	-10.1983
▁оскорбил	-10.1983
▁свидань	-10.1983
▁домашни	-10.1983
▁инородцев	-10.1983
▁довольны	-10.1983
▁походк	-10.1984
▁обнял	-10.1984
▁поражен	-10.1984
▁плед	-10.1985
▁ус	-10.1987
▁подушк	-10.1987
▁матрен	-10.1988
▁наслаждение	-10.1988
▁неохот	-10.199
▁полчас	-10.1992
▁ответить	-10.1994
▁упорно	-10.1996
as	-10.1997
▁способность	-10.1998
▁церковь	-10.2
▁неведовск	-10.2
▁обязанность	-10.2001
▁действительност	-10.2004
▁прекрасная	-10.2005
▁дяд	-10.2007
▁взгляну	-10.201
▁родов	-10.201
▁постойте	-10.2015
▁входя	-10.2016
▁кровь	-10.2019
▁насмешк	-10.2019
▁европе	-10.2023
▁жду	-10.2026
▁равнодушно	-10.2027
▁старика	-10.2037
▁рабочих	-10.2039
▁увида	-10.2043
▁сверх	-10.2045
▁уезд	-10.2046
нуть	-10.2049
▁московски	-10.2052
▁забот	-10.2055
▁петров	-10.2056
▁десяти	-10.2056
есть	-10.2063
▁звон	-10.2064
▁неподвижно	-10.2072
▁испытыва	-10.2079
▁страшны	-10.208
▁устройств	-10.2081
▁ножк	-10.2084
▁собра	-10.2093
▁рассерди	-10.2094
▁нахмурил	-10.2098
▁получи	-10.2101
▁выразить	-10.2104
▁зелен	-10.2105
▁благодарю	-10.2111
▁обедом	-10.2119
▁кланя	-10.2122
▁баллотировать	-10.2122
▁быстрот	-10.2127
▁стать	-10.213
▁расчет	-10.213
▁пил	-10.214
▁случайно	-10.2155
отказался	-10.2158
ан	-10.2165
▁привык	-10.217
ывая	-10.2173
▁пуст	-10.2182
▁вино	-10.2187
завтра	-10.219
▁гость	-10.2198
▁напряженно	-10.2198
▁куп	-10.2208
▁чувств	-10.2219
▁боро	-10.2222
▁готовы	-10.2227
▁le	-10.2233
▁часу	-10.2241
ц	-10.2247
▁косы	-10.225
▁приятеля	-10.225
▁шутк	-10.2255
▁нежност	-10.2258
счет	-10.2259
ских	-10.2261
▁первым	-10.2274
▁действовал	-10.2282
▁образу	-10.2284
чь	-10.2286
20	-10.2291
▁иван	-10.2297
▁несчастна	-10.23
▁духовно	-10.2305
▁еду	-10.2319
▁предмета	-10.2333
▁действова	-10.2339
▁повод	-10.2352
▁изменил	-10.2356
▁xxxi	-10.2358
24	-10.2366
▁простил	-10.2374
▁сыну	-10.2377
▁лежа	-10.2385
▁надева	-10.2403
▁заняты	-10.2412
том	-10.2416
цев	-10.2416
▁слезам	-10.2428
▁болезн	-10.2432
ках	-10.2434
▁ст	-10.2441
▁спрашивая	-10.2445
▁семья	-10.2454
▁говор	-10.2456
▁противоположно	-10.2456
▁прочл	-10.2459
▁глубин	-10.2464
▁передне	-10.2464
афо	-10.247
▁главн	-10.2484
ток	-10.2487
енный	-10.249
▁ниже	-10.25
вшими	-10.2503
▁тону	-10.2509
▁страшн	-10.2516
▁нрави	-10.2517
▁всяком	-10.2518
▁прошла	-10.2532
ром	-10.2535
▁господа	-10.2537
▁блестя	-10.2543
▁старши	-10.2548
ющим	-10.2556
▁подойд	-10.2559
ре	-10.2565
▁кресла	-10.2573
▁сия	-10.2578
осить	-10.2579
станет	-10.2585
lle	-10.2588
▁почтительно	-10.2598
▁дач	-10.2599
летел	-10.2613
▁видя	-10.262
▁власт	-10.2627
▁след	-10.2631
▁государ	-10.264
▁виновато	-10.2641
▁правительств	-10.2644
▁гром	-10.2647
▁воспитыва	-10.2649
▁лукич	-10.2649
▁конюшн	-10.2649
▁снетков	-10.2649
▁крылья	-10.265
▁слуг	-10.265
▁ветер	-10.265
▁квартир	-10.265
▁сравнени	-10.265
▁свойственно	-10.265
▁сидя	-10.265
▁уединени	-10.2651
▁груди	-10.2651
▁покачивая	-10.2651
▁оскорбить	-10.2651
▁пшениц	-10.2651
немножко	-10.2653
28	-10.2655
▁скотин	-10.2657
▁посланни	-10.2658
▁настоящее	-10.2661
▁шагам	-10.2664
▁автор	-10.2669
▁возвращени	-10.2671
▁богатств	-10.2681
▁наук	-10.2682
▁поймет	-10.2682
▁свеж	-10.2687
▁21	-10.2689
▁узнавал	-10.2691
▁объяснение	-10.2699
▁осталось	-10.2701
▁полково	-10.2701
▁замечание	-10.2706
▁ошиба	-10.2706
▁наступил	-10.2706
▁приходило	-10.2707
▁хорошим	-10.2712
▁дрожащим	-10.2716
▁бабы	-10.2718
▁неприятност	-10.2721
▁судить	-10.2725
▁виноватым	-10.2728
▁блага	-10.2728
▁большинство	-10.2731
▁борьбы	-10.2733
▁делаю	-10.2733
▁бежал	-10.2734
▁опыт	-10.2736
▁направления	-10.2742
▁лестницу	-10.2748
▁дальни	-10.2753
вернувши	-10.2755
▁искусства	-10.2756
▁спокойна	-10.276
▁лег	-10.2762
▁слабост	-10.2762
▁сообщил	-10.2763
▁карман	-10.2764
▁травы	-10.2765
▁горд	-10.2774
▁уезжа	-10.2776
▁упрекал	-10.279
▁позволял	-10.2794
▁сильны	-10.2798
▁переход	-10.2805
▁известный	-10.2812
▁странны	-10.2814
▁n	-10.2822
▁сне	-10.2845
▁тела	-10.2846
▁намек	-10.2848
ении	-10.2854
▁светски	-10.2855
▁тонким	-10.2861
▁враг	-10.2867
▁отдава	-10.2896
▁3	-10.2897
▁железн	-10.29
▁ярко	-10.2905
голос	-10.2911
▁пойма	-10.2912
▁встреч	-10.2917
речь	-10.2918
▁написать	-10.2919
если	-10.2921
▁пальц	-10.2923
▁остановила	-10.2931
▁избегал	-10.2932
▁восторженно	-10.2932
▁третье	-10.2942
▁xxvi	-10.2951
▁un	-10.2952
▁собр	-10.2952
▁высоки	-10.2967
▁усталост	-10.2978
▁горячи	-10.2989
▁возможность	-10.2989
▁луга	-10.3
▁учил	-10.3004
▁составлял	-10.3005
▁привезл	-10.3008
▁подъезжа	-10.3013
▁отчет	-10.3018
▁берез	-10.3022
▁пальце	-10.3023
▁19	-10.3036
▁намерение	-10.305
жу	-10.305
▁государственно	-10.3051
▁свежи	-10.3066
▁прося	-10.3066
▁красно	-10.3074
▁журнал	-10.3077
▁крыльцо	-10.3082
▁познакомить	-10.3088
▁лишен	-10.3098
▁внутренни	-10.3103
▁фигура	-10.3112
▁пал	-10.3116
▁намерен	-10.3133
▁обычно	-10.3134
▁росси	-10.3138
▁благо	-10.3143
30	-10.3144
▁жили	-10.3148
▁графине	-10.3152
16	-10.3154
▁прелест	-10.3156
▁сестру	-10.3165
▁тридцат	-10.3169
10	-10.3177
▁ясны	-10.3179
лю	-10.3187
▁детски	-10.3188
▁привычны	-10.3197
▁дамам	-10.3197
▁остановить	-10.3213
▁занимали	-10.3217
▁исполня	-10.323
▁покорно	-10.3232
▁позор	-10.3246
▁мучать	-10.3261
▁забыв	-10.3261
▁исчезл	-10.3262
▁перенес	-10.3263
▁вальс	-10.3264
▁ясн	-10.3267
▁xxxii	-10.3273
▁опер	-10.3274
зад	-10.3278
▁играл	-10.3293
ист	-10.3295
енным	-10.3305
▁высказыва	-10.3315
▁класс	-10.3329
▁помнит	-10.333
▁детя	-10.3331
▁красото	-10.3332
▁радовал	-10.3333
▁гуля	-10.3335
▁спорил	-10.3341
▁красн	-10.3342
▁скаж	-10.3351
▁остановивши	-10.3351
▁блестел	-10.3364
▁бумажк	-10.3364
▁заключи	-10.3364
▁зонтик	-10.3364
▁мазурк	-10.3364
▁тревог	-10.3364
▁умышленно	-10.3364
▁филимоновн	-10.3364
▁баронесс	-10.3364
▁зависит	-10.3364
▁редки	-10.3364
▁красавиц	-10.3365
▁калач	-10.3365
▁старух	-10.3368
▁дворянин	-10.3369
▁жаль	-10.3371
▁маш	-10.3372
▁несчастье	-10.3372
▁пройдя	-10.3373
▁нахмуривш	-10.3376
нул	-10.3377
▁жениться	-10.3378
▁объяснил	-10.3379
▁события	-10.3379
▁работал	-10.3379
▁качеств	-10.338
▁притворств	-10.3381
▁поднять	-10.3384
▁доверие	-10.3384
▁кондуктор	-10.3384
▁взгляды	-10.3385
▁следует	-10.3385
▁приезжал	-10.3387
▁больниц	-10.339
▁желани	-10.339
▁попал	-10.339
▁вынул	-10.3392
▁жаловань	-10.3396
▁ваша	-10.3399
▁умру	-10.3401
▁примет	-10.3402
▁прическ	-10.3406
▁равнодушны	-10.341
▁раздражил	-10.3412
▁горничн	-10.3419
▁заснуть	-10.3419
▁принадлежал	-10.3424
▁требования	-10.3427
▁знакомств	-10.3428
▁началось	-10.3429
▁прелестны	-10.3431
▁поражал	-10.3432
▁женат	-10.3436
▁батюшка	-10.3446
▁забыла	-10.3452
▁отрицательно	-10.3452
▁подхватил	-10.3453
▁легким	-10.3454
▁краска	-10.3455
▁опомни	-10.3462
▁вопросе	-10.3469
▁дорож	-10.348
▁нежн	-10.3481
▁моих	-10.3485
▁власть	-10.3489
▁железно	-10.3509
▁петровна	-10.351
▁надея	-10.3514
▁девочку	-10.3518
▁зале	-10.3527
▁двига	-10.3531
▁спокойным	-10.3535
▁угадал	-10.3542
▁ровно	-10.3551
▁посмотреть	-10.3554
▁гадки	-10.3555
▁принесл	-10.3555
▁тонки	-10.3561
▁будь	-10.3569
▁обещан	-10.3569
▁единственно	-10.357
▁простот	-10.3572
▁придума	-10.3577
▁жалел	-10.3581
▁глуп	-10.3583
▁зла	-10.3591
▁занимать	-10.3605
▁весловско	-10.3605
▁помог	-10.361
▁нашли	-10.363
▁занята	-10.3631
▁взглядыва	-10.3637
▁вып	-10.3641
▁петербургско	-10.365
шей	-10.3651
▁примирени	-10.3651
▁светск	-10.3652
за	-10.366
▁гриша	-10.3662
жав	-10.3681
из	-10.3681
▁итальянск	-10.3691
▁затруднени	-10.3705
▁проща	-10.3711
▁здоров	-10.3715
▁кончи	-10.3717
остью	-10.3721
▁объяснять	-10.3735
▁принят	-10.3739
▁весела	-10.3741
▁внутренне	-10.3743
йдя	-10.3744
▁странн	-10.3747
▁осужда	-10.3748
▁туч	-10.3754
▁дворе	-10.3759
▁натур	-10.3767
▁извозчика	-10.3769
▁воспитание	-10.3786
▁заплакал	-10.3806
▁кружк	-10.3831
▁скрыл	-10.3833
▁широки	-10.3834
▁отказ	-10.3836
▁кроват	-10.3838
▁слаб	-10.3839
▁солдат	-10.3841
▁ухо	-10.3851
▁поля	-10.3864
▁сорок	-10.3868
▁нос	-10.3882
▁проч	-10.3888
▁отворил	-10.3891
▁упал	-10.3899
▁охота	-10.3908
▁господ	-10.3909
27	-10.3911
▁чита	-10.3915
▁туман	-10.392
ится	-10.3925
▁долги	-10.3928
▁смеет	-10.3944
▁мужчина	-10.3957
▁горди	-10.3972
▁решила	-10.3985
▁назва	-10.3999
вали	-10.4015
бр	-10.4016
▁огромн	-10.4024
овсе	-10.4026
▁английски	-10.4038
ца	-10.4048
▁подняв	-10.406
▁боит	-10.4064
▁ужасное	-10.4066
▁дворянств	-10.4068
▁враждебно	-10.4081
▁несчастлива	-10.4084
▁пухл	-10.4084
▁точк	-10.4094
▁энерги	-10.4096
сот	-10.4097
держать	-10.4102
▁вздохну	-10.4103
▁зят	-10.4107
далека	-10.4109
тали	-10.411
пол	-10.4111
▁мгновен	-10.4116
▁учител	-10.4119
ходила	-10.412
▁богаты	-10.4124
▁мел	-10.4127
▁благородно	-10.4133
▁весловским	-10.4133
▁губернатор	-10.4133
▁друзей	-10.4133
▁невыносим	-10.4133
▁сущност	-10.4133
▁талант	-10.4133
▁облокоти	-10.4133
▁клевер	-10.4133
▁семейны	-10.4133
▁концерт	-10.4133
▁подозвал	-10.4133
▁алле	-10.4133
▁порядк	-10.4134
▁рту	-10.4134
▁рыб	-10.4134
▁удовлетворени	-10.4135
▁пилат	-10.4136
▁напрасно	-10.4136
▁рассказать	-10.4136
▁пройдет	-10.4137
▁чаем	-10.4137
▁привел	-10.4139
▁советник	-10.414
▁приятельниц	-10.414
▁знакомо	-10.414
▁смутно	-10.4141
▁опустив	-10.4142
▁позволил	-10.4143
▁излага	-10.4143
▁европы	-10.4145
▁перегородк	-10.4145
▁умерла	-10.4145
▁езди	-10.4147
▁учитель	-10.415
▁находила	-10.415
▁мост	-10.4152
▁случаях	-10.4152
▁прощения	-10.4159
▁производил	-10.416
▁бо	-10.416
▁обойти	-10.416
▁притворно	-10.416
▁светло	-10.4163
▁ревность	-10.4165
▁оглядыва	-10.4169
▁лб	-10.4172
▁серьезны	-10.4173
ства	-10.4173
▁горячо	-10.4174
▁избавиться	-10.4177
▁девять	-10.4178
▁повел	-10.4179
▁море	-10.4181
▁отцом	-10.419
▁выражал	-10.4191
▁происходит	-10.4194
▁ящик	-10.4197
▁копн	-10.4197
▁стоявши	-10.4197
ности	-10.4199
▁блаженно	-10.4202
▁обращени	-10.4203
▁успе	-10.4205
▁увидишь	-10.4208
▁уважал	-10.4208
▁жалость	-10.4209
▁названи	-10.421
▁черны	-10.4211
▁бала	-10.4211
▁большом	-10.4213
▁колес	-10.4219
▁вспоминала	-10.422
▁твердым	-10.422
▁пройти	-10.4221
▁молок	-10.4229
▁правдивы	-10.4232
▁свеже	-10.4233
▁держать	-10.4235
▁законы	-10.424
▁достав	-10.4247
берет	-10.425
▁дурна	-10.4261
овер	-10.4263
ра	-10.4264
▁чудо	-10.4267
вижу	-10.4267
▁мороз	-10.427
▁вечно	-10.427
▁кури	-10.4275
▁мелки	-10.4277
▁миллион	-10.4277
▁общ	-10.4283
▁поднима	-10.4285
▁разу	-10.4285
▁служебн	-10.4287
▁планы	-10.4288
▁дерев	-10.4295
▁брать	-10.4296
▁тайны	-10.4302
26	-10.4306
▁умира	-10.4309
овать	-10.4315
▁уме	-10.4326
▁военны	-10.4329
▁прост	-10.434
▁обидно	-10.4346
▁встрече	-10.4351
ro	-10.4358
▁поправить	-10.4365
▁чист	-10.4365
▁учреждения	-10.4365
▁женско	-10.4368
▁московско	-10.4375
▁земля	-10.4397
▁холодным	-10.4401
▁современно	-10.4408
▁корсунски	-10.441
▁оказало	-10.4419
нравилось	-10.4432
▁манера	-10.444
▁встав	-10.445
▁впечатлени	-10.4455
▁дай	-10.4456
▁правил	-10.4458
▁усили	-10.4459
▁показыва	-10.4459
▁минута	-10.4461
▁гостя	-10.4464
▁обмана	-10.4469
лево	-10.4469
▁следующи	-10.4471
оставив	-10.4474
▁свободно	-10.4478
▁средства	-10.4479
▁ужин	-10.448
▁трудност	-10.4481
▁съезди	-10.4483
▁поклон	-10.4486
▁разниц	-10.4487
стается	-10.4487
▁румяны	-10.4492
▁мила	-10.4497
туда	-10.4512
▁седы	-10.4514
▁бел	-10.4516
▁настроение	-10.4531
▁говоривши	-10.4533
▁приехав	-10.4534
▁бале	-10.4535
▁шедше	-10.4541
▁развитие	-10.455
▁унижени	-10.4553
столько	-10.4555
▁отдел	-10.4555
▁помоги	-10.4559
▁глупы	-10.4559
ска	-10.4567
▁следующе	-10.4569
▁равнодушие	-10.457
ими	-10.4572
ложил	-10.4573
нием	-10.4575
▁передн	-10.4577
▁статье	-10.458
▁выбрать	-10.4583
литературно	-10.4598
▁красив	-10.4599
▁склад	-10.46
▁лестниц	-10.4604
▁двадцати	-10.4606
▁вели	-10.4608
снее	-10.4616
▁убежден	-10.4624
▁направил	-10.463
▁убит	-10.463
▁сообщи	-10.4637
▁бежа	-10.4642
▁долг	-10.4642
▁обедал	-10.4645
она	-10.4652
глядывая	-10.4662
▁свияжском	-10.4662
▁русским	-10.4664
▁сух	-10.4672
▁закрыв	-10.4674
▁сложны	-10.4679
помнить	-10.4683
▁вошедше	-10.4688
25	-10.4706
▁поступк	-10.4707
48	-10.4715
▁дупел	-10.4722
▁бур	-10.4728
▁десят	-10.4731
▁смело	-10.4737
▁поезда	-10.4738
▁контор	-10.4739
мся	-10.4747
▁учреждени	-10.4753
▁холодн	-10.4757
▁встретила	-10.4769
▁любовал	-10.4774
▁толсты	-10.4775
▁занима	-10.4778
▁кур	-10.4779
▁видели	-10.4781
▁объяви	-10.4781
▁религи	-10.4782
▁ничтожны	-10.4788
▁пытал	-10.4789
▁готово	-10.4807
▁видим	-10.4816
▁цели	-10.4816
▁определи	-10.4839
▁первом	-10.4843
▁ce	-10.4855
▁княжне	-10.4855
▁пьян	-10.486
цу	-10.4864
▁кончить	-10.4873
▁раздражал	-10.4884
лн	-10.4885
▁гимнази	-10.4907
▁хозяйств	-10.4907
▁ошибка	-10.4915
▁хлопот	-10.4918
▁рост	-10.4925
▁письме	-10.4928
▁свияжск	-10.4928
▁бывши	-10.493
▁близост	-10.4944
ья	-10.4947
▁ковр	-10.4956
▁корм	-10.4959
▁записки	-10.496
ически	-10.4963
▁xxv	-10.4964
▁воркуев	-10.4966
▁директор	-10.4966
▁задрожал	-10.4966
▁катерин	-10.4966
▁меркалов	-10.4966
▁мускул	-10.4966
▁наследство	-10.4966
▁пешко	-10.4966
▁современников	-10.4966
▁хвост	-10.4966
▁карьер	-10.4966
▁самовар	-10.4966
▁стакан	-10.4966
▁вызов	-10.4966
▁балкон	-10.4966
▁конторщик	-10.4966
▁отдельно	-10.4967
▁плуг	-10.4967
▁бокал	-10.4967
▁татарин	-10.4967
▁представь	-10.4967
▁выставля	-10.4968
▁вещей	-10.4968
▁ждет	-10.4968
▁молитв	-10.4968
▁сумм	-10.4968
▁спасти	-10.4969
▁посторонни	-10.4969
▁рыдани	-10.4969
▁потребност	-10.497
▁прекратить	-10.4971
христос	-10.4971
▁поводья	-10.4972
▁задумчиво	-10.4973
▁замолчал	-10.4973
▁предложил	-10.4973
▁познакомил	-10.4974
▁тележк	-10.4975
▁объяснял	-10.4975
▁облегчени	-10.4976
▁жарко	-10.4981
▁подчиня	-10.4981
▁хозяйственны	-10.4983
18	-10.4984
▁пришли	-10.4987
▁француженк	-10.499
▁проснул	-10.4993
▁вон	-10.4995
▁грязи	-10.4995
▁значительным	-10.4997
▁повар	-10.4998
▁помощник	-10.5
▁малин	-10.5001
▁едут	-10.5002
числе	-10.5003
▁усилива	-10.5003
▁настаивал	-10.5004
▁письменно	-10.5005
▁рюмк	-10.5005
▁приятель	-10.5009
▁приличия	-10.5011
▁похож	-10.5012
▁скачках	-10.5019
▁слабость	-10.502
▁офицеров	-10.5021
▁маленьким	-10.5022
▁ненавиди	-10.5032
▁постара	-10.5033
▁молчани	-10.5033
▁удивил	-10.504
▁поздорова	-10.5046
▁богат	-10.505
▁тяжелы	-10.5052
▁делаешь	-10.5052
▁фрак	-10.5052
▁задушевны	-10.5056
▁устройство	-10.5058
▁случаю	-10.5059
▁пчел	-10.5066
▁il	-10.5071
▁служил	-10.5072
▁ше	-10.5075
▁молодост	-10.5083
▁указал	-10.5091
▁удивлени	-10.5091
▁получ	-10.5095
▁предел	-10.5095
▁скот	-10.5108
▁полян	-10.5119
ство	-10.512
▁пяти	-10.5122
▁поверил	-10.5122
▁сердц	-10.5124
▁отличны	-10.5124
▁чужо	-10.5128
▁род	-10.513
ными	-10.5132
▁остальны	-10.5133
во	-10.5133
▁темно	-10.5136
▁требова	-10.5139
▁ста	-10.5141
▁дорога	-10.5143
▁считает	-10.5144
▁варенькой	-10.5148
▁вина	-10.5152
▁учены	-10.5159
▁бра	-10.5165
далеко	-10.5168
▁встречал	-10.5177
▁товарище	-10.5187
▁любу	-10.5196
▁интереса	-10.5208
▁скрыва	-10.5214
▁нача	-10.5215
ица	-10.5229
▁физическо	-10.5231
l	-10.5241
▁ездит	-10.5243
▁скрывать	-10.525
▁отдыха	-10.5253
▁потянул	-10.5257
чка	-10.5262
▁34	-10.5263
▁наряд	-10.5277
близи	-10.5281
▁поставлен	-10.5283
▁противны	-10.5298
▁измени	-10.5306
▁сошел	-10.531
▁196	-10.5315
▁глупост	-10.5316
▁закрыл	-10.5318
▁толк	-10.5319
▁рассказ	-10.532
▁презира	-10.5325
▁страда	-10.533
▁облонском	-10.5333
▁естественны	-10.5342
23	-10.5342
ры	-10.5359
▁личны	-10.5365
▁переда	-10.5366
▁театре	-10.5375
▁свят	-10.5381
▁оглядывал	-10.5384
▁любимы	-10.5384
▁милы	-10.5392
▁господи	-10.5393
ющую	-10.5404
▁покровско	-10.5408
▁заплати	-10.5413
▁4	-10.5421
▁ночно	-10.5423
бу	-10.5432
▁дальне	-10.5439
▁упрек	-10.5441
▁ошибк	-10.5445
няв	-10.5454
▁ушл	-10.5473
русски	-10.5476
▁доста	-10.5477
▁своячениц	-10.5485
▁замечала	-10.5493
▁езд	-10.5504
▁земски	-10.5506
▁коротки	-10.5521
нув	-10.5523
шла	-10.5544
▁разделя	-10.5546
▁прерва	-10.5548
▁философ	-10.5549
▁повторя	-10.5549
▁выпуска	-10.5554
▁зад	-10.5567
▁школ	-10.5567
▁мучительны	-10.5573
▁весловском	-10.5573
▁следи	-10.5575
головы	-10.5578
▁понимани	-10.5581
▁сыр	-10.5582
▁засмеял	-10.5582
▁ясность	-10.5584
▁назначени	-10.5585
▁способ	-10.5602
▁оказа	-10.5603
▁изменя	-10.5604
▁удовольстви	-10.5605
ня	-10.5607
▁генерал	-10.5609
▁похвал	-10.5609
ник	-10.5612
13	-10.562
▁идеал	-10.562
▁раздел	-10.5621
ала	-10.5636
▁куч	-10.5647
▁сделай	-10.5649
▁s	-10.5652
▁проси	-10.5655
▁черта	-10.5659
▁смел	-10.5661
▁приближа	-10.5663
▁потеря	-10.5675
▁заботи	-10.5676
▁назвал	-10.568
▁наблюда	-10.5689
щ	-10.5702
ходившего	-10.5703
▁помога	-10.5704
▁дыша	-10.5704
▁лип	-10.5705
▁простила	-10.5713
▁железны	-10.5716
▁глав	-10.5725
ри	-10.5728
▁встречать	-10.5731
▁увиде	-10.5742
▁соображения	-10.5743
ив	-10.5744
садил	-10.5746
ение	-10.576
▁явил	-10.5767
▁спроси	-10.5769
et	-10.5773
красный	-10.5776
▁придумыва	-10.5782
ба	-10.5788
▁слове	-10.5789
ший	-10.5792
си	-10.5802
▁зуб	-10.5808
▁состави	-10.5812
ило	-10.5819
▁вызва	-10.5822
▁помилуй	-10.583
▁меша	-10.583
▁зва	-10.5842
▁глуб	-10.585
▁шампанско	-10.585
вестник	-10.5852
▁смущал	-10.5855
идите	-10.5855
ин	-10.5856
▁встречала	-10.5857
▁становит	-10.5857
▁предполага	-10.5857
▁аристократ	-10.5865
▁доклад	-10.5867
▁пользова	-10.5868
▁обязан	-10.5873
▁несправедливо	-10.5873
▁lin	-10.5873
▁положен	-10.5873
▁архитектор	-10.5875
▁камергер	-10.5875
▁камердинер	-10.5875
▁mademoiselle	-10.5875
▁бинокл	-10.5875
▁капитоныч	-10.5875
▁отмеча	-10.5875
▁охватил	-10.5875
▁панталон	-10.5875
▁политик	-10.5875
▁титулярн	-10.5875
▁покачал	-10.5875
▁калош	-10.5875
▁недовольна	-10.5875
▁дуэль	-10.5875
▁мастер	-10.5875
▁разлук	-10.5875
▁визит	-10.5875
▁плакать	-10.5875
▁жалоб	-10.5876
▁душенька	-10.5876
▁теори	-10.5877
▁тихим	-10.5877
▁пуговиц	-10.5877
▁приготовил	-10.5877
▁труб	-10.5878
▁двенадцать	-10.5879
▁мужья	-10.5882
▁постарому	-10.5882
▁отнял	-10.5883
▁выступал	-10.5883
▁неверност	-10.5884
▁совета	-10.5884
▁поворачивая	-10.5884
▁козл	-10.5885
▁представляла	-10.5887
▁опомниться	-10.5888
▁удержал	-10.5889
▁сорокин	-10.5889
▁тетк	-10.5889
▁раздумал	-10.5894
▁замечания	-10.5894
▁угол	-10.5894
r	-10.5895
▁обстановк	-10.5897
▁четыре	-10.5897
▁пристально	-10.5898
▁надвину	-10.5901
▁ощущени	-10.5902
▁угроз	-10.5902
▁област	-10.5903
▁кататься	-10.5907
▁верит	-10.5907
▁суп	-10.5908
▁сиятельство	-10.5911
ников	-10.5912
▁лед	-10.5912
▁бессознательно	-10.5915
▁мирово	-10.5915
▁хор	-10.592
▁крак	-10.5922
▁доказа	-10.5923
▁одобрял	-10.5923
▁поглядел	-10.5927
▁исполни	-10.5928
▁сношения	-10.593
▁остаться	-10.5932
▁пережил	-10.5935
▁пригласил	-10.5935
▁незнакомы	-10.5937
от	-10.5938
▁егор	-10.5939
▁просит	-10.594
▁сл	-10.5942
▁разобра	-10.5946
▁основания	-10.595
▁собрал	-10.5953
in	-10.5956
▁тяжел	-10.5957
▁выгодно	-10.5958
▁суждения	-10.5958
▁поднос	-10.5959
▁195	-10.5961
▁пробежал	-10.5961
▁выбора	-10.5962
▁худо	-10.5963
▁приказал	-10.5967
▁заставлял	-10.5968
▁ничтожно	-10.5969
▁нашло	-10.597
▁ненависть	-10.5972
▁благослови	-10.5972
вают	-10.5973
лив	-10.5974
▁вызывал	-10.5978
▁умом	-10.5983
▁спас	-10.5989
90	-10.5989
скую	-10.5991
ступая	-10.5992
▁взят	-10.5993
▁презирал	-10.5993
▁вздрогнул	-10.5998
▁переехал	-10.6005
▁варя	-10.601
▁ударил	-10.6015
▁галстук	-10.6015
▁встретили	-10.6018
▁ухаживал	-10.6019
▁выража	-10.6023
▁адвоката	-10.6025
▁дол	-10.6035
▁грубо	-10.6038
▁дневник	-10.6042
▁нян	-10.6043
▁красным	-10.6043
▁нездоров	-10.6053
▁затих	-10.6053
▁расскажи	-10.6057
▁статья	-10.6058
▁соус	-10.6064
▁дар	-10.6065
▁достоинства	-10.6069
▁больным	-10.6087
▁счастливый	-10.6112
▁посылал	-10.612
▁выстрел	-10.612
▁37	-10.6124
▁смутил	-10.6127
вень	-10.6133
▁деревенск	-10.6134
▁мечт	-10.6152
▁переставал	-10.6158
▁взглядывал	-10.6159
▁необходимы	-10.6161
29	-10.6164
▁куст	-10.6183
▁жестоко	-10.6184
▁плох	-10.6186
▁странным	-10.619
нии	-10.6194
▁приведен	-10.6198
быть	-10.6209
▁блестящ	-10.6214
▁золото	-10.6217
▁счастие	-10.6219
▁данны	-10.6235
▁треть	-10.6235
▁просты	-10.6237
▁закона	-10.6245
▁уда	-10.6251
▁посыла	-10.6269
▁намека	-10.6277
▁держала	-10.6284
▁заехал	-10.6285
вать	-10.6289
бок	-10.6297
▁прошедшем	-10.6301
▁славян	-10.6318
▁одева	-10.6324
▁свободу	-10.6325
▁реч	-10.6325
▁здорово	-10.633
живал	-10.6341
▁болезненно	-10.635
вый	-10.6355
▁уйди	-10.6362
▁ненатурально	-10.6381
▁определен	-10.6381
▁честно	-10.6384
▁ужасны	-10.6404
▁t	-10.6406
▁настроени	-10.6408
▁стан	-10.6412
▁ноч	-10.6413
▁кабинета	-10.6413
▁определенны	-10.6414
▁останавливал	-10.6422
▁народно	-10.6422
чу	-10.6423
▁русском	-10.6423
▁прочт	-10.6427
казывая	-10.6432
боком	-10.6433
▁знани	-10.6438
▁недовольно	-10.6439
чке	-10.644
▁туго	-10.6444
▁называла	-10.6459
▁зеркал	-10.6467
▁обеща	-10.6473
▁жител	-10.6478
▁писател	-10.6481
▁мучительн	-10.6494
▁бархат	-10.6496
▁внешне	-10.6506
us	-10.6516
ника	-10.652
▁выговорил	-10.6531
▁упрека	-10.6534
▁пер	-10.6538
▁густо	-10.655
▁поезжай	-10.6556
▁нашу	-10.6558
ф	-10.6568
▁одеяло	-10.6574
чести	-10.6582
▁дико	-10.6586
кста	-10.659
▁реша	-10.6597
▁здоровы	-10.661
▁николаевич	-10.661
▁потерял	-10.6617
▁поддержива	-10.6618
▁истин	-10.6622
▁рассужда	-10.6642
▁вед	-10.665
▁папирос	-10.6652
▁пят	-10.6654
▁поэт	-10.666
нести	-10.6666
▁соединя	-10.6677
ова	-10.6679
▁проект	-10.6697
▁выходит	-10.6699
▁свод	-10.6706
▁посмотри	-10.6707
▁моим	-10.6711
ик	-10.6711
лог	-10.6712
▁ум	-10.6719
ходят	-10.6728
▁внутренн	-10.6729
▁встретив	-10.6743
▁учен	-10.6767
ают	-10.6769
▁секретар	-10.6777
▁неудач	-10.6782
▁двора	-10.6782
▁силе	-10.679
▁луч	-10.6797
▁вещь	-10.6806
▁опустила	-10.6807
▁низ	-10.6809
▁интересов	-10.6811
ность	-10.6818
▁поворот	-10.6822
ском	-10.6834
▁решив	-10.6838
пробовал	-10.684
▁ненави	-10.684
▁застав	-10.6841
▁поправля	-10.6858
▁филипп	-10.6859
▁поцеловав	-10.686
▁косц	-10.6861
целовать	-10.6861
▁смешны	-10.6866
клонив	-10.687
▁надеял	-10.6872
ard	-10.6875
▁кров	-10.6875
▁источник	-10.6875
▁госпож	-10.6875
▁дуэли	-10.6875
▁кадрил	-10.6875
▁канцелярии	-10.6875
▁корпус	-10.6875
▁напомнил	-10.6875
▁обыкновени	-10.6875
▁преодоле	-10.6875
▁преступлени	-10.6875
▁приподнял	-10.6875
▁фуражк	-10.6875
▁посетител	-10.6875
▁пчельник	-10.6875
▁оскорбительно	-10.6875
▁семнадцат	-10.6875
▁барьер	-10.6875
▁фальшиво	-10.6875
▁ключ	-10.6875
▁чулк	-10.6876
▁период	-10.6876
▁шлюпик	-10.6877
▁умереть	-10.6877
▁подождать	-10.6877
▁приготовить	-10.6878
▁гордости	-10.6879
▁дьякон	-10.6879
vous	-10.688
▁раздал	-10.688
эр	-10.6882
▁поспешил	-10.6882
▁деньга	-10.6884
овтор	-10.6885
▁сочувствие	-10.6885
▁огонь	-10.6886
▁букв	-10.6886
▁воротник	-10.6887
▁кольца	-10.6887
▁доход	-10.6887
▁освобождени	-10.6887
▁ребята	-10.689
▁грудн	-10.689
▁оскорбление	-10.6891
▁притворяться	-10.6892
▁мелоч	-10.6893
▁платон	-10.6895
▁столкнул	-10.6895
▁ран	-10.6896
▁осмотрел	-10.6897
▁купил	-10.6901
▁край	-10.6902
▁приятне	-10.6903
▁выпустил	-10.6903
▁рассеянн	-10.6904
▁депеш	-10.6904
▁разруши	-10.6906
▁подбежал	-10.6907
▁окончательно	-10.6908
▁управляющи	-10.6909
▁кольцо	-10.6912
▁сочинения	-10.6913
▁отделени	-10.6915
▁благополучно	-10.6917
▁расположение	-10.6917
▁мод	-10.6919
▁протянул	-10.6921
▁пример	-10.6925
▁молни	-10.6925
▁семейство	-10.6926
▁спрашивает	-10.6926
▁крицк	-10.6927
▁пришло	-10.6929
▁оценил	-10.6929
▁понятно	-10.6932
▁защища	-10.6935
▁прожил	-10.6937
▁обычай	-10.6937
▁лавк	-10.6938
▁уныло	-10.694
▁предпринят	-10.694
▁дыхание	-10.6941
▁завтрак	-10.6941
▁неудержимо	-10.6943
льш	-10.6945
▁детях	-10.6945
▁пала	-10.6946
▁выпил	-10.6947
▁понравилось	-10.6948
▁выразил	-10.6949
▁получени	-10.6949
▁сред	-10.6955
▁нами	-10.6959
▁l	-10.6961
▁способны	-10.697
▁дружб	-10.6972
▁уеду	-10.6973
▁приближение	-10.6981
▁распоряжения	-10.6983
▁судья	-10.6985
▁сжима	-10.6985
▁полагал	-10.6987
▁выбежал	-10.6987
▁посвоему	-10.6988
▁признание	-10.6989
▁кафтан	-10.699
▁принимая	-10.6993
▁грубы	-10.6998
▁знаем	-10.7001
едло	-10.7006
евосходительство	-10.7007
▁раду	-10.7007
▁интересует	-10.7008
▁дворник	-10.7011
▁следовал	-10.7012
▁тронул	-10.7013
▁спора	-10.7013
▁получит	-10.7015
▁веселом	-10.7017
▁теперешне	-10.702
▁начало	-10.702
▁пав	-10.702
▁жалки	-10.7022
пустил	-10.7023
отечественны	-10.7026
▁прелестн	-10.703
боже	-10.7041
▁добровольце	-10.7042
▁вверх	-10.7043
▁бег	-10.7043
▁появля	-10.7053
▁дешев	-10.7053
▁сади	-10.7062
▁руководить	-10.7074
▁попытк	-10.7074
▁танцевал	-10.708
▁дорожк	-10.7089
▁делали	-10.709
▁представление	-10.7094
▁ужаснул	-10.7096
▁великодушие	-10.7099
▁присла	-10.7103
▁терпе	-10.7103
▁держит	-10.7111
вало	-10.7125
▁рубашку	-10.713
▁вырва	-10.7138
▁этак	-10.7141
▁крупны	-10.7141
▁уши	-10.7143
▁ворот	-10.7147
▁губернско	-10.7147
вшею	-10.7158
▁аккуратно	-10.7159
▁близк	-10.7174
▁доложи	-10.7175
▁недоста	-10.7188
▁промах	-10.7194
▁приготовлен	-10.7196
▁оживлени	-10.7209
▁палк	-10.7213
▁условие	-10.7213
▁оживленны	-10.7214
▁помо	-10.7218
▁члена	-10.7224
▁пошло	-10.7226
▁приемн	-10.7232
▁разбира	-10.7236
▁протягива	-10.7242
▁трава	-10.7249
▁трудов	-10.7264
▁оставля	-10.7264
▁природ	-10.7265
щего	-10.7276
▁раскаяние	-10.728
говорили	-10.7289
▁пустил	-10.7291
▁теплы	-10.7301
▁некогда	-10.7304
▁сообща	-10.7305
▁французск	-10.7305
▁брал	-10.7308
▁красот	-10.7308
21	-10.731
▁взволнованно	-10.7313
▁чтение	-10.7321
▁нагнула	-10.7322
▁свояченице	-10.7325
▁испуганным	-10.7329
▁нака	-10.7337
дают	-10.7346
▁женщинам	-10.735
▁встречая	-10.7365
▁завтрака	-10.7367
▁затихл	-10.7367
▁внешн	-10.7368
▁страдал	-10.7373
▁кол	-10.7375
▁равнодуши	-10.7377
▁материально	-10.7382
▁отворила	-10.7385
▁хорошеньк	-10.7386
▁косил	-10.7393
▁приду	-10.7396
ище	-10.7398
▁забывал	-10.74
сты	-10.7401
▁слабо	-10.7403
водить	-10.7405
▁колеса	-10.7419
▁новост	-10.7419
▁взволнован	-10.7421
▁пушкин	-10.7428
▁глубоко	-10.7431
▁теря	-10.7443
ившие	-10.7447
▁женил	-10.7447
▁голод	-10.7448
▁напиш	-10.7448
▁соверша	-10.7459
▁объясня	-10.7462
15	-10.7464
казывать	-10.7477
▁мечта	-10.748
английски	-10.7488
▁комитет	-10.7493
▁немецки	-10.7495
▁провожа	-10.7496
▁барина	-10.7505
ела	-10.7505
▁слышали	-10.7505
▁банк	-10.7515
▁настоящи	-10.7522
▁вес	-10.7522
▁привлекательно	-10.7523
▁жалова	-10.7538
дали	-10.7539
▁строг	-10.7542
▁уходи	-10.7545
▁велики	-10.7546
думать	-10.7551
▁машина	-10.7554
▁перебива	-10.7555
ря	-10.7557
▁невозможны	-10.7562
▁веселье	-10.7565
▁предположения	-10.7565
▁унижение	-10.7593
▁выехал	-10.7594
▁брос	-10.7594
▁несчастно	-10.7594
▁привыкл	-10.7597
▁щербацким	-10.7604
▁петрицк	-10.7606
▁влюбленно	-10.7612
▁вашем	-10.7615
▁взаимно	-10.7617
▁недоумение	-10.7634
▁готова	-10.7639
▁вспыхну	-10.7639
▁иваныче	-10.7651
▁добрым	-10.7662
▁чтени	-10.7685
▁раб	-10.7688
▁сжал	-10.7694
▁зада	-10.7695
▁помещика	-10.7698
▁круж	-10.7713
▁подай	-10.7717
▁подумай	-10.7719
ент	-10.7723
▁возьму	-10.7725
▁высши	-10.7736
мне	-10.7741
▁рукав	-10.7741
▁занял	-10.7744
▁кус	-10.7749
▁плакал	-10.775
▁таинственно	-10.7751
▁признава	-10.7762
▁купца	-10.7765
11	-10.7771
▁огорчен	-10.7778
▁прелестна	-10.778
▁произнес	-10.779
наш	-10.7798
▁позволя	-10.7802
▁предположени	-10.7803
▁страстно	-10.7803
▁длинным	-10.7803
▁сорт	-10.7806
▁родн	-10.7814
▁употреби	-10.7818
▁давай	-10.7819
▁привез	-10.7819
▁замира	-10.7824
▁бер	-10.7837
▁тяжела	-10.784
ете	-10.7846
▁вред	-10.785
▁чуждо	-10.7851
▁доброт	-10.7853
▁стреля	-10.7854
ющими	-10.7859
▁причина	-10.7859
▁оглянувш	-10.7872
▁тип	-10.7873
▁города	-10.7875
▁оставал	-10.7883
верх	-10.7886
▁роскош	-10.7887
▁имевши	-10.789
ница	-10.7893
▁молоко	-10.7895
▁сожале	-10.7905
▁тщетн	-10.7909
▁вступа	-10.791
▁ма	-10.7925
▁хохот	-10.7929
▁круп	-10.7935
▁расспрашива	-10.7935
es	-10.7938
▁дворянско	-10.7942
▁любовник	-10.7943
▁любя	-10.7947
▁уход	-10.7955
▁дипломат	-10.7956
▁ожида	-10.7959
брать	-10.7967
▁деятел	-10.7969
▁побед	-10.797
▁правител	-10.7972
▁катк	-10.7974
пустив	-10.7975
▁актрис	-10.7986
▁аппетит	-10.7986
▁галоп	-10.7986
▁гриневич	-10.7986
▁евангели	-10.7986
▁ергушов	-10.7986
▁педагог	-10.7986
▁прислуг	-10.7986
▁скарлатин	-10.7986
▁смягчи	-10.7986
▁сострадани	-10.7986
▁умственно	-10.7986
▁утвержда	-10.7986
▁андреевн	-10.7986
▁соперник	-10.7986
▁чепчик	-10.7986
▁шапк	-10.7986
▁вожж	-10.7986
▁жертв	-10.7986
▁шурин	-10.7986
▁халат	-10.7986
▁достоевск	-10.7987
▁недовольны	-10.7987
▁граци	-10.7987
▁мелькнул	-10.7987
▁догада	-10.7987
вскоре	-10.7987
▁обидел	-10.7987
▁очну	-10.7987
ait	-10.7987
▁христианин	-10.7987
▁завиду	-10.7988
▁мученье	-10.7988
▁пространств	-10.7988
▁постройк	-10.7988
▁воздвиженско	-10.7988
▁полынь	-10.7989
▁тишин	-10.7989
▁отсюда	-10.7989
▁сближени	-10.7989
▁бумажник	-10.7989
▁анало	-10.7989
▁посторонне	-10.799
▁больны	-10.799
▁сравнива	-10.7991
▁осок	-10.7993
▁перенести	-10.7994
▁раздража	-10.7994
▁портфел	-10.7994
▁проснулась	-10.7994
▁грязь	-10.7995
▁ствол	-10.7996
▁артель	-10.7996
▁событий	-10.7996
▁фонар	-10.7997
ходили	-10.7997
▁бас	-10.7998
▁пользоваться	-10.7998
▁робость	-10.8
▁отвращени	-10.8
▁собеседник	-10.8
▁разошл	-10.8001
▁ровны	-10.8001
▁неприличны	-10.8001
▁обещала	-10.8001
▁отчетливо	-10.8002
▁умоляю	-10.8002
▁осветил	-10.8002
▁убедивш	-10.8002
▁царско	-10.8003
▁мгновенно	-10.8004
▁ос	-10.8005
▁влюбленны	-10.8006
▁спит	-10.8006
▁интересовать	-10.8007
▁фет	-10.8008
▁сани	-10.8008
▁занятие	-10.8008
▁содержания	-10.8008
▁вырез	-10.8009
▁возражал	-10.8009
▁совершенн	-10.801
▁уезжает	-10.801
▁препятствия	-10.8013
▁учиться	-10.8013
▁обстоятельства	-10.8016
▁куданибудь	-10.8016
▁боков	-10.8017
▁номер	-10.8017
▁несчастия	-10.8021
▁плотник	-10.8022
▁отогн	-10.8024
▁соединить	-10.8024
▁ценил	-10.8027
▁поцеловать	-10.8027
▁помеша	-10.8031
▁здравствуй	-10.8034
▁образов	-10.8036
▁расспрашивал	-10.8038
льный	-10.8041
la	-10.8042
▁покрыто	-10.8045
▁поверь	-10.8045
▁влюбить	-10.8045
▁радовала	-10.8047
▁употребля	-10.8048
▁пятнадцат	-10.8051
давайте	-10.8051
▁приготовления	-10.8052
▁возбуждени	-10.8052
▁приводил	-10.8055
▁мух	-10.8055
▁постель	-10.8057
▁несомненны	-10.8058
▁отказаться	-10.8058
ивши	-10.8059
▁страсти	-10.806
▁обвинял	-10.8061
▁красива	-10.8062
▁лат	-10.8067
▁петровн	-10.8069
▁относил	-10.8071
▁немец	-10.8072
▁заболел	-10.8072
▁можем	-10.8072
▁поддерживал	-10.8076
об	-10.8076
▁песн	-10.8077
▁несправедливост	-10.8082
▁лга	-10.8084
▁представления	-10.8086
▁верования	-10.8093
▁исполнил	-10.8093
▁шутливо	-10.8096
▁дыхания	-10.8098
▁отворя	-10.81
▁энергически	-10.8102
▁муча	-10.8104
▁неприят	-10.8106
▁разговором	-10.8107
▁напи	-10.8117
▁снимал	-10.8124
▁ветр	-10.8125
▁схватил	-10.8126
▁вступил	-10.8128
▁видны	-10.813
▁лицам	-10.8135
▁льд	-10.8136
▁изучал	-10.8138
▁изменило	-10.8143
ищет	-10.8145
▁изменял	-10.8146
▁века	-10.8148
▁давали	-10.8154
▁пропуска	-10.8157
влечь	-10.8161
▁музыки	-10.8162
▁легл	-10.8162
▁дружески	-10.8163
чно	-10.8164
▁техник	-10.8166
▁поди	-10.8166
▁ловко	-10.8171
▁существа	-10.8175
▁придано	-10.8175
▁россия	-10.8177
▁убедил	-10.8185
▁намерения	-10.8186
▁умирающе	-10.8188
▁уш	-10.8194
▁воображал	-10.82
ич	-10.82
▁имеющи	-10.8212
▁высоту	-10.8213
▁пишу	-10.8216
▁раздражени	-10.8218
▁наблюдал	-10.8222
▁кончает	-10.8226
▁лучш	-10.8231
▁служить	-10.8234
▁отчаянны	-10.824
▁захотел	-10.824
шая	-10.8243
▁париж	-10.8245
▁подходивше	-10.8252
▁неизвестно	-10.8261
▁судь	-10.8262
▁порядочны	-10.8276
▁занять	-10.8276
▁несчастны	-10.8278
ехав	-10.8289
▁недовольство	-10.8292
▁трудны	-10.8299
▁мешать	-10.8303
▁такто	-10.8317
▁преступн	-10.8323
»33	-10.8324
бил	-10.8327
▁товарища	-10.8335
▁прошл	-10.8348
▁доказательств	-10.8355
▁удивлен	-10.8355
▁пл	-10.8361
лов	-10.8363
▁нынешнем	-10.8367
▁толстым	-10.837
▁упала	-10.837
вин	-10.8376
▁перешл	-10.838
▁развлека	-10.8387
вляется	-10.839
▁увлечение	-10.8397
▁увлек	-10.8402
▁темнот	-10.8404
нь	-10.8411
le	-10.8411
▁глупа	-10.8412
▁роди	-10.8413
▁жестоки	-10.8413
▁принц	-10.8417
▁разнообразны	-10.8417
▁презрени	-10.842
▁удивительны	-10.8421
▁подъезжал	-10.8434
▁ведет	-10.8436
▁жилет	-10.8438
▁стр	-10.8439
усовершенствован	-10.844
▁немц	-10.8441
▁штук	-10.8446
ней	-10.8448
▁прежним	-10.8458
▁спасение	-10.8463
▁крестьян	-10.8479
▁спори	-10.8482
▁грех	-10.8484
▁отчаянно	-10.8485
▁либеральн	-10.8491
▁оскорблен	-10.8494
▁слива	-10.8502
▁сдержанно	-10.8503
64	-10.8507
▁нужным	-10.8519
12	-10.852
▁подобны	-10.8542
▁вчерашне	-10.8548
ue	-10.8552
сами	-10.8563
▁полков	-10.8567
▁семен	-10.857
ехала	-10.8581
▁страстны	-10.8583
▁женски	-10.859
▁политически	-10.8591
▁четверты	-10.8599
▁друзья	-10.8604
дешь	-10.8616
▁сказанно	-10.8619
▁рассуждения	-10.8625
▁супруг	-10.8629
▁разда	-10.863
▁стоявше	-10.8634
▁известия	-10.8639
писал	-10.864
▁начаты	-10.8652
▁употреблял	-10.8662
▁вбежал	-10.8663
▁живот	-10.8666
▁воспитани	-10.8667
▁пот	-10.8667
▁закрыт	-10.8667
▁приеха	-10.8672
▁бросила	-10.8682
▁узки	-10.8684
▁занимает	-10.8689
▁наград	-10.8705
▁центр	-10.8709
▁кончила	-10.8715
▁задума	-10.8719
▁подробностя	-10.8724
▁любимо	-10.8728
▁испуг	-10.8731
▁волновал	-10.8735
▁восхища	-10.8736
▁музык	-10.8739
▁невестк	-10.874
московски	-10.874
ившему	-10.8746
нулась	-10.8747
▁полезно	-10.8749
▁скотн	-10.8753
▁двину	-10.8767
▁запута	-10.8769
▁мужчинам	-10.877
разумеется	-10.8775
▁подвинул	-10.8777
сел	-10.8779
▁существу	-10.8782
▁повер	-10.8792
▁игрушк	-10.8796
▁военно	-10.8803
▁нехорош	-10.8809
▁рабоч	-10.8821
▁дик	-10.8825
▁уважени	-10.8828
▁упоминани	-10.8831
▁таинственны	-10.8833
слав	-10.8833
▁задач	-10.8841
ался	-10.8843
▁изо	-10.885
▁испуганны	-10.8852
▁дворянски	-10.8852
▁ревнив	-10.8859
▁открыв	-10.886
▁выйду	-10.8863
▁коротким	-10.8866
▁кар	-10.8869
честв	-10.8874
▁бар	-10.8879
▁независимы	-10.8881
▁кружева	-10.8892
▁марье	-10.8894
очка	-10.8894
▁отвернул	-10.8902
54	-10.8906
▁результат	-10.8912
▁скрывал	-10.892
▁спинк	-10.8938
▁явля	-10.8939
▁попыта	-10.8949
▁тепло	-10.8952
тонибудь	-10.8957
▁любова	-10.8961
▁участи	-10.8965
▁нашим	-10.8967
▁страстн	-10.8967
▁денник	-10.897
▁вообража	-10.8985
ор	-10.8989
▁воскрес	-10.8995
▁факт	-10.9006
▁увидит	-10.9006
▁зл	-10.9009
▁правила	-10.9012
▁баба	-10.9022
▁художественно	-10.9026
▁рассуждени	-10.9029
nce	-10.9041
▁внешни	-10.9052
▁укладыва	-10.9053
щую	-10.9057
▁работникам	-10.9059
отни	-10.9059
▁тяг	-10.906
▁вздох	-10.9065
леп	-10.9076
▁драм	-10.9083
▁почувствова	-10.9093
▁соверш	-10.9094
▁поз	-10.9095
▁барыш	-10.9096
▁исповед	-10.9097
▁мешоч	-10.9099
▁распоряжени	-10.9102
▁нечисто	-10.9109
▁приписыва	-10.9113
торопливо	-10.9121
ашк	-10.9122
▁втором	-10.9123
▁привычн	-10.9123
возь	-10.9123
▁столик	-10.9124
▁назначен	-10.9125
▁задни	-10.913
▁серы	-10.9132
▁тонк	-10.9137
везт	-10.9138
▁стро	-10.9141
▁рос	-10.9142
ща	-10.9144
▁деятель	-10.9145
▁натянут	-10.9148
▁видна	-10.9151
▁толстом	-10.916
▁предлага	-10.9162
▁семейств	-10.9173
сон	-10.9174
▁белокур	-10.9174
звали	-10.9175
▁чувствовали	-10.9176
▁заговорили	-10.918
др	-10.9183
щими	-10.9198
▁упомина	-10.9199
▁совершил	-10.9201
▁родител	-10.9205
▁живы	-10.9209
▁ужасна	-10.9212
▁подел	-10.9212
▁недавн	-10.9212
цц	-10.9213
▁убеждени	-10.9216
махивая	-10.9216
▁торжество	-10.9218
жусь	-10.9224
▁визг	-10.9227
▁капитал	-10.923
and	-10.9231
▁революци	-10.9236
▁заключа	-10.9236
▁поздравля	-10.9236
▁публицист	-10.9236
▁жеребц	-10.9236
▁земледели	-10.9236
▁кандидат	-10.9236
▁критик	-10.9236
▁лекарств	-10.9236
▁чириков	-10.9236
▁ягдташ	-10.9236
▁купальн	-10.9236
▁некоторо	-10.9236
▁певиц	-10.9236
▁морща	-10.9236
▁седьмо	-10.9236
▁вдвое	-10.9236
▁процент	-10.9236
▁картофел	-10.9236
▁жалованье	-10.9237
▁гардин	-10.9237
▁довольна	-10.9237
▁срок	-10.9237
▁предприяти	-10.9237
▁рубах	-10.9237
▁умрет	-10.9237
▁побыва	-10.9237
▁гимнастик	-10.9237
▁опек	-10.9237
▁запас	-10.9237
▁неизменно	-10.9238
▁одиннадцат	-10.9238
▁петрович	-10.9238
▁сельско	-10.9238
▁катя	-10.9238
▁затыл	-10.9238
▁принимает	-10.9239
ers	-10.9239
▁днем	-10.9239
▁беззубов	-10.9239
▁конфет	-10.924
▁охотничь	-10.924
▁шуточн	-10.924
▁высовыва	-10.924
▁развлечени	-10.924
▁заглади	-10.924
▁государственны	-10.924
▁самолюби	-10.9241
▁обстоятельство	-10.9241
▁покори	-10.9241
▁иванов	-10.9241
▁игрок	-10.9242
▁одежд	-10.9242
▁становя	-10.9242
▁равномерно	-10.9243
▁резко	-10.9244
▁ворон	-10.9245
▁советовал	-10.9247
▁пустяк	-10.9248
▁корд	-10.9248
▁акушерк	-10.925
▁дружелюбно	-10.9251
elle	-10.9253
▁ревну	-10.9253
▁приходят	-10.9255
▁переносить	-10.9256
мысленно	-10.9256
▁увидимся	-10.9256
▁любят	-10.9256
мент	-10.9258
▁достоинство	-10.9264
▁прилив	-10.9264
▁1872	-10.9267
▁шаров	-10.9267
▁разумел	-10.9268
▁послушал	-10.9268
▁устрицы	-10.9271
▁ласковы	-10.9272
▁роскошь	-10.9273
▁джон	-10.9274
▁успокои	-10.9276
▁пятна	-10.9278
▁спокойнее	-10.9278
▁остановк	-10.9279
естер	-10.9282
▁религиозно	-10.9282
▁получает	-10.9283
▁называет	-10.9284
▁изволь	-10.9286
▁сообщения	-10.9289
▁минутку	-10.9289
▁обоим	-10.9292
▁пожертвовал	-10.9292
▁разбиты	-10.9298
хохотал	-10.9303
▁четырех	-10.9306
▁мировы	-10.9309
▁приезжай	-10.9311
▁память	-10.9311
▁подействовал	-10.9312
▁зависть	-10.9314
▁строгим	-10.932
идят	-10.932
▁утешение	-10.9324
▁останавливая	-10.9328
▁старушк	-10.9332
▁человеческой	-10.9333
▁поэзи	-10.9339
рас	-10.934
▁забуду	-10.934
▁изволи	-10.9342
▁посадил	-10.9344
▁приказани	-10.9344
▁выразило	-10.9351
▁действует	-10.9352
▁попробовал	-10.9353
▁искренни	-10.9356
▁живопись	-10.9365
▁скоси	-10.9368
▁поспе	-10.9368
▁дым	-10.9371
убыток	-10.9373
▁четверт	-10.9373
▁ненавидел	-10.938
▁наск	-10.938
▁возбужденно	-10.938
▁удерживать	-10.938
▁разорвать	-10.9383
▁нес	-10.939
▁доложил	-10.9391
▁вьющи	-10.9397
шему	-10.9397
▁доказывал	-10.9405
▁сожалени	-10.9405
▁слышны	-10.9407
▁поправил	-10.9409
▁роде	-10.9409
▁скуча	-10.9415
▁красоту	-10.9423
частью	-10.9424
▁образован	-10.9427
▁удерживал	-10.9429
▁громким	-10.9431
▁противоположны	-10.9434
тяжелее	-10.9435
покое	-10.9436
▁бу	-10.9448
англии	-10.9458
▁пальца	-10.946
водил	-10.9464
▁позорно	-10.9464
▁посоветовал	-10.9465
лоб	-10.9465
▁благ	-10.9467
▁зависел	-10.9469
▁написан	-10.9469
▁долгов	-10.9474
▁мягки	-10.9475
есь	-10.9479
▁выпит	-10.9481
▁постыдно	-10.9486
▁учение	-10.9486
▁согласие	-10.9486
тор	-10.9487
▁наивно	-10.9489
▁прощение	-10.9491
▁прислал	-10.9494
▁ставил	-10.9495
▁ожидает	-10.9502
ui	-10.9504
овес	-10.9509
▁сотн	-10.9514
▁погубил	-10.9518
▁последнем	-10.9519
ушка	-10.9523
▁папироск	-10.9526
▁позвол	-10.9529
▁принцип	-10.953
▁привлекательна	-10.9532
▁невозможн	-10.9533
▁затворил	-10.9535
▁верн	-10.9542
▁страхов	-10.9542
▁ступа	-10.9542
▁кругло	-10.9546
переди	-10.9546
▁дрожал	-10.9546
▁бледно	-10.9547
▁пробы	-10.9548
▁удал	-10.9551
▁откры	-10.9553
▁погиб	-10.9564
▁повторять	-10.9565
чках	-10.9581
▁спускал	-10.9588
носить	-10.9589
▁переоде	-10.9589
▁остану	-10.9591
▁знания	-10.9593
учения	-10.9598
▁борон	-10.9598
пло	-10.9598
бежав	-10.96
▁беспокойство	-10.9601
▁оскорбля	-10.9611
▁обдумал	-10.9613
▁красном	-10.9617
▁ответы	-10.9618
▁малы	-10.9623
▁женщиной	-10.9624
▁купц	-10.9626
▁придумывал	-10.9626
▁видали	-10.9626
▁юнош	-10.9629
▁радостны	-10.9632
пр	-10.9634
▁жалка	-10.9646
ливая	-10.9649
▁составил	-10.9651
▁легки	-10.9654
▁лилово	-10.9655
▁чистот	-10.9656
▁министр	-10.9658
дурн	-10.9669
▁пусто	-10.9678
▁июн	-10.9683
чая	-10.9684
▁своя	-10.9695
▁еже	-10.9696
▁свободе	-10.9696
▁городски	-10.9706
говорив	-10.9709
▁совершенств	-10.9711
▁московск	-10.9713
▁коротк	-10.972
▁горяч	-10.9724
▁серд	-10.9726
▁счастью	-10.9736
▁кучк	-10.9739
▁десятк	-10.9741
вшем	-10.9744
▁восхищение	-10.9746
▁грязно	-10.9748
▁газету	-10.975
бою	-10.9752
▁en	-10.9756
▁гж	-10.976
▁прежн	-10.9763
нского	-10.9766
▁лошадя	-10.9776
▁чернов	-10.9777
▁рам	-10.9778
▁неестественно	-10.978
▁беспокоил	-10.979
чку	-10.9792
ча	-10.9794
▁кофей	-10.9799
сообразно	-10.9799
▁проходит	-10.9801
▁оправда	-10.9804
▁сильна	-10.9817
▁смеш	-10.9825
ством	-10.9826
▁открытым	-10.9829
▁переменил	-10.9831
▁пойти	-10.9837
▁неопределенно	-10.9837
▁неприятна	-10.9838
▁прекрасным	-10.9844
▁уезжаю	-10.9856
пе	-10.9859
▁устроен	-10.986
▁несчастн	-10.9863
▁мрачн	-10.9869
▁конька	-10.9872
▁приму	-10.9875
▁умен	-10.9877
▁понятиям	-10.9879
хотелось	-10.9886
▁облонских	-10.9892
▁надела	-10.9899
▁беспоко	-10.9905
▁горда	-10.9905
▁ложи	-10.9912
▁осуждал	-10.9912
▁отъезду	-10.9913
▁земство	-10.9916
▁деревенски	-10.9918
ступил	-10.9923
▁разумно	-10.9926
▁поднимал	-10.9927
▁звоно	-10.9929
нно	-10.993
▁намерева	-10.9932
▁подъехав	-10.9937
▁пренебрег	-10.9956
▁сильным	-10.9964
os	-10.997
▁сидит	-10.9978
▁открытие	-10.9978
▁коньк	-10.9982
руб	-10.999
▁кра	-11.0002
▁наслажда	-11.0004
тан	-11.0011
▁ак	-11.0017
▁17	-11.0021
▁грациозн	-11.0027
▁сиял	-11.0031
вел	-11.0034
▁сомнени	-11.0034
▁нравит	-11.0036
▁пожале	-11.0049
▁румян	-11.0051
36	-11.0058
▁кружев	-11.0066
▁сердиты	-11.0077
▁корол	-11.0082
▁дивана	-11.0087
▁бессмысленно	-11.0087
▁окружающи	-11.0091
▁масло	-11.0094
▁покров	-11.0101
▁широким	-11.0109
▁бои	-11.0112
▁горест	-11.0118
▁огромным	-11.0125
езж	-11.0131
▁вмест	-11.0132
▁раскаяни	-11.0134
сс	-11.0139
оборот	-11.0147
▁послыша	-11.0149
▁законно	-11.015
▁тороп	-11.0155
▁влюби	-11.0158
▁замолк	-11.0164
▁иде	-11.0164
ложен	-11.0164
▁192	-11.0172
▁крич	-11.0176
▁вывод	-11.0186
en	-11.0187
▁вырос	-11.0189
господи	-11.0191
▁связанны	-11.0192
▁занято	-11.0193
▁волоса	-11.0195
▁соединени	-11.02
▁сидевше	-11.0201
▁меньш	-11.0205
степен	-11.0208
▁крепостно	-11.0209
88	-11.0209
▁покупа	-11.0218
de	-11.0242
▁неизбежно	-11.0248
▁шт	-11.0255
▁обыкновенны	-11.0256
▁веселе	-11.0256
▁самим	-11.0257
▁чужом	-11.026
eur	-11.0267
▁пет	-11.0268
31	-11.0272
махнул	-11.0273
▁193	-11.0274
▁спасени	-11.0274
▁тро	-11.0275
▁встава	-11.0277
▁падени	-11.0285
▁средств	-11.0288
▁отказа	-11.0292
▁некоторым	-11.0293
▁уважаю	-11.0314
▁оживление	-11.0319
▁вронск	-11.033
▁шкаф	-11.0331
▁утренн	-11.0343
▁постави	-11.035
▁времен	-11.0352
анну	-11.0353
ены	-11.0353
▁погуби	-11.0354
▁соседне	-11.0355
торопил	-11.0364
стат	-11.0364
ившего	-11.0371
▁маленьком	-11.0392
▁приход	-11.0398
▁имение	-11.0399
гр	-11.0407
▁счасти	-11.0412
▁прибави	-11.0414
▁матушк	-11.0415
▁берег	-11.0416
▁шест	-11.0421
▁кармана	-11.0423
▁интересу	-11.0424
хожу	-11.0427
▁отправля	-11.043
▁ворота	-11.043
помнишь	-11.0438
▁требую	-11.044
▁обязанност	-11.044
▁высоком	-11.0443
ос	-11.0463
▁звер	-11.0468
▁восьм	-11.0468
▁соединен	-11.047
▁лакее	-11.0473
▁направлени	-11.0477
▁бега	-11.0478
▁танцева	-11.0479
▁твоем	-11.0489
▁проводи	-11.0491
▁обратить	-11.0493
▁театра	-11.0495
▁громки	-11.0497
▁наблюдения	-11.0503
▁ненавиде	-11.0505
▁рассчитыва	-11.0506
▁совету	-11.0507
▁усталы	-11.0508
▁польз	-11.0509
▁раздражение	-11.0518
▁ман	-11.0523
▁веровани	-11.0528
тирая	-11.0531
▁com	-11.0532
▁имень	-11.0532
▁бодр	-11.0534
▁потер	-11.0537
нский	-11.0539
▁вопросам	-11.0541
▁нагнувши	-11.0543
тель	-11.0544
▁стих	-11.0545
▁селе	-11.0545
▁подняты	-11.0547
▁собирая	-11.0549
▁подпис	-11.0552
▁переменила	-11.0553
▁велика	-11.0557
▁унижен	-11.0559
83	-11.0559
слушал	-11.0567
▁воспоминаниям	-11.0568
ше	-11.0569
щий	-11.057
▁собрани	-11.057
верно	-11.0571
кор	-11.0572
▁глухо	-11.0575
▁часам	-11.0578
▁озабоченно	-11.0579
▁акт	-11.0581
ску	-11.0584
дин	-11.0584
▁привычно	-11.0592
▁недостато	-11.0593
▁мед	-11.0594
▁удар	-11.0598
▁отрица	-11.0599
▁каков	-11.0601
▁схватив	-11.0605
▁дале	-11.0609
▁наполня	-11.061
▁слышн	-11.0611
▁одет	-11.0612
бирать	-11.0623
▁государств	-11.0627
▁подража	-11.0629
следовательно	-11.0637
▁политическо	-11.0641
ечко	-11.0647
▁председател	-11.0647
▁пойм	-11.0648
▁повторяю	-11.0648
▁европейск	-11.0651
саживая	-11.0654
едине	-11.0656
▁завист	-11.0659
анта	-11.0659
▁предложен	-11.0661
our	-11.0664
▁замер	-11.0665
▁пятидесяти	-11.0665
▁товар	-11.0665
▁ridicule	-11.0665
madame	-11.0665
▁альбом	-11.0665
▁беременност	-11.0665
▁болгаринов	-11.0665
▁вздрагива	-11.0665
▁дьявол	-11.0665
▁кузминск	-11.0665
▁морфин	-11.0665
▁неудовольствие	-11.0665
▁обсужда	-11.0665
▁опиум	-11.0665
▁отчаянии	-11.0665
▁патти	-11.0665
▁петергоф	-11.0665
▁соглашени	-11.0665
▁тарантас	-11.0665
▁цыпочк	-11.0665
▁шлейф	-11.0665
▁элемент	-11.0665
▁жадно	-11.0665
▁заграничн	-11.0665
▁кузовлев	-11.0665
▁приобретени	-11.0665
▁репутаци	-11.0665
▁рисун	-11.0665
▁фальш	-11.0665
▁холосто	-11.0665
▁ястреб	-11.0665
▁интонаци	-11.0665
▁слюдин	-11.0665
▁шарабан	-11.0665
▁золовк	-11.0665
▁врач	-11.0665
▁отвратительны	-11.0665
▁хвалил	-11.0665
▁вовремя	-11.0665
▁пирог	-11.0665
▁васильевич	-11.0665
▁нечаянно	-11.0665
▁прыга	-11.0665
▁артельщик	-11.0665
▁почерк	-11.0665
▁стадо	-11.0665
▁переезжа	-11.0665
▁убива	-11.0665
▁смешалось	-11.0665
▁сербию	-11.0665
▁кротко	-11.0666
▁молодайк	-11.0666
фор	-11.0666
▁придавал	-11.0666
▁прогресс	-11.0666
▁мисс	-11.0666
▁ведомост	-11.0666
▁варенье	-11.0666
▁величайш	-11.0666
▁аренд	-11.0666
▁насупи	-11.0666
▁герое	-11.0666
▁посев	-11.0667
▁посуд	-11.0667
▁струн	-11.0667
▁шелково	-11.0667
▁des	-11.0668
▁покупк	-11.0668
▁окружил	-11.0668
▁лодк	-11.0668
▁молоденьк	-11.0669
▁писк	-11.0669
▁решетк	-11.0669
▁отдельны	-11.067
▁флеров	-11.067
▁необычайно	-11.067
▁осин	-11.067
▁смутивши	-11.0671
▁гегел	-11.0672
▁напоминает	-11.0672
▁рядчик	-11.0672
▁оттолкнул	-11.0673
▁рент	-11.0674
▁справедливости	-11.0674
▁исправлени	-11.0675
▁предлог	-11.0675
▁ездок	-11.0675
▁прогулк	-11.0676
▁дождавши	-11.0677
▁молотилк	-11.068
▁нижн	-11.0681
▁прекращени	-11.0682
▁председатель	-11.0683
▁честн	-11.0683
▁сталкива	-11.0683
▁присел	-11.0684
▁христианско	-11.0685
▁задержал	-11.0685
▁служащи	-11.0685
▁выскочил	-11.0685
▁борисовн	-11.0685
▁студент	-11.0686
▁презирает	-11.0686
▁продолжени	-11.0688
▁почв	-11.0688
▁средне	-11.0688
▁опуская	-11.0688
▁скул	-11.0689
▁переезд	-11.0689
▁реже	-11.069
▁корми	-11.0691
▁лишне	-11.0691
▁дан	-11.0692
▁арсени	-11.0693
▁ленив	-11.0694
▁сочувствовал	-11.0694
▁мельницы	-11.0697
▁страдает	-11.0698
▁нежным	-11.0698
▁родителям	-11.0701
▁ножик	-11.0705
▁вагнер	-11.0707
ывает	-11.0707
▁равнодушен	-11.0709
▁костюм	-11.0709
▁белье	-11.0709
▁ядовито	-11.0709
▁официально	-11.0709
▁дожидался	-11.071
▁сознавал	-11.0712
▁mon	-11.0712
▁искусстве	-11.0712
▁отпустил	-11.0713
▁направлен	-11.0713
▁достаточно	-11.0714
▁веру	-11.0717
▁роз	-11.0718
▁дурак	-11.0718
▁курсы	-11.0719
▁пропал	-11.0721
▁приятна	-11.0724
▁светлы	-11.0726
▁отверну	-11.0729
▁беру	-11.0729
▁игры	-11.073
▁выпье	-11.0731
▁al	-11.0733
ско	-11.0734
▁простын	-11.0734
▁задумчивы	-11.0735
▁произведенно	-11.0738
тереть	-11.0738
▁сияющи	-11.0738
▁влияния	-11.0739
▁предлагал	-11.0739
▁состояло	-11.0741
▁орудия	-11.0744
▁игру	-11.0747
▁рождени	-11.0748
▁проб	-11.0751
▁ле	-11.0753
▁сош	-11.0757
▁неверующий	-11.0761
▁неясно	-11.0767
▁кочкам	-11.0767
▁пропустил	-11.0773
▁недель	-11.0774
▁близость	-11.0774
▁простым	-11.0778
▁успеть	-11.078
▁призвани	-11.0782
▁перегнувш	-11.0783
▁прекратил	-11.0784
▁взволнованн	-11.0785
▁опасност	-11.0788
▁высказывал	-11.0791
роли	-11.0793
гладил	-11.0795
▁ожидание	-11.0803
▁грусть	-11.0805
▁кое	-11.0806
▁позвал	-11.081
▁выговаривал	-11.0812
▁честолюби	-11.0813
▁приписывал	-11.0814
▁вставал	-11.0816
▁мари	-11.0817
ша	-11.0822
▁разбит	-11.0825
▁враждебность	-11.0826
гор	-11.0826
▁бор	-11.0828
▁умолял	-11.0829
▁ранне	-11.083
▁отказать	-11.083
▁важност	-11.0835
▁веков	-11.0835
▁одобря	-11.0839
▁убедительно	-11.0841
▁игнат	-11.0848
▁моль	-11.085
▁зимой	-11.0853
▁отдала	-11.0855
ьте	-11.0855
▁сочинение	-11.0859
▁художником	-11.0864
▁неожиданны	-11.0864
▁разочарова	-11.0865
▁пыль	-11.0868
▁собрания	-11.0871
▁расстроил	-11.0871
▁сияние	-11.0875
▁холодность	-11.0877
▁les	-11.0878
▁осен	-11.0879
ющей	-11.0879
▁истинно	-11.0881
▁грише	-11.0881
▁единственны	-11.0882
▁невско	-11.0885
▁офицера	-11.0887
▁доск	-11.0891
▁свежесть	-11.0892
▁братьям	-11.0896
▁безобразны	-11.0903
▁добить	-11.0906
▁ясности	-11.0909
▁шевели	-11.091
▁смущение	-11.0911
▁согласны	-11.0916
▁отпуска	-11.0918
▁быстр	-11.0921
▁матушка	-11.0922
▁существовал	-11.0922
▁соглаша	-11.0926
▁супруго	-11.0928
▁нетерпение	-11.0936
▁увидите	-11.0938
▁старинны	-11.0939
▁мечтал	-11.0941
▁сапога	-11.0947
▁смешным	-11.0947
зывают	-11.0948
▁враждебност	-11.0948
▁прода	-11.0951
▁представил	-11.0953
▁определил	-11.0954
▁проснувши	-11.0954
▁нужда	-11.0959
зы	-11.0959
▁з	-11.096
▁желт	-11.0961
▁продал	-11.0966
нного	-11.0967
▁вывести	-11.0967
▁определени	-11.0971
▁зуба	-11.0972
▁трога	-11.0974
▁отсутствие	-11.0976
▁деревня	-11.0989
▁смелост	-11.099
al	-11.099
▁проще	-11.0991
▁60	-11.1
▁брака	-11.1001
▁оскорблял	-11.1004
▁существование	-11.1004
▁народу	-11.1006
▁знак	-11.1013
▁покорны	-11.1014
▁возбуждал	-11.1015
▁приговарива	-11.1017
▁явления	-11.102
▁поцелуя	-11.1025
стоит	-11.1034
▁прижала	-11.1055
▁уезжал	-11.1061
▁направи	-11.1061
овский	-11.1066
▁опасны	-11.1074
▁выбра	-11.1076
▁неловкост	-11.1079
▁тридцати	-11.108
▁улыбнувш	-11.1084
▁игр	-11.1089
▁рукава	-11.109
▁утеши	-11.1099
▁отправи	-11.1101
▁возникл	-11.1101
▁зако	-11.1102
▁приз	-11.1102
▁рационально	-11.1103
▁красота	-11.1105
▁требовало	-11.1108
▁четвер	-11.111
▁петербургск	-11.1113
▁устро	-11.1118
▁смела	-11.1122
▁потребовал	-11.1123
▁защит	-11.1125
▁правы	-11.1129
▁философски	-11.1132
▁замечательны	-11.1133
▁страшные	-11.1135
▁обманыва	-11.1135
▁вспыхнул	-11.1138
▁крут	-11.114
▁слома	-11.1144
▁зар	-11.1145
▁добродушны	-11.1147
▁мундира	-11.115
реки	-11.1156
▁помни	-11.116
▁недоумени	-11.1163
▁застави	-11.1164
▁дошл	-11.1165
▁скучна	-11.1166
▁нерешительност	-11.1167
▁желто	-11.1177
тва	-11.1178
▁тали	-11.118
▁скачка	-11.1181
▁любезны	-11.1184
▁убеждение	-11.1185
▁сосед	-11.1187
▁законам	-11.1188
▁начато	-11.1188
▁задыха	-11.1189
▁мучает	-11.1209
▁пообеда	-11.121
рами	-11.1212
▁ступеньк	-11.1214
▁думай	-11.122
ждать	-11.1223
▁брянско	-11.1223
▁запутал	-11.1223
▁лома	-11.1227
▁балов	-11.1228
▁оглянул	-11.123
▁выбирал	-11.1233
▁притвори	-11.1234
▁тяжелым	-11.1241
действительность	-11.1242
щик	-11.1249
▁ивана	-11.1251
▁горл	-11.1252
▁соображениям	-11.1253
▁закладыва	-11.1254
▁славянск	-11.1256
▁вырази	-11.1267
▁пород	-11.1267
▁гадк	-11.1276
даст	-11.1276
▁рассказывает	-11.1279
▁кормилица	-11.1281
анек	-11.1283
▁немецк	-11.1284
ров	-11.1286
▁имения	-11.1286
▁обтира	-11.1287
▁полном	-11.1288
▁доставлял	-11.1294
ина	-11.1297
▁дрожа	-11.1301
▁поговорил	-11.1316
▁босы	-11.1317
▁совест	-11.1323
▁придержива	-11.1324
▁женщинами	-11.1324
▁поэтическо	-11.1325
садиться	-11.1345
▁животны	-11.1356
▁необыкновенн	-11.136
▁мал	-11.1367
▁безо	-11.1368
▁имена	-11.1369
▁увлека	-11.1372
▁ярк	-11.1377
▁кож	-11.1382
▁старым	-11.1387
▁копе	-11.1389
▁отказал	-11.1402
▁тоне	-11.1405
▁натура	-11.1407
▁назначение	-11.1407
▁оказал	-11.1408
▁юноше	-11.1413
▁обнаженн	-11.1415
▁будущем	-11.1417
▁неправ	-11.1425
ar	-11.1429
▁женаты	-11.1433
▁основан	-11.1451
▁пу	-11.1454
▁энергическо	-11.1455
▁купа	-11.1459
говор	-11.1462
▁круглы	-11.1468
▁сложн	-11.1473
▁торжественно	-11.1474
▁досаду	-11.1474
▁навел	-11.1478
34	-11.1479
ента	-11.1486
▁сбира	-11.1496
▁доли	-11.1496
▁служебны	-11.1499
иком	-11.1505
слушать	-11.1517
▁засыпа	-11.1522
▁розов	-11.1533
▁земск	-11.1533
няя	-11.1535
▁сердит	-11.1537
▁опасно	-11.1539
▁затруднение	-11.1542
▁проявлени	-11.1543
▁нравственны	-11.1547
▁сидевш	-11.1553
▁готовым	-11.1559
▁наказани	-11.1561
▁испыта	-11.1564
▁оскорбленн	-11.1568
▁уверя	-11.1568
▁вар	-11.1568
▁полос	-11.1569
▁поднимать	-11.1572
▁потно	-11.1578
▁совершает	-11.158
▁свойства	-11.1582
▁нога	-11.1586
▁вз	-11.1586
17	-11.1592
▁намерени	-11.1592
ск	-11.1593
чин	-11.1594
▁мокро	-11.1608
▁локт	-11.161
▁собственност	-11.1612
▁познакоми	-11.1612
читал	-11.1618
▁пос	-11.1621
▁помоли	-11.1627
▁стесня	-11.1629
стану	-11.1629
▁переговор	-11.1653
▁подстави	-11.1658
▁мысля	-11.1662
▁комната	-11.1663
дил	-11.1674
▁гроз	-11.1675
▁se	-11.1681
ходившую	-11.1696
▁восхищени	-11.1697
▁возник	-11.1697
▁штука	-11.1699
держит	-11.17
▁укра	-11.1707
▁бросит	-11.1712
▁изучени	-11.1715
▁независим	-11.1717
▁приходит	-11.1723
звала	-11.173
▁корсунск	-11.1731
носила	-11.1735
▁устраива	-11.1736
звучал	-11.1741
▁страдание	-11.1743
▁картасов	-11.1751
ировать	-11.1756
▁суждени	-11.1759
▁вуале	-11.176
▁испортил	-11.1761
▁хот	-11.1777
▁уменьш	-11.1778
▁переворот	-11.1781
▁пари	-11.1787
лез	-11.1788
▁подчиненны	-11.1796
▁18	-11.1801
думайте	-11.1803
▁состоя	-11.1805
без	-11.1809
последстви	-11.1813
▁навоз	-11.1819
▁бол	-11.1819
слух	-11.1827
одобрительно	-11.183
▁судье	-11.1832
▁увлечени	-11.1836
▁краснел	-11.1838
▁бесед	-11.1841
▁возбуди	-11.1842
▁поклонивш	-11.1848
▁присоедини	-11.1851
un	-11.1852
▁давнишн	-11.1858
▁собирать	-11.1866
роман	-11.1868
редко	-11.1868
▁чудес	-11.187
▁воспитан	-11.1875
▁куста	-11.1875
▁появил	-11.1877
▁клад	-11.1884
счастья	-11.1889
▁выражала	-11.189
счастью	-11.1897
▁умным	-11.1898
▁электрическ	-11.1905
ine	-11.1905
▁возбужда	-11.1907
бежал	-11.1909
▁поправи	-11.1911
▁осторожн	-11.1912
▁сложно	-11.1916
нимают	-11.1917
▁ката	-11.1919
нравственного	-11.1921
▁презрение	-11.1921
▁убедить	-11.1922
▁личн	-11.1925
▁выпрямил	-11.1938
▁нужд	-11.1941
▁r	-11.1946
▁подвига	-11.1947
ra	-11.1952
дала	-11.1959
▁покрыты	-11.1962
▁умоля	-11.1965
▁дед	-11.1966
▁противна	-11.1972
весело	-11.1974
▁случай	-11.1976
▁устремленны	-11.1978
▁определенн	-11.1991
лег	-11.2005
▁угада	-11.2005
▁отдавать	-11.2009
▁ухажива	-11.2011
tre	-11.2019
ские	-11.2019
▁42	-11.2021
▁произ	-11.2021
раз	-11.2036
▁вошедш	-11.2039
▁нынешн	-11.2039
▁свед	-11.2041
▁сомневаю	-11.2043
▁уясн	-11.2045
▁озабочен	-11.2049
▁противник	-11.2056
▁приняла	-11.2057
▁гре	-11.2063
ман	-11.2068
цен	-11.207
▁находя	-11.2074
▁будущ	-11.2074
▁умирающи	-11.2079
явление	-11.2084
ником	-11.2085
▁вечны	-11.2085
▁курс	-11.2086
▁пост	-11.2089
▁du	-11.2092
▁покажу	-11.2094
▁зажег	-11.2096
▁канав	-11.2116
▁подхвати	-11.2117
ское	-11.2118
▁солнц	-11.2119
▁разбил	-11.2122
▁остальн	-11.2122
▁разрыв	-11.213
▁расстраива	-11.2142
▁избы	-11.2146
▁мит	-11.2147
▁тряс	-11.2153
▁михайл	-11.2155
▁постоя	-11.2157
▁англичан	-11.2159
нику	-11.2167
▁оттен	-11.2173
▁рабочим	-11.2175
▁пен	-11.2178
▁мешк	-11.2179
▁светил	-11.2183
▁снима	-11.2185
овым	-11.2188
▁мольб	-11.2194
▁устав	-11.2195
▁требовали	-11.2198
▁введен	-11.2199
▁руководств	-11.22
▁изуча	-11.22
▁кати	-11.2204
нулся	-11.2208
▁милости	-11.2211
▁возвыш	-11.2217
▁звука	-11.2218
▁пригласи	-11.2219
▁выраст	-11.2219
▁дво	-11.2222
бегали	-11.2226
▁сожаление	-11.223
▁183	-11.2235
▁обеде	-11.2239
ящее	-11.224
▁васили	-11.224
▁начат	-11.224
▁тайн	-11.2242
▁способност	-11.2244
грив	-11.2244
▁пружина	-11.2244
▁мокры	-11.2249
сматрива	-11.2251
▁выдава	-11.2261
▁ступен	-11.227
▁расста	-11.2273
▁служа	-11.2275
▁найду	-11.2275
▁строени	-11.2278
▁расс	-11.228
▁тяжест	-11.2282
▁ангел	-11.2282
▁поссори	-11.2283
▁поднят	-11.2285
▁важном	-11.2288
смешк	-11.229
оказывалось	-11.2291
▁обману	-11.2292
▁остановив	-11.2296
льные	-11.2297
▁поравня	-11.2305
▁шляпк	-11.2307
▁шутка	-11.2308
ивших	-11.2308
▁камен	-11.2309
лечь	-11.2312
▁герой	-11.2312
▁нижне	-11.2317
▁разреши	-11.2318
▁разрушен	-11.2319
▁объяснит	-11.2321
▁заб	-11.2328
рублев	-11.2331
▁групп	-11.2331
▁орган	-11.2331
▁крокет	-11.2331
мистр	-11.2332
▁кавалер	-11.2332
▁непроницаем	-11.2332
▁револьвер	-11.2332
▁аптек	-11.2332
▁бутылк	-11.2332
▁влажны	-11.2332
▁возразил	-11.2332
▁втрое	-11.2332
▁говядин	-11.2332
▁грохот	-11.2332
▁евгеньевн	-11.2332
▁екатерин	-11.2332
▁заблестел	-11.2332
▁захватил	-11.2332
▁кузин	-11.2332
▁неудобств	-11.2332
▁племянниц	-11.2332
▁поддевк	-11.2332
▁поморщи	-11.2332
▁посвяти	-11.2332
▁привлекал	-11.2332
▁приставлен	-11.2332
▁публично	-11.2332
▁размышля	-11.2332
▁резунов	-11.2332
▁сельтерск	-11.2332
▁торжества	-11.2332
▁тропинк	-11.2332
▁умственны	-11.2332
▁уничтожи	-11.2332
▁усмехнул	-11.2332
▁франклин	-11.2332
▁фрейлин	-11.2332
▁шепнул	-11.2332
▁академи	-11.2332
▁гагин	-11.2332
▁гнезд	-11.2332
▁загадк	-11.2332
▁кухарк	-11.2332
▁отвратительно	-11.2332
▁пиес	-11.2332
▁ресниц	-11.2332
▁сторож	-11.2332
▁выставк	-11.2332
▁отворив	-11.2332
▁рванул	-11.2332
жженны	-11.2332
▁зовет	-11.2332
▁избрал	-11.2332
▁посещени	-11.2332
▁малейши	-11.2332
▁благородны	-11.2332
▁практик	-11.2332
▁производя	-11.2332
▁сахар	-11.2332
▁четырехверстн	-11.2332
▁зрител	-11.2332
▁шафер	-11.2332
▁баланс	-11.2332
▁подвижно	-11.2332
▁взбежал	-11.2332
▁коньяк	-11.2332
▁гипподром	-11.2332
▁бойко	-11.2332
▁дичь	-11.2332
▁находишь	-11.2332
▁донесени	-11.2332
▁допущен	-11.2332
▁свойственным	-11.2332
am	-11.2332
▁передумал	-11.2332
▁оберну	-11.2332
▁линейк	-11.2332
▁удочк	-11.2332
▁прищури	-11.2332
▁обществу	-11.2332
▁раскрыл	-11.2332
▁пьет	-11.2332
▁отпор	-11.2332
▁согнувши	-11.2332
▁целовал	-11.2332
▁marie	-11.2333
▁нечестны	-11.2333
▁разрази	-11.2333
▁буфет	-11.2333
▁ирони	-11.2333
▁смотрю	-11.2333
▁беспокоит	-11.2333
▁окружал	-11.2334
дот	-11.2334
▁повтори	-11.2334
▁енох	-11.2334
▁предстоял	-11.2334
▁неопределенны	-11.2334
▁квас	-11.2334
▁лавочк	-11.2334
▁неслышн	-11.2335
▁покойно	-11.2335
▁жоке	-11.2335
▁поручен	-11.2335
▁старичк	-11.2335
▁тройк	-11.2335
▁откашлива	-11.2335
▁умолкал	-11.2335
▁букет	-11.2335
▁помещени	-11.2335
▁туфл	-11.2335
▁мебель	-11.2336
▁ставит	-11.2336
▁зашевелил	-11.2336
▁управляюще	-11.2336
▁40	-11.2336
▁придворны	-11.2337
▁личико	-11.2337
▁открыла	-11.2337
aut	-11.2337
▁огорчил	-11.2337
▁тюрбо	-11.2337
▁негодовани	-11.2337
▁важнейш	-11.2338
▁барак	-11.2338
▁предполагал	-11.2339
▁190	-11.2339
▁добровольцы	-11.2339
▁мокр	-11.2339
▁копейк	-11.2339
▁гадость	-11.234
тихоньк	-11.234
▁пассажиров	-11.234
▁пропасть	-11.2342
▁синим	-11.2343
▁трясин	-11.2343
▁медведиц	-11.2343
▁рта	-11.2344
▁мрак	-11.2344
▁оборачива	-11.2344
▁воззрения	-11.2344
▁отдохну	-11.2344
▁напечатан	-11.2345
▁отставку	-11.2345
▁зарыдал	-11.2345
▁знаток	-11.2346
▁сундук	-11.2346
▁мишк	-11.2347
▁часты	-11.235
▁заинтересовал	-11.235
▁затрещал	-11.2351
▁отворенн	-11.2351
▁турци	-11.2351
▁прелюбодеяни	-11.2352
▁фантази	-11.2352
▁недовери	-11.2352
▁невыразимо	-11.2352
▁укоризненно	-11.2352
▁выказывал	-11.2353
▁любяще	-11.2353
▁проф	-11.2353
▁крикс	-11.2353
▁верховы	-11.2354
▁дав	-11.2354
▁книжк	-11.2355
▁всеобще	-11.2355
▁покрыл	-11.2356
▁пищ	-11.2357
▁фон	-11.2357
▁надеяться	-11.2358
▁заряд	-11.2358
▁горько	-11.236
▁препятствиями	-11.236
▁сплошны	-11.2362
▁одиноко	-11.2362
▁катков	-11.2362
▁веер	-11.2363
▁добродуши	-11.2363
▁решит	-11.2363
▁алексеич	-11.2365
▁ножом	-11.2365
▁содержание	-11.2366
▁пыли	-11.2366
▁венц	-11.2368
ложат	-11.2369
▁исторически	-11.237
▁образовать	-11.2371
▁убить	-11.2372
▁рассуди	-11.2372
▁распоряди	-11.2374
▁грабл	-11.2375
▁произведения	-11.2376
▁салфетк	-11.2377
▁уборк	-11.2377
▁святын	-11.2378
▁побледнел	-11.2378
▁добровольцам	-11.2379
▁потягива	-11.2379
▁осматрива	-11.2381
▁треща	-11.2381
▁невинно	-11.2383
▁бартнянск	-11.2384
onne	-11.2385
▁причасти	-11.2388
▁перила	-11.2389
▁жалостно	-11.2389
▁колеблюще	-11.2389
▁худую	-11.239
▁огон	-11.239
▁переби	-11.239
лил	-11.2391
▁сомневалась	-11.2391
▁данно	-11.2391
▁метели	-11.2391
▁подавлен	-11.2391
▁положительно	-11.2392
▁локот	-11.2392
▁притом	-11.2393
▁уяснить	-11.2394
▁замечательно	-11.2395
▁независимость	-11.2395
▁дружн	-11.2395
▁путешественник	-11.2397
▁рассматривал	-11.2398
чев	-11.24
▁освещени	-11.24
▁васьк	-11.2404
▁непосредственно	-11.2405
▁приезжайте	-11.2406
кол	-11.2406
▁забудь	-11.2406
ходившие	-11.2408
▁отрицани	-11.2409
▁возьмет	-11.241
▁направлению	-11.2412
▁185	-11.2414
▁имеющих	-11.2415
▁возражения	-11.2416
▁откровенно	-11.2417
▁выглянул	-11.2418
▁удобства	-11.2419
питание	-11.242
▁разрыва	-11.2421
кинув	-11.2424
▁показывает	-11.2424
▁ярким	-11.2424
▁выбира	-11.2424
▁робки	-11.2425
▁перекрестил	-11.2426
играл	-11.2427
▁песк	-11.2427
▁мертво	-11.243
▁тарелк	-11.2433
▁судил	-11.2436
▁полным	-11.2437
▁тронулся	-11.2437
▁коле	-11.244
водили	-11.2441
▁замы	-11.2442
▁помирить	-11.2442
покоя	-11.2447
▁гулянь	-11.245
ступив	-11.2452
▁колебания	-11.2458
▁балет	-11.246
▁лиш	-11.2461
▁любопытно	-11.2462
▁уедем	-11.2462
▁полезн	-11.2462
▁постав	-11.2465
▁историческо	-11.2466
▁разбудил	-11.2466
▁христианство	-11.2468
рон	-11.2469
▁литератур	-11.247
▁подтверждение	-11.247
▁испытывать	-11.2474
▁кровать	-11.2475
бежали	-11.2482
▁девяти	-11.2487
▁подожд	-11.2491
▁обманул	-11.2491
▁давил	-11.2491
▁продаж	-11.2492
76	-11.2492
▁казенн	-11.2493
пре	-11.2495
▁чер	-11.2499
▁ревновал	-11.2506
▁скучал	-11.2508
▁неверие	-11.251
▁врага	-11.2517
▁столиц	-11.2519
▁убеждения	-11.2519
▁озлобление	-11.2522
▁будущност	-11.2524
▁румянце	-11.2525
▁надевал	-11.2526
▁удивленно	-11.2526
▁доброту	-11.2528
▁повернула	-11.2529
▁старост	-11.2533
▁бильярдн	-11.2536
▁движенье	-11.2537
▁искусственн	-11.2539
▁секретаря	-11.2541
▁хитро	-11.2544
▁уборн	-11.2545
▁требует	-11.2545
▁дружбу	-11.2547
▁плод	-11.2547
▁разъясни	-11.2548
▁четверн	-11.2549
▁нашем	-11.255
▁огня	-11.2553
▁доходил	-11.2557
▁враждебны	-11.2557
▁сообрази	-11.2558
▁переступа	-11.2559
верт	-11.256
▁убеди	-11.2567
▁стран	-11.2568
▁переписк	-11.2569
▁неправильно	-11.2569
▁един	-11.2571
▁сербск	-11.2573
кинул	-11.2574
тягивая	-11.2574
▁выговарива	-11.2576
▁робе	-11.258
▁заблуждение	-11.2582
▁ri	-11.259
несен	-11.2594
▁спуска	-11.26
▁уважа	-11.2607
▁вредны	-11.2609
▁мол	-11.2611
▁глупость	-11.2611
ицу	-11.2616
▁сорта	-11.2617
аныч	-11.2617
▁примири	-11.2617
▁позе	-11.2618
▁взяты	-11.262
▁какому	-11.2625
бран	-11.2626
▁временно	-11.2636
▁содействовал	-11.2636
▁ударя	-11.2637
▁произведение	-11.2637
еньк	-11.2639
▁свято	-11.264
▁медведя	-11.2642
вавшего	-11.2643
достает	-11.2643
▁стат	-11.2646
принято	-11.2654
▁ходит	-11.2654
▁проехал	-11.2655
▁смеющи	-11.2655
▁решительным	-11.2657
▁проехать	-11.2658
▁написанно	-11.2659
▁выпи	-11.2661
▁прошлого	-11.2666
▁an	-11.2669
ческим	-11.2669
▁выбрал	-11.2671
дом	-11.2674
ран	-11.2675
▁сот	-11.2675
▁вчерашни	-11.2677
▁изменивш	-11.2682
▁7	-11.2682
▁голодны	-11.2685
▁тур	-11.2685
▁открыты	-11.2695
▁чужда	-11.2706
▁co	-11.2708
▁извиня	-11.2709
▁небольш	-11.2711
▁животно	-11.2712
ходившими	-11.2712
▁скры	-11.2712
▁мрачны	-11.2714
лага	-11.2719
▁вызванны	-11.272
▁скошен	-11.2725
щут	-11.2728
тал	-11.2729
▁молодц	-11.273
▁ша	-11.2731
▁ан	-11.2734
▁праздно	-11.2735
▁попытать	-11.2741
совесть	-11.2747
▁материнско	-11.2749
▁утешать	-11.2751
▁вечерне	-11.2751
блюдения	-11.2752
▁пойму	-11.2755
▁школе	-11.2758
▁классически	-11.2763
▁найд	-11.2765
▁дохода	-11.2768
▁оправдыва	-11.2771
▁сияющим	-11.2771
▁развлек	-11.2772
▁слуха	-11.2774
▁почтительны	-11.2776
▁непонятны	-11.2783
▁привыч	-11.2783
▁молодость	-11.2788
▁серьезным	-11.2792
нской	-11.2792
▁женит	-11.2798
▁пас	-11.2804
▁делаем	-11.2805
▁спустить	-11.2807
▁184	-11.2811
бился	-11.2822
▁милым	-11.2824
▁исчезли	-11.2825
▁лили	-11.2832
▁славн	-11.2837
иках	-11.2838
▁князю	-11.2841
ставать	-11.2843
▁встречали	-11.2846
▁высуну	-11.2848
▁веры	-11.2853
▁отрека	-11.2854
▁грязн	-11.2856
енной	-11.2857
▁средин	-11.2857
86	-11.286
▁одобрительно	-11.286
студии	-11.2872
▁увеличива	-11.2875
▁английско	-11.2882
▁посмотр	-11.2884
▁подобно	-11.2884
▁душевны	-11.2885
вое	-11.2888
мерно	-11.289
▁торопливо	-11.2892
▁быт	-11.2892
▁тверд	-11.2897
▁социальны	-11.2899
▁пункта	-11.2905
ступает	-11.291
▁разгорячи	-11.291
▁находили	-11.2917
▁помогал	-11.2918
ливым	-11.2918
61	-11.2923
▁191	-11.2923
▁благодарит	-11.2923
▁сорока	-11.2932
▁полезны	-11.2932
▁полюби	-11.2933
▁ро	-11.2936
нимать	-11.2938
▁складк	-11.2939
▁составлен	-11.2949
▁простор	-11.295
▁наделал	-11.2951
▁бесконечно	-11.2959
▁либерально	-11.2961
▁гар	-11.297
▁высказа	-11.2972
▁дур	-11.2987
▁какими	-11.2988
▁погибл	-11.2994
▁верне	-11.2996
▁отыскивал	-11.3
йдет	-11.3
▁усе	-11.3012
нка	-11.3013
▁остр	-11.3014
▁сойти	-11.3018
▁махал	-11.3023
▁остановивше	-11.3038
сил	-11.3041
юля	-11.3045
▁упоминание	-11.3047
▁пошл	-11.3047
▁писа	-11.305
▁возможны	-11.3052
ним	-11.3067
▁масл	-11.307
▁вызван	-11.3071
▁обрат	-11.3077
▁убежда	-11.3078
▁колесам	-11.3081
ст	-11.3082
▁забывш	-11.3082
арт	-11.3087
▁дверям	-11.3087
▁злы	-11.3088
▁находить	-11.3088
▁видне	-11.3092
▁связывал	-11.3094
▁увез	-11.31
▁лишенны	-11.3101
чным	-11.3104
ou	-11.3104
▁паш	-11.3104
рет	-11.3105
▁мрач	-11.3107
▁снят	-11.3127
▁шуме	-11.3142
▁комитета	-11.3143
рен	-11.3146
ходящего	-11.3148
▁напрягал	-11.3163
▁вышедш	-11.3164
▁созда	-11.3171
▁примирить	-11.3175
▁собирает	-11.3178
▁презираю	-11.3185
▁дышал	-11.3198
▁огорчал	-11.3209
три	-11.3211
ались	-11.3215
▁лиз	-11.3222
вернул	-11.3223
▁разделен	-11.3229
▁быстры	-11.3231
▁сделанн	-11.3236
▁близ	-11.3239
▁сед	-11.3239
▁ряда	-11.324
▁делам	-11.3244
▁пояс	-11.3253
▁удобн	-11.3261
▁противоречи	-11.3262
▁школа	-11.3263
▁бить	-11.3263
▁разорвал	-11.3271
▁зат	-11.3273
▁ложно	-11.3275
▁портрета	-11.3277
▁березк	-11.3282
▁экипажа	-11.3283
▁выросл	-11.3291
▁славно	-11.3296
▁политическ	-11.3315
берешь	-11.3318
▁недо	-11.3326
▁таинственн	-11.3327
▁приказа	-11.333
▁шубк	-11.3331
▁жал	-11.3331
носят	-11.3337
▁имеюще	-11.3337
▁гл	-11.3341
рм	-11.3344
▁поэтическ	-11.3345
▁держ	-11.3345
▁нужн	-11.3348
рав	-11.3355
▁воображаемо	-11.3355
▁обманут	-11.3359
▁месяце	-11.3365
▁пота	-11.3365
▁бок	-11.3375
▁измучал	-11.3382
▁покати	-11.3387
▁создан	-11.3394
▁л	-11.34
▁сломала	-11.3404
боку	-11.3407
▁одета	-11.3407
▁знающи	-11.3408
▁ложны	-11.3409
▁допуст	-11.341
▁занимала	-11.3411
▁весель	-11.3412
▁старин	-11.3419
▁съезд	-11.3421
▁приехавши	-11.3422
▁человеческо	-11.3423
пы	-11.3423
▁хотевш	-11.343
▁непривычно	-11.3433
▁свойств	-11.3437
▁семена	-11.3438
▁гостинице	-11.3439
▁направляя	-11.3448
▁составля	-11.3448
▁гост	-11.3456
▁кист	-11.3459
▁нехороше	-11.3462
▁позов	-11.3469
▁окруженн	-11.347
ному	-11.3478
eu	-11.348
стивы	-11.3488
▁гордо	-11.3491
▁усталым	-11.3491
▁дев	-11.3498
▁важным	-11.3502
▁прижима	-11.3505
▁долга	-11.3515
▁решительность	-11.3523
айте	-11.3528
▁нагибая	-11.3538
▁единственна	-11.3544
▁вуал	-11.3548
▁короле	-11.3554
▁необходим	-11.356
кажется	-11.3562
▁косо	-11.3565
▁деревья	-11.3566
▁неизвестн	-11.3571
▁нравственн	-11.3574
▁темным	-11.3574
▁меньшо	-11.3586
оставляло	-11.3594
ину	-11.3596
▁доска	-11.36
▁любез	-11.3601
звезд	-11.3607
89	-11.3616
гуль	-11.3618
▁налил	-11.362
пот	-11.3621
▁резки	-11.3621
▁ружь	-11.3623
▁напряга	-11.3626
▁проход	-11.365
летн	-11.3651
▁жилета	-11.3656
▁пухлы	-11.3658
▁дерево	-11.3663
▁отдых	-11.3664
ическ	-11.3666
▁насмешлив	-11.367
▁посланн	-11.3672
▁обряд	-11.3676
▁собственн	-11.3678
▁возил	-11.3687
▁высоким	-11.3689
▁губернск	-11.3689
▁угл	-11.3689
▁выдержива	-11.3691
▁маше	-11.3704
▁устремлен	-11.3708
▁дра	-11.3711
▁подл	-11.3712
▁имен	-11.3726
▁вытека	-11.3729
▁различны	-11.3733
▁легкость	-11.3738
▁мельк	-11.3741
рез	-11.3743
лый	-11.3743
▁европейско	-11.3746
▁рельс	-11.3752
▁слабы	-11.3754
▁мучи	-11.3754
▁скачкам	-11.3757
воз	-11.376
▁коже	-11.3761
служ	-11.3762
▁умилени	-11.3762
▁коп	-11.3766
поминая	-11.3769
ex	-11.3772
▁подозрения	-11.3772
▁повторени	-11.3773
▁зара	-11.3775
▁раздражен	-11.3775
сов	-11.3784
▁мешаю	-11.3785
▁уходил	-11.3794
▁прижал	-11.38
▁прожи	-11.3811
льс	-11.382
найм	-11.3825
▁передела	-11.3828
явления	-11.3829
ика	-11.3837
устройства	-11.3839
кс	-11.3842
▁смягча	-11.3851
надо	-11.3854
ившее	-11.386
▁вскакива	-11.3861
общество	-11.3867
двух	-11.3871
▁спрашиваю	-11.3872
ведь	-11.3872
▁сморщил	-11.3876
▁идея	-11.3878
▁существовани	-11.3888
был	-11.3888
39	-11.3889
▁представляет	-11.3893
стал	-11.3896
▁груб	-11.3901
аст	-11.3909
▁обращал	-11.392
тельных	-11.3922
▁показали	-11.3926
пал	-11.3926
мимо	-11.3927
▁обедне	-11.3928
▁сюртука	-11.3929
▁побег	-11.3939
богу	-11.3943
▁березовы	-11.3943
▁стеснен	-11.3954
ющая	-11.396
тво	-11.3961
ество	-11.3962
▁проводив	-11.3963
▁освещенн	-11.3965
дышать	-11.3965
лучить	-11.3971
▁умна	-11.3978
▁пах	-11.3979
▁окончи	-11.3979
доставляло	-11.3986
▁стекла	-11.3986
цепи	-11.3988
везет	-11.3996
▁элегантны	-11.4
▁терп	-11.4002
▁расправля	-11.4005
ницей	-11.4005
▁сложи	-11.4006
▁известном	-11.4007
▁успокоил	-11.4007
▁запис	-11.4008
▁чу	-11.4011
▁тест	-11.4014
▁преступно	-11.4014
щих	-11.4015
▁ногт	-11.4015
держивая	-11.4019
▁славянски	-11.402
▁оправдывал	-11.4035
▁крепки	-11.4038
гать	-11.4041
▁носит	-11.4043
▁доб	-11.4048
▁гостям	-11.4049
▁бросив	-11.405
▁услуг	-11.4051
нию	-11.4052
▁вздрогну	-11.4052
▁подмиг	-11.4055
▁скрыла	-11.4058
▁расстояни	-11.4063
▁общим	-11.4064
▁миро	-11.4064
▁выстрели	-11.4065
▁завидова	-11.4067
▁расстройств	-11.407
▁публик	-11.4073
войн	-11.4073
дл	-11.4079
▁батюшк	-11.4091
каково	-11.4091
▁посели	-11.4098
▁верующ	-11.4098
▁степ	-11.4103
▁алеш	-11.4107
жить	-11.411
▁мн	-11.411
▁характерны	-11.4111
▁оправдывать	-11.4111
▁отправлен	-11.4115
▁познакомила	-11.4116
чив	-11.4118
▁невери	-11.4119
▁уничтожен	-11.4119
▁отвлек	-11.4123
казывал	-11.4125
ейше	-11.4125
▁расстроен	-11.4129
▁подробно	-11.4133
▁прият	-11.4136
▁горяче	-11.4136
историческ	-11.4136
▁губерни	-11.4147
▁волну	-11.415
32	-11.415
▁открыти	-11.4154
ce	-11.4155
▁переговарива	-11.4157
▁сходит	-11.4159
▁невидимо	-11.4162
аз	-11.4164
▁пору	-11.4164
▁ливре	-11.417
▁разбуди	-11.417
▁гласны	-11.4171
▁сказанн	-11.4172
▁услыша	-11.4173
▁уро	-11.4176
74	-11.4183
▁привезт	-11.4186
ельн	-11.4186
▁голы	-11.4192
▁раковин	-11.4201
▁колебани	-11.4203
▁повернув	-11.421
▁вин	-11.4215
▁ныне	-11.4215
▁обыча	-11.4216
▁приличи	-11.4218
▁крас	-11.4218
▁завод	-11.4219
▁неверн	-11.4224
▁складыва	-11.4224
▁привычка	-11.4226
▁потеряв	-11.4227
пел	-11.4227
▁неровно	-11.4229
▁делай	-11.423
▁принца	-11.4232
▁воле	-11.4232
▁получаю	-11.4235
нося	-11.4241
етки	-11.4242
еду	-11.4243
um	-11.4243
▁оставит	-11.4246
▁определит	-11.4248
говором	-11.4251
▁сажен	-11.4251
▁огорчени	-11.4255
▁учтиво	-11.4256
рим	-11.426
▁представлять	-11.4262
▁решили	-11.4262
▁обвиня	-11.4264
▁проповед	-11.427
▁устриц	-11.4274
▁скуп	-11.4277
▁лап	-11.4286
▁секрет	-11.4287
чинить	-11.4288
правления	-11.4294
▁решительны	-11.4295
▁хвата	-11.4297
жды	-11.4297
пают	-11.4299
▁избавить	-11.4305
▁приехавш	-11.4305
▁погляде	-11.4308
▁окон	-11.4317
гнал	-11.4318
▁исполнен	-11.4319
▁послушай	-11.4322
▁выпростав	-11.4325
▁понемно	-11.4328
▁умолк	-11.4329
▁дмитри	-11.433
земель	-11.4331
ond	-11.4331
▁ближне	-11.4332
▁воспользова	-11.4332
▁компрометирова	-11.4332
▁сладко	-11.4332
▁дотрагива	-11.4332
▁карандаш	-11.4332
штраус	-11.4332
▁август	-11.4332
▁адрес	-11.4332
▁адъютант	-11.4332
▁брусниц	-11.4332
▁бульвар	-11.4332
▁героин	-11.4332
▁действую	-11.4332
▁евгюбически	-11.4332
▁закурил	-11.4332
▁замечен	-11.4332
▁затворя	-11.4332
▁извозчичь	-11.4332
▁коричнево	-11.4332
▁моралист	-11.4332
▁морщил	-11.4332
▁недостойн	-11.4332
▁неодобрени	-11.4332
▁определяет	-11.4332
▁перфильев	-11.4332
▁площадк	-11.4332
▁поглощен	-11.4332
▁поглядывал	-11.4332
▁подрагива	-11.4332
▁понедельник	-11.4332
▁посмеива	-11.4332
▁прокурор	-11.4332
▁пузырек	-11.4332
▁распоряжа	-11.4332
▁реформ	-11.4332
▁сватовств	-11.4332
▁сегодня	-11.4332
▁семейную	-11.4332
▁скамейк	-11.4332
▁сощури	-11.4332
▁сражение	-11.4332
▁сумасшедши	-11.4332
▁тетрад	-11.4332
▁треугольни	-11.4332
▁тротуар	-11.4332
▁убирай	-11.4332
▁удовлетворял	-11.4332
▁успокой	-11.4332
▁фельетон	-11.4332
▁хозяев	-11.4332
▁холосты	-11.4332
▁шпильк	-11.4332
▁электричеств	-11.4332
▁эпиграф	-11.4332
▁андре	-11.4332
▁воспален	-11.4332
▁всхлипыва	-11.4332
▁затряс	-11.4332
▁неосторожно	-11.4332
▁посмея	-11.4332
▁различно	-11.4332
▁угадыва	-11.4332
▁умывальник	-11.4332
▁устанавлива	-11.4332
▁шарлатан	-11.4332
▁шульцеделич	-11.4332
▁гумна	-11.4332
▁аршин	-11.4332
▁полусвет	-11.4332
▁догадк	-11.4332
пухшим	-11.4332
▁доверенност	-11.4332
▁понадоби	-11.4332
▁муфт	-11.4332
▁самоубийств	-11.4332
▁благодарствуй	-11.4332
▁хмурил	-11.4332
▁партер	-11.4332
▁курьер	-11.4332
▁паркет	-11.4332
▁парменов	-11.4332
▁самарско	-11.4332
▁вахмистр	-11.4332
▁подавальщик	-11.4332
▁оскорбительны	-11.4332
▁праздник	-11.4332
▁нетерпеливо	-11.4332
▁пучин	-11.4332
▁кукл	-11.4332
▁спиритизм	-11.4332
▁скромны	-11.4332
▁систем	-11.4332
▁покоря	-11.4332
▁экономическо	-11.4332
▁расстанов	-11.4332
▁оказывается	-11.4332
▁правитель	-11.4332
▁очерк	-11.4332
▁покидал	-11.4332
▁размышления	-11.4333
▁огорчить	-11.4333
▁чудак	-11.4333
▁сумел	-11.4333
laise	-11.4333
▁уныни	-11.4333
▁пошути	-11.4333
▁проникнуть	-11.4333
▁поощрял	-11.4333
▁машинист	-11.4333
▁польши	-11.4333
▁заперта	-11.4333
▁cour	-11.4333
▁надобности	-11.4333
▁ржавчин	-11.4333
▁прикажи	-11.4333
▁грош	-11.4334
▁сербии	-11.4334
▁столбик	-11.4334
▁помех	-11.4334
▁унизительны	-11.4334
▁дрянь	-11.4334
▁путаниц	-11.4334
▁предстоящи	-11.4334
▁производимо	-11.4335
▁учтивости	-11.4335
▁господам	-11.4336
▁оскорбления	-11.4336
▁замужеств	-11.4336
▁подарил	-11.4336
▁50	-11.4336
бегал	-11.4336
▁мышк	-11.4336
▁уставленн	-11.4336
▁вытянут	-11.4337
▁предост	-11.4337
▁пахот	-11.4337
▁заглуши	-11.4337
гибель	-11.4337
▁замешательство	-11.4337
▁дворецк	-11.4338
▁жалок	-11.4338
▁расклан	-11.4339
▁возраста	-11.4339
▁частны	-11.4339
▁завет	-11.434
▁кулак	-11.434
ланд	-11.4341
▁подъем	-11.4341
▁сферах	-11.4341
▁ca	-11.4341
▁акаци	-11.4341
▁прилично	-11.4342
▁остроумно	-11.4342
▁ножниц	-11.4342
▁подпрыг	-11.4342
▁ухвати	-11.4342
▁вторник	-11.4342
▁годится	-11.4343
▁сеять	-11.4343
▁приобрел	-11.4343
▁христиански	-11.4343
▁дернул	-11.4343
▁трогательны	-11.4343
▁рамп	-11.4344
▁седла	-11.4344
▁исчезал	-11.4344
▁предложения	-11.4344
▁шир	-11.4344
▁излишним	-11.4344
▁похудел	-11.4344
падал	-11.4345
▁цепочк	-11.4345
▁нравил	-11.4346
▁подергива	-11.4346
▁рассева	-11.4346
▁скандал	-11.4347
▁виновник	-11.4347
▁горды	-11.4348
▁дотрону	-11.4348
▁остатк	-11.4348
▁испортить	-11.4349
▁улучш	-11.4349
▁юбк	-11.4349
▁дуб	-11.435
▁возвратил	-11.435
▁скака	-11.435
▁митю	-11.4351
▁сеял	-11.4351
▁подлость	-11.4351
▁чужие	-11.4351
▁дорожил	-11.4351
▁развлечь	-11.4352
▁наполнен	-11.4352
▁кофточк	-11.4352
▁натурально	-11.4352
▁скучает	-11.4353
▁утеша	-11.4353
▁религиозны	-11.4353
▁подсел	-11.4353
▁упомянул	-11.4354
▁отгонял	-11.4354
▁закусыва	-11.4354
▁указани	-11.4355
▁ветв	-11.4355
▁облак	-11.4357
▁посреди	-11.4357
▁библи	-11.4357
▁принадлежност	-11.4358
▁усложнени	-11.4358
▁вытянул	-11.4358
▁религиозна	-11.4358
▁стклянк	-11.4359
▁недоразумение	-11.4359
▁небе	-11.4359
▁поднявши	-11.436
▁отодвину	-11.436
▁загоре	-11.436
▁непростительно	-11.436
▁брюх	-11.436
▁расчесанны	-11.4361
▁слыха	-11.4361
▁догоня	-11.4361
▁придворно	-11.4362
▁ветхо	-11.4363
▁листья	-11.4363
▁скатерть	-11.4363
▁лечить	-11.4364
▁теоретически	-11.4364
▁камеровск	-11.4365
▁жива	-11.4366
▁свез	-11.4368
▁застенчивость	-11.4368
▁пролетел	-11.4368
▁предполагаем	-11.4368
▁подошедш	-11.4368
▁иронически	-11.4369
▁пожив	-11.437
▁поворачивал	-11.437
▁молодец	-11.437
▁победил	-11.437
▁кормил	-11.4371
▁крайность	-11.4371
▁овладел	-11.4372
▁уйдет	-11.4373
▁перевел	-11.4373
▁ловил	-11.4374
▁рожь	-11.4374
писав	-11.4374
▁отстрани	-11.4374
▁поверхностно	-11.4375
▁записка	-11.4375
▁блеснул	-11.4376
▁отравляло	-11.4379
▁появление	-11.4379
▁одинока	-11.438
▁серпуховскому	-11.438
▁просн	-11.4381
▁материал	-11.4383
▁челюсть	-11.4384
▁уродливы	-11.4385
▁ге	-11.4386
петь	-11.4387
▁испытываем	-11.4387
▁наступал	-11.4387
ческ	-11.4387
▁отер	-11.4389
▁достойно	-11.4391
▁мутны	-11.4391
▁прибавлял	-11.4392
▁сфер	-11.4392
▁вронской	-11.4392
▁соскочил	-11.4393
▁расходов	-11.4393
▁лишал	-11.4393
▁tant	-11.4397
▁прототип	-11.4397
▁умиленно	-11.4397
▁дрогнул	-11.4397
▁садовник	-11.4398
▁производств	-11.4398
▁преследовал	-11.4399
▁войди	-11.4399
▁формул	-11.4399
▁уронил	-11.4399
▁пожелал	-11.4399
▁программ	-11.44
▁сблизил	-11.44
▁провизи	-11.44
▁двенадцати	-11.4401
▁компани	-11.4401
▁гадливост	-11.4402
▁стер	-11.4403
чивост	-11.4405
▁наивны	-11.4405
▁поддержк	-11.4406
▁запечатал	-11.4407
▁соломенн	-11.4407
▁выс	-11.4408
▁великодушны	-11.4409
▁цирка	-11.4409
▁яшвиным	-11.4411
▁предвид	-11.4411
▁порядо	-11.4413
али	-11.4414
▁докончил	-11.4414
ред	-11.4416
▁девят	-11.4419
▁любовником	-11.4419
▁допусти	-11.4422
▁смешива	-11.4422
реде	-11.4422
▁возникше	-11.4422
▁вымышленны	-11.4422
▁столкновения	-11.4423
▁нужды	-11.4424
▁неверность	-11.4424
▁божи	-11.4424
▁ед	-11.4424
▁греч	-11.4426
▁корзинк	-11.4427
▁просвещения	-11.4427
▁выбран	-11.4428
▁уговаривал	-11.4428
▁любовно	-11.4431
▁плава	-11.4436
▁вывел	-11.4437
▁слух	-11.4439
▁форма	-11.4444
▁оправивш	-11.4446
▁вдов	-11.4446
▁рабы	-11.4446
▁протяну	-11.4447
▁заботам	-11.4449
пил	-11.4449
▁представив	-11.445
▁лу	-11.445
▁играет	-11.445
▁уверял	-11.4451
▁опасность	-11.4451
▁божеств	-11.4454
чет	-11.4456
▁обращенны	-11.4457
▁подлежа	-11.4458
▁раскрыва	-11.4459
▁подбородк	-11.446
▁рож	-11.446
▁клал	-11.4462
▁карту	-11.4462
▁съед	-11.4465
▁последствия	-11.4466
▁страдаю	-11.4468
▁деликатност	-11.4468
▁подозревал	-11.4469
▁справк	-11.4471
▁искусств	-11.4473
елено	-11.4474
▁карт	-11.4475
ицы	-11.4477
▁особ	-11.448
▁пирожк	-11.4481
▁незаметны	-11.4481
▁57	-11.4481
▁покровительство	-11.4484
▁сложность	-11.4484
▁бледны	-11.449
▁недоступно	-11.4494
▁понесла	-11.4494
▁концом	-11.4505
▁наденьк	-11.4506
▁мас	-11.451
▁планет	-11.451
▁утру	-11.451
▁становил	-11.4514
▁посиди	-11.4515
▁передвига	-11.4516
▁виноваты	-11.452
▁спросите	-11.4521
▁терпени	-11.4521
▁камина	-11.4521
▁уезда	-11.4522
▁роды	-11.4527
ших	-11.4528
▁начинаю	-11.453
▁сынов	-11.4531
▁свободны	-11.4531
▁следующ	-11.4533
▁значительность	-11.4535
▁бьет	-11.4537
▁усы	-11.4537
▁густым	-11.4537
▁известна	-11.4538
▁брошенны	-11.454
▁смешна	-11.4541
▁излишне	-11.4545
▁проводя	-11.4546
▁вязанье	-11.4546
горела	-11.4552
служить	-11.4552
▁напоминал	-11.4554
▁приложени	-11.4554
▁пристяжн	-11.456
▁зелень	-11.4566
▁покрасневш	-11.4567
▁крайни	-11.4567
▁ненавист	-11.457
▁продажи	-11.4573
▁важн	-11.4574
uc	-11.4576
▁зацепи	-11.4577
▁невыгодно	-11.4577
▁швейцарск	-11.4583
▁беззаботно	-11.4585
▁грубость	-11.4585
рад	-11.4588
▁существуе	-11.459
волю	-11.4591
▁стихи	-11.4592
▁литературе	-11.4592
▁кн	-11.4594
▁въехал	-11.4594
▁каск	-11.4596
▁стариков	-11.4598
▁стрелял	-11.46
▁иду	-11.4609
▁фу	-11.4609
▁счеты	-11.461
▁удивительн	-11.461
туча	-11.4612
▁уста	-11.4614
▁английск	-11.4616
▁прямы	-11.4617
▁раздражительн	-11.4621
▁целую	-11.4622
▁подмигну	-11.4622
▁приготовление	-11.4623
▁«...	-11.4624
▁умерше	-11.4626
▁посмотрев	-11.4627
▁постыдны	-11.4628
▁робким	-11.4628
▁английском	-11.4629
▁жестокост	-11.4632
щей	-11.4632
▁тяготит	-11.4639
▁третья	-11.4645
▁утешал	-11.4645
▁цвета	-11.4649
▁дупеля	-11.4651
▁трое	-11.4654
▁умы	-11.4655
▁употребил	-11.4657
гло	-11.4665
▁копоши	-11.4667
▁любопытство	-11.4668
▁завидовал	-11.4672
▁спутанны	-11.4674
▁бит	-11.4681
▁романс	-11.4683
▁белого	-11.4685
сказ	-11.4687
▁гладк	-11.4689
▁отп	-11.4692
▁беспокоить	-11.4692
▁оборот	-11.4692
▁университетско	-11.4692
▁защищал	-11.4694
▁живущи	-11.4695
▁дворянству	-11.4696
▁вкуса	-11.4696
59	-11.4697
чить	-11.4697
▁учени	-11.4699
▁руководил	-11.4701
▁волнует	-11.4702
ais	-11.4708
тывать	-11.4709
▁ужасном	-11.471
▁бр	-11.471
▁старом	-11.471
▁рез	-11.4711
▁испорченн	-11.4715
te	-11.4718
▁округл	-11.4719
▁спустил	-11.4728
оротивши	-11.473
▁коренно	-11.4731
▁поступить	-11.4731
▁телк	-11.4731
▁предоставля	-11.4737
▁случая	-11.4738
▁появи	-11.4739
▁стальн	-11.4742
▁восторженны	-11.4747
ний	-11.4751
73	-11.4752
▁зев	-11.4755
▁держали	-11.4761
▁закрывая	-11.4763
▁драма	-11.4764
▁кисть	-11.4765
▁заперты	-11.4766
▁разрывает	-11.4767
▁садик	-11.477
▁курил	-11.4772
броси	-11.4773
▁атлас	-11.4774
▁берут	-11.4775
▁полот	-11.4778
▁нахмуренны	-11.4778
▁нумера	-11.4779
льно	-11.4785
чек	-11.4793
▁нервн	-11.4795
▁каблук	-11.4798
▁пыта	-11.4798
жностью	-11.4798
▁дики	-11.48
▁грязны	-11.48
▁высшем	-11.481
87	-11.4812
усов	-11.4813
▁сходство	-11.4818
▁съест	-11.4823
выше	-11.4828
▁воск	-11.4828
▁соседн	-11.4837
▁метко	-11.4838
жимая	-11.4841
▁вложил	-11.4841
▁181	-11.4843
92	-11.4849
бирал	-11.485
▁сером	-11.485
сена	-11.4857
▁выводил	-11.4861
▁лежи	-11.4861
▁медвежье	-11.4862
тянул	-11.4862
▁резал	-11.4865
▁местах	-11.4867
▁затрогива	-11.4867
at	-11.4869
▁каш	-11.4869
▁живым	-11.487
▁воскресны	-11.4871
▁провед	-11.4876
▁сохрани	-11.4876
▁литературны	-11.4877
▁красоте	-11.4889
▁важне	-11.4897
везли	-11.4898
ленн	-11.49
▁переглянул	-11.4907
▁смелость	-11.4908
▁чмока	-11.4908
▁привезенны	-11.4912
▁полоска	-11.4913
▁собака	-11.4915
▁придумал	-11.4917
▁огорчение	-11.4921
▁улыбающе	-11.4926
▁видать	-11.4928
▁выражало	-11.4929
▁легкомысленно	-11.4932
ходившей	-11.4933
▁железнодорожны	-11.4934
▁бесчестны	-11.4937
ений	-11.4937
▁музыкальн	-11.4939
▁лир	-11.494
▁умиление	-11.494
▁ничтожным	-11.4951
▁рельса	-11.4951
▁кончик	-11.4952
▁корен	-11.4979
▁благодарн	-11.4981
▁приносил	-11.4989
двигая	-11.4991
▁погибши	-11.4991
▁избранны	-11.4994
▁напал	-11.5003
▁верте	-11.5015
▁высшим	-11.5023
▁требу	-11.5029
▁изменит	-11.5036
кликнул	-11.5042
▁доставля	-11.5052
дет	-11.5054
▁оторвать	-11.5055
▁выражать	-11.5062
▁поступивш	-11.507
▁следстви	-11.5071
▁суждение	-11.5071
дур	-11.5074
▁ани	-11.5079
▁сажа	-11.508
▁подвину	-11.5082
▁торжественн	-11.5083
▁измученно	-11.5083
лечение	-11.509
ест	-11.5091
справить	-11.5096
▁замолкл	-11.5101
▁образованны	-11.5102
▁оживлен	-11.5104
▁густ	-11.5106
▁потны	-11.5107
▁закрывал	-11.511
▁пчела	-11.5111
▁женск	-11.5116
▁5	-11.5119
▁праздност	-11.512
▁чувстве	-11.5123
▁глазом	-11.5127
▁девк	-11.5127
▁общественном	-11.5128
▁особы	-11.5129
▁поцелу	-11.513
▁жаловал	-11.5132
▁тронут	-11.5133
▁прервал	-11.5138
▁поверен	-11.5145
тую	-11.5147
▁успокоила	-11.5152
▁напоминаю	-11.5157
што	-11.5161
▁бываю	-11.5167
фр	-11.5168
▁пятью	-11.5174
▁сыро	-11.5175
79	-11.5182
▁охотн	-11.5186
▁разочарование	-11.5196
▁прощать	-11.5202
▁образованно	-11.5204
▁последовательно	-11.5214
▁мук	-11.522
▁проста	-11.5223
▁a	-11.5226
▁замени	-11.5229
▁журнала	-11.5235
иса	-11.5242
▁пусти	-11.5246
▁глазам	-11.5247
▁кругл	-11.5248
▁сведени	-11.5249
▁заходи	-11.5257
▁губернским	-11.5257
дку	-11.5264
▁потерян	-11.5268
▁награда	-11.5284
▁сняты	-11.5286
езжайте	-11.5291
сылать	-11.5295
▁рисова	-11.5306
▁передава	-11.5309
▁центра	-11.531
▁di	-11.5311
▁физическ	-11.5312
▁9	-11.5313
книги	-11.5317
▁приготовленны	-11.5328
▁волновало	-11.5328
овал	-11.5331
80	-11.5334
▁греха	-11.5341
▁щури	-11.5342
96	-11.5355
▁шедш	-11.536
ази	-11.5362
▁открывает	-11.5363
кидыва	-11.5366
▁вос	-11.5367
▁насмешливы	-11.5371
смеявши	-11.5373
▁мягк	-11.5388
орох	-11.5388
▁vo	-11.5389
ai	-11.539
тар	-11.5395
снет	-11.5419
мень	-11.5428
▁закрыты	-11.5429
▁наполняло	-11.5429
▁девичь	-11.5449
▁ск	-11.545
▁смотре	-11.545
▁серебрян	-11.5452
▁прижимая	-11.5458
▁двинул	-11.5475
▁сторонам	-11.5478
▁друзьям	-11.548
ражают	-11.548
зу	-11.5486
▁озабоченн	-11.5489
енн	-11.549
▁уездно	-11.5494
▁189	-11.5495
зах	-11.5499
▁пришедше	-11.5501
▁полковы	-11.5506
▁отдела	-11.5506
94	-11.5507
▁тане	-11.5507
▁выражает	-11.5511
▁купленн	-11.5512
▁жара	-11.5513
▁передни	-11.5513
▁покровительств	-11.5515
▁поддава	-11.5523
▁работаю	-11.5531
ице	-11.5532
▁связа	-11.5534
изу	-11.5535
▁волновать	-11.5544
▁светско	-11.5545
▁любовниц	-11.5545
▁прочти	-11.5551
▁ценит	-11.5555
▁розово	-11.5556
▁пренебрега	-11.5566
▁гриба	-11.5581
жно	-11.5582
▁длин	-11.5585
▁утвердил	-11.5586
▁имевше	-11.5588
▁поры	-11.5589
▁тронула	-11.5593
▁comm	-11.5593
▁in	-11.5594
▁выпив	-11.5594
верить	-11.5596
▁пережи	-11.56
▁улови	-11.5602
▁прид	-11.5604
▁мучала	-11.5604
▁слуша	-11.5606
уж	-11.5621
▁влияни	-11.5622
неопределенность	-11.5625
▁удивительна	-11.5644
▁особо	-11.5644
▁сбежал	-11.5644
▁лежавши	-11.5648
▁пояса	-11.5649
▁поста	-11.565
▁почт	-11.5651
▁искупи	-11.5654
▁возможн	-11.5658
▁стоявш	-11.5659
ливать	-11.5659
▁строги	-11.566
ходя	-11.5662
ve	-11.5667
▁торопите	-11.5671
мщение	-11.568
ic	-11.5681
▁умираю	-11.5683
кладыва	-11.5692
▁казавши	-11.5694
▁груст	-11.5698
▁капу	-11.5701
▁выдуманн	-11.5702
▁сильн	-11.5704
▁переменя	-11.5705
52	-11.5708
▁кочк	-11.5712
▁фи	-11.5713
▁должност	-11.5716
97	-11.5721
ведения	-11.5723
▁минова	-11.5725
ура	-11.5737
роди	-11.5742
▁бос	-11.5751
жил	-11.5752
▁странном	-11.5756
▁няне	-11.5758
▁прорва	-11.5766
▁кончили	-11.5769
▁некрасив	-11.5769
▁посто	-11.5769
вины	-11.5792
бирая	-11.5797
▁красивом	-11.5799
▁закрыла	-11.5799
▁оторвал	-11.58
▁кружка	-11.5807
▁оправи	-11.5817
перек	-11.5823
▁управлени	-11.5826
▁устраивать	-11.5828
большой	-11.5828
▁губернском	-11.5832
▁обмануты	-11.5835
шую	-11.5842
▁тяну	-11.5845
▁дожидавш	-11.5847
▁приглядыва	-11.585
▁ввел	-11.5851
▁неприятн	-11.5864
▁представила	-11.5864
▁круто	-11.5867
▁примирение	-11.5872
жд	-11.5874
▁постро	-11.588
прав	-11.5883
лень	-11.5889
учить	-11.5891
▁избранн	-11.5895
рывая	-11.5895
▁сев	-11.5899
▁кафтана	-11.5906
▁выучи	-11.5913
▁робк	-11.5914
▁вытягива	-11.5919
рень	-11.5923
▁сошла	-11.5923
▁беспомощно	-11.5929
сад	-11.5933
▁благосостояни	-11.5941
▁замечательн	-11.5941
тное	-11.5946
▁делало	-11.5955
▁меш	-11.5957
▁притвор	-11.5967
возможность	-11.5982
▁разочаровани	-11.5988
▁министра	-11.5988
▁отворачивая	-11.5997
▁оглядел	-11.6002
▁важна	-11.6011
▁означа	-11.6019
▁нервно	-11.6021
91	-11.6027
▁мертв	-11.6027
▁стоят	-11.603
очк	-11.6033
лезно	-11.6034
▁лилов	-11.6037
▁студи	-11.604
ывать	-11.6041
▁обходи	-11.6049
▁велик	-11.605
▁модно	-11.6051
гнать	-11.606
▁зем	-11.6063
▁озабоченност	-11.6068
▁причесан	-11.607
▁ловки	-11.608
казаться	-11.6085
▁сломанн	-11.6086
▁вальдшнеп	-11.6087
▁зап	-11.6089
▁удобно	-11.6093
двойн	-11.6094
ашет	-11.6096
▁беспокойств	-11.6097
▁наве	-11.6098
▁сходи	-11.6102
честно	-11.611
валась	-11.6115
▁пересел	-11.6116
▁колеба	-11.6119
лис	-11.6139
▁перегляну	-11.6139
▁выдума	-11.6143
37–	-11.6143
сильно	-11.6146
▁всегдашн	-11.6147
▁выставлен	-11.6148
▁раска	-11.6148
до	-11.6152
▁безобраз	-11.6155
▁вырвал	-11.6156
▁нарядн	-11.6158
▁недовольств	-11.6164
▁крича	-11.6165
▁сидевши	-11.6168
▁макуш	-11.6169
дела	-11.6172
▁печат	-11.6173
приятное	-11.6176
▁щи	-11.6187
▁железнодорожн	-11.6189
▁друж	-11.6199
▁сгиба	-11.6199
▁известн	-11.6202
▁напомина	-11.6204
клонил	-11.6205
▁ненужны	-11.6207
▁вез	-11.6207
▁холодном	-11.6213
дить	-11.6215
трогивая	-11.622
▁достоинств	-11.622
▁великодуши	-11.6225
▁нож	-11.6226
▁тяготи	-11.623
▁желты	-11.6231
▁кончен	-11.6233
шие	-11.6234
▁sa	-11.6235
душевным	-11.6237
▁отстранила	-11.6238
▁сюжет	-11.6239
▁приезж	-11.624
▁прос	-11.6245
свети	-11.6245
пира	-11.6246
▁набра	-11.6246
▁живость	-11.6256
▁хода	-11.6257
▁дворянам	-11.6263
▁виль	-11.6265
▁крупн	-11.6266
▁стекл	-11.6269
▁найм	-11.6278
▁шит	-11.6282
▁каз	-11.6282
силен	-11.6284
русском	-11.6287
страдал	-11.6292
▁двер	-11.6294
аре	-11.6294
смотрел	-11.6299
an	-11.6301
▁бесчестн	-11.6303
▁естественн	-11.631
▁попытка	-11.6313
мысли	-11.6316
ровен	-11.6318
▁дружба	-11.6319
▁плач	-11.632
резал	-11.6322
▁тепл	-11.6322
▁исправ	-11.6326
оль	-11.6328
▁представлени	-11.6328
железны	-11.6335
русск	-11.6343
▁расп	-11.6346
▁медвед	-11.6347
может	-11.6351
▁равн	-11.6352
дневник	-11.6355
▁зева	-11.6356
▁испорт	-11.6356
▁посоветова	-11.6363
▁неясны	-11.6363
▁соглашал	-11.6367
середин	-11.637
разговор	-11.6372
разве	-11.6373
зачем	-11.6373
▁предоставлял	-11.6378
rie	-11.6378
точно	-11.6383
▁поправила	-11.6383
▁занимаю	-11.6384
▁принест	-11.6392
быстр	-11.6394
крыл	-11.64
▁правилам	-11.6403
▁отнес	-11.6404
кого	-11.6405
иди	-11.6409
ничего	-11.6409
▁помер	-11.641
▁миллиона	-11.6411
готов	-11.6412
▁снисходительно	-11.6422
▁ложе	-11.6422
▁подавал	-11.6422
вающими	-11.6422
▁лошад	-11.6426
▁спрос	-11.6427
▁содействова	-11.6431
кра	-11.6434
ачиваясь	-11.6435
▁галстука	-11.6436
▁производит	-11.6436
весел	-11.6438
ницы	-11.6443
▁пове	-11.6444
иф	-11.6445
меешь	-11.6446
▁разговоривш	-11.6449
▁края	-11.6452
лип	-11.6453
вес	-11.6457
▁зависе	-11.6458
ским	-11.6462
▁выстрела	-11.6464
▁заходил	-11.6465
вертыва	-11.6472
eau	-11.6477
отворил	-11.6477
▁дослуша	-11.6478
▁приказыва	-11.648
▁широк	-11.6481
▁каблука	-11.6482
▁топ	-11.6484
звезда	-11.6497
▁честолюбие	-11.6499
▁подстав	-11.6504
▁ааа	-11.6504
▁выезжа	-11.6505
льных	-11.6506
бек	-11.6511
▁обычн	-11.6511
ir	-11.6519
▁прожив	-11.6519
▁отлич	-11.6521
лилась	-11.6521
▁ищу	-11.6531
▁объяснени	-11.6534
▁обращен	-11.6535
▁креп	-11.6536
▁людск	-11.6538
здоровавш	-11.6541
▁натянуты	-11.6549
цов	-11.655
сал	-11.6551
вые	-11.6552
▁землевладельц	-11.6554
▁кредит	-11.6554
числ	-11.6561
▁стой	-11.6563
▁цар	-11.6568
▁невысок	-11.6572
▁смущени	-11.6573
▁разорв	-11.6575
▁гад	-11.6575
▁густы	-11.6579
▁умею	-11.6581
▁волн	-11.6583
ивала	-11.6588
▁ошибает	-11.6599
толковать	-11.6606
▁оправля	-11.6609
▁унизительно	-11.661
ейшим	-11.661
▁объявлен	-11.6615
▁представитель	-11.6615
▁объявля	-11.6623
кажу	-11.6623
▁скрип	-11.6624
▁повинност	-11.6627
бит	-11.6638
ящим	-11.6638
▁фрака	-11.664
▁устало	-11.6642
▁мрамор	-11.6643
▁став	-11.6645
▁пап	-11.6645
ост	-11.6647
▁подтверждени	-11.6652
▁духовны	-11.6654
воля	-11.6654
▁подозрева	-11.6658
▁успокоени	-11.6659
▁подбород	-11.667
▁правдиво	-11.6675
ивать	-11.6676
▁оставл	-11.6676
▁упад	-11.6676
▁бедн	-11.6677
▁губам	-11.668
высокий	-11.668
▁повес	-11.6682
▁депутаци	-11.6688
▁подарк	-11.6688
▁запер	-11.669
вчерашнем	-11.6692
▁др	-11.6696
трог	-11.6697
▁назначенн	-11.6698
▁приблизи	-11.67
▁найден	-11.67
▁пренебре	-11.6702
▁рети	-11.6705
▁помешал	-11.6707
▁просвещени	-11.671
▁потеряла	-11.6712
▁взглян	-11.6713
▁ощупыва	-11.6715
думали	-11.6715
ству	-11.6717
▁полага	-11.6718
▁танцу	-11.672
▁печ	-11.6726
▁принадлежа	-11.6728
росши	-11.6729
▁очевидн	-11.673
▁солом	-11.673
▁раздраженн	-11.6734
▁позва	-11.6734
стра	-11.6737
очен	-11.6739
▁ящика	-11.6747
▁расположен	-11.6749
▁руководи	-11.6752
▁капл	-11.6752
▁тащи	-11.6755
▁пассажир	-11.6758
▁откр	-11.676
▁борозд	-11.6761
▁комп	-11.6763
тряхивая	-11.6764
▁мучени	-11.6765
рош	-11.6768
▁сломал	-11.6772
годно	-11.6775
▁возража	-11.6778
▁мельниц	-11.6779
избира	-11.678
епи	-11.6781
▁цыган	-11.6784
ления	-11.6786
ольц	-11.6786
▁существова	-11.6787
▁колп	-11.6787
▁испол	-11.679
гнув	-11.679
мычал	-11.6791
всеобщ	-11.6796
▁пеле	-11.6799
▁забав	-11.68
▁чисты	-11.68
▁входит	-11.68
хлоп	-11.6805
ладно	-11.6809
сочувстви	-11.6811
▁сетк	-11.6813
берку	-11.6814
▁лечит	-11.6818
воззрени	-11.6818
▁оживленн	-11.6819
▁мелким	-11.682
▁невинн	-11.6821
▁иностран	-11.6822
▁искус	-11.6823
ович	-11.6823
▁испортит	-11.6825
▁напад	-11.6826
▁приготовила	-11.6826
▁священн	-11.6827
▁забыт	-11.6828
▁овс	-11.6828
▁кончит	-11.6829
▁баллотиру	-11.6829
стный	-11.683
▁невид	-11.6831
▁представител	-11.6831
▁газ	-11.6831
конечно	-11.6831
▁апостол	-11.6831
▁перевяз	-11.6831
▁инстинкт	-11.6832
▁капель	-11.6832
▁букольк	-11.6832
▁заглуша	-11.6832
▁славянофильс	-11.6832
▁абажур	-11.6832
▁вдохновля	-11.6832
▁намордник	-11.6832
▁перстн	-11.6832
▁сумасшедше	-11.6832
▁таврам	-11.6832
неволе	-11.6832
рефлексы	-11.6832
▁агентства	-11.6832
▁амазонк	-11.6832
▁архитектур	-11.6832
▁бедняжк	-11.6832
▁бельэтаж	-11.6832
▁бенуар	-11.6832
▁беременна	-11.6832
▁бифстек	-11.6832
▁блуз	-11.6832
▁бювар	-11.6832
▁взрыв	-11.6832
▁возмезди	-11.6832
▁возможен	-11.6832
▁галере	-11.6832
▁галун	-11.6832
▁гравюр	-11.6832
▁грамматик	-11.6832
▁диккенс	-11.6832
▁жандарм	-11.6832
▁завидно	-11.6832
▁заработн	-11.6832
▁застегивая	-11.6832
▁зовут	-11.6832
▁иллюстраци	-11.6832
▁иноход	-11.6832
▁искуплен	-11.6832
▁исхудал	-11.6832
▁карлсбад	-11.6832
▁колебля	-11.6832
▁коральк	-11.6832
▁кошмар	-11.6832
▁критическ	-11.6832
▁лукка	-11.6832
▁лягуш	-11.6832
▁магазин	-11.6832
▁мальтус	-11.6832
▁мальчишк	-11.6832
▁миндально	-11.6832
▁назначил	-11.6832
▁неравенств	-11.6832
▁неразрешимы	-11.6832
▁нескладн	-11.6832
▁обираловк	-11.6832
▁омерзени	-11.6832
▁определял	-11.6832
▁орошения	-11.6832
▁осуществление	-11.6832
▁очаровани	-11.6832
▁перламутров	-11.6832
▁пешеход	-11.6832
▁племянник	-11.6832
▁погублен	-11.6832
▁подтрунива	-11.6832
▁преувеличива	-11.6832
▁припоминал	-11.6832
▁пришлю	-11.6832
▁проработа	-11.6832
▁протекци	-11.6832
▁протодьякон	-11.6832
▁прыжк	-11.6832
▁психически	-11.6832
▁разнообрази	-11.6832
▁растравля	-11.6832
▁расшир	-11.6832
▁реализм	-11.6832
▁сеченов	-11.6832
▁соответствовал	-11.6832
▁сушилк	-11.6832
▁сцепщик	-11.6832
▁танцовщиц	-11.6832
▁трагеди	-11.6832
▁убийств	-11.6832
▁убийц	-11.6832
▁умрешь	-11.6832
▁утверждени	-11.6832
▁филантропическ	-11.6832
▁флигельадъютант	-11.6832
▁фортепьян	-11.6832
▁цирюльник	-11.6832
▁шиньон	-11.6832
▁шопенгау	-11.6832
▁шотландско	-11.6832
▁эпизод	-11.6832
▁эскадрон	-11.6832
совокуп	-11.6832
▁выигрыш	-11.6832
▁жанр	-11.6832
▁кризис	-11.6832
▁мозга	-11.6832
▁ощупал	-11.6832
▁переплет	-11.6832
▁перерыв	-11.6832
▁переспросил	-11.6832
▁пистолет	-11.6832
▁повидать	-11.6832
▁потолсте	-11.6832
▁похорон	-11.6832
▁прекраща	-11.6832
▁протяж	-11.6832
▁раскрасневши	-11.6832
▁устреми	-11.6832
▁шкур	-11.6832
▁ядовиты	-11.6832
▁жакетк	-11.6832
▁заскрипел	-11.6832
▁зрительниц	-11.6832
▁кратко	-11.6832
▁обеспечи	-11.6832
▁потруди	-11.6832
▁сутуловат	-11.6832
▁шопенгауера	-11.6832
▁перечт	-11.6832
▁поразивше	-11.6832
▁вокзал	-11.6832
▁задрема	-11.6832
▁очутил	-11.6832
▁пословиц	-11.6832
▁засученн	-11.6832
▁корабл	-11.6832
▁логически	-11.6832
▁насмешил	-11.6832
▁оскорбительна	-11.6832
▁январ	-11.6832
прикосновени	-11.6832
▁кормлени	-11.6832
▁наполнила	-11.6832
▁различи	-11.6832
▁сеанс	-11.6832
▁сентябр	-11.6832
▁tout	-11.6832
▁бульон	-11.6832
▁голицын	-11.6832
▁скульптор	-11.6832
▁поморск	-11.6832
▁букашк	-11.6832
▁жажд	-11.6832
▁вавилон	-11.6832
▁долженствовавш	-11.6832
▁принцесс	-11.6832
▁рябо	-11.6832
▁марш	-11.6832
▁обтянуты	-11.6832
▁скачут	-11.6832
▁белизн	-11.6832
▁запрещен	-11.6832
▁зоологическ	-11.6832
▁кириллович	-11.6832
▁полушубк	-11.6832
▁софь	-11.6832
▁насуплива	-11.6832
▁курточк	-11.6832
▁накрыт	-11.6832
▁текуще	-11.6832
▁клетк	-11.6832
▁навилин	-11.6832
▁щебе	-11.6832
▁выкупа	-11.6832
▁забрал	-11.6832
▁сказки	-11.6832
▁притягивал	-11.6832
▁влажно	-11.6832
ardeau	-11.6832
▁хутор	-11.6832
▁католическо	-11.6832
▁сурово	-11.6832
▁исключение	-11.6832
▁мышц	-11.6832
▁отчаянь	-11.6832
▁молодцеват	-11.6832
▁трагическ	-11.6832
▁наилучши	-11.6832
▁накупил	-11.6832
▁переполнен	-11.6832
▁помилова	-11.6832
▁нянюшк	-11.6832
▁ночлег	-11.6832
▁приобрета	-11.6832
▁реальны	-11.6832
▁революционно	-11.6832
▁наследник	-11.6832
▁единомысли	-11.6832
▁беспокойно	-11.6832
▁освежить	-11.6832
▁отозвал	-11.6832
▁лопн	-11.6832
▁усынов	-11.6832
▁отыска	-11.6832
▁восток	-11.6832
▁карниз	-11.6832
▁рассмотрел	-11.6832
▁явлений	-11.6833
▁брюнет	-11.6833
▁салон	-11.6833
▁опроста	-11.6833
▁вещам	-11.6833
▁тютькин	-11.6833
▁решал	-11.6833
▁вылетал	-11.6833
▁няньк	-11.6833
▁поразительн	-11.6833
▁домашне	-11.6833
▁предназначен	-11.6833
▁пожар	-11.6833
▁никитин	-11.6833
▁уважаемы	-11.6833
▁воздам	-11.6833
▁задавал	-11.6833
tte	-11.6833
▁германии	-11.6833
▁толковани	-11.6833
▁поправк	-11.6833
▁прокати	-11.6833
▁порошк	-11.6833
▁победителем	-11.6833
▁взви	-11.6833
▁переворотилось	-11.6834
▁получены	-11.6834
▁вымыты	-11.6834
▁пруссией	-11.6834
▁искр	-11.6834
▁разреша	-11.6834
▁изречени	-11.6834
▁приглядел	-11.6834
▁углубля	-11.6834
▁поднимающий	-11.6834
▁духовная	-11.6834
▁возбуждаемо	-11.6834
▁колбасик	-11.6834
▁противопоставля	-11.6834
▁запряженн	-11.6835
▁интеллигенци	-11.6835
▁телят	-11.6835
▁рукопис	-11.6835
▁экономист	-11.6835
▁облек	-11.6835
▁соединенного	-11.6836
▁вопросительны	-11.6836
▁кокетств	-11.6836
▁говорун	-11.6836
▁принимаем	-11.6836
▁отжившее	-11.6836
▁раздор	-11.6836
▁расправи	-11.6837
▁инфернальную	-11.6837
▁пудов	-11.6837
▁лысин	-11.6837
▁подсунул	-11.6837
▁отвык	-11.6837
▁задеты	-11.6837
▁диан	-11.6837
сознательно	-11.6837
▁возвратить	-11.6837
▁наклонност	-11.6837
▁so	-11.6838
▁рассудк	-11.6838
▁чибисов	-11.6838
▁курчавы	-11.6838
нны	-11.6838
▁нескошенн	-11.6838
▁перехватыва	-11.6839
▁подбор	-11.6839
▁течени	-11.6839
▁журналист	-11.6839
▁тиндал	-11.6839
▁худая	-11.6839
▁развяжет	-11.684
▁висел	-11.684
▁прядь	-11.684
▁предвидел	-11.684
▁провинци	-11.684
▁разрезно	-11.684
▁пройду	-11.684
▁привязанность	-11.684
▁украша	-11.6841
▁182	-11.6841
▁союз	-11.6841
▁прогнал	-11.6841
льшим	-11.6841
▁поколени	-11.6842
▁теленк	-11.6842
▁успокоительно	-11.6842
▁замотал	-11.6843
▁седок	-11.6843
▁уложенн	-11.6843
▁55	-11.6843
▁100	-11.6844
▁съеха	-11.6844
▁торопливы	-11.6844
▁турок	-11.6844
▁живописец	-11.6844
▁одиноки	-11.6845
▁мак	-11.6846
осмотрев	-11.6846
▁угощал	-11.6846
▁преждевременно	-11.6846
▁исключительно	-11.6846
тракт	-11.6846
▁пруд	-11.6847
▁москвич	-11.6847
▁болотце	-11.6847
▁незаконн	-11.6847
▁выведен	-11.6848
▁василь	-11.6848
▁распорядиться	-11.6848
ci	-11.6848
ины	-11.6848
арая	-11.6849
▁возьмешь	-11.6849
▁приводит	-11.6849
▁презираешь	-11.6849
▁поскакал	-11.6849
▁посидел	-11.685
▁шутить	-11.6851
▁вскидыва	-11.6851
▁покажи	-11.6852
▁физик	-11.6852
▁поручение	-11.6852
▁застрели	-11.6853
▁золотым	-11.6853
▁соден	-11.6853
▁богословски	-11.6853
▁любящи	-11.6853
▁колок	-11.6854
▁танцует	-11.6854
▁естественник	-11.6854
▁процвета	-11.6854
▁визгливы	-11.6855
▁называемо	-11.6855
72	-11.6856
▁называемы	-11.6856
буль	-11.6857
▁выруч	-11.6857
▁кашин	-11.6858
▁тин	-11.6859
▁задумыва	-11.6859
▁призван	-11.6859
▁бросает	-11.686
▁погибели	-11.686
▁распространя	-11.686
▁перейд	-11.686
▁вестнике	-11.6861
▁остров	-11.6862
▁удаля	-11.6863
▁памятник	-11.6863
▁догнал	-11.6863
▁вмешательство	-11.6864
▁шапочк	-11.6864
▁семенов	-11.6865
▁милосерди	-11.6865
▁облок	-11.6866
▁спенсером	-11.6866
▁класса	-11.6866
видимом	-11.6866
▁налито	-11.6869
▁элегантность	-11.687
▁фомин	-11.687
▁докладыва	-11.6871
▁населени	-11.6871
▁проектов	-11.6871
иц	-11.6872
▁экономк	-11.6872
▁спасать	-11.6873
ment	-11.6873
▁кашинско	-11.6874
▁кожан	-11.6874
▁каульбаха	-11.6875
▁возвышенны	-11.6875
▁завертыва	-11.6876
▁припадк	-11.6876
▁текл	-11.6876
▁улучшени	-11.6876
▁исследовани	-11.6876
▁помощниц	-11.6877
▁подразделени	-11.6877
▁мечтания	-11.6878
▁фырка	-11.6878
тихий	-11.6878
▁средни	-11.6879
▁цыганом	-11.6879
▁шалост	-11.688
▁копыт	-11.688
▁колпач	-11.688
▁высматрива	-11.688
▁отличи	-11.6881
▁распада	-11.6882
▁колод	-11.6882
▁обручени	-11.6883
▁остроумны	-11.6883
▁ницц	-11.6883
▁кивнул	-11.6883
▁преград	-11.6886
▁забор	-11.6887
▁условност	-11.6887
▁узко	-11.6888
▁бон	-11.6888
▁кашлял	-11.6888
▁вывед	-11.6889
▁нервы	-11.6889
жег	-11.6889
▁железом	-11.689
▁разбежал	-11.689
▁зашумел	-11.689
▁горниц	-11.6893
▁прислуша	-11.6894
▁слушай	-11.6894
▁верениц	-11.6895
▁подтверждал	-11.6896
▁худоб	-11.6897
▁оглянув	-11.6897
▁сменя	-11.6897
▁действительны	-11.6898
▁достигнут	-11.6898
▁рыданья	-11.6898
▁лишний	-11.6899
▁внутр	-11.6899
▁загиба	-11.69
▁низши	-11.6902
ссо	-11.6904
▁следова	-11.6907
▁шампанск	-11.6907
▁уверенность	-11.6908
▁раск	-11.6908
▁брошен	-11.6908
▁предания	-11.6908
▁заставля	-11.6908
▁морск	-11.6909
▁благодарность	-11.691
думывал	-11.691
росли	-11.6912
▁вникал	-11.6913
▁николае	-11.6914
▁обли	-11.6915
▁уяснени	-11.6916
кая	-11.6917
▁тянет	-11.6917
▁злослови	-11.6917
▁брошюр	-11.6917
▁обрусени	-11.6917
▁золочен	-11.6918
▁семейная	-11.6918
▁приветствовал	-11.6918
▁машкин	-11.6918
▁доставал	-11.6918
▁попробуйте	-11.6918
▁восточно	-11.692
▁170	-11.6921
▁ботинк	-11.6921
▁экономии	-11.6921
▁178	-11.6922
▁музыкой	-11.6922
▁раская	-11.6922
▁приветстви	-11.6923
▁ценност	-11.6924
зем	-11.6924
▁соблюда	-11.6924
старинном	-11.6924
▁поворачиваясь	-11.6925
▁ширм	-11.6926
▁воротничк	-11.6927
▁цеп	-11.6927
▁льва	-11.6928
▁размер	-11.693
▁обознача	-11.693
▁зять	-11.693
▁пень	-11.6931
▁спичк	-11.6932
плачет	-11.6933
▁перебра	-11.6934
▁денежны	-11.6935
▁отвлеченно	-11.6936
▁разорва	-11.6936
▁лета	-11.6938
▁сообщ	-11.6939
▁разрушение	-11.694
▁шить	-11.6941
▁веял	-11.6941
▁крыло	-11.6944
▁звани	-11.6944
▁учу	-11.6946
▁сношени	-11.6946
▁изображени	-11.6947
▁уложил	-11.6948
▁ощупывал	-11.695
▁укладк	-11.695
▁пожатие	-11.6956
▁здоровенны	-11.6957
▁расстава	-11.6958
▁четверо	-11.6961
▁пустит	-11.6962
▁скор	-11.6962
▁юбиле	-11.6963
▁мучения	-11.6964
▁обнажил	-11.6964
▁великодушия	-11.6966
▁винт	-11.6966
▁христианства	-11.6967
▁правильны	-11.6967
▁родильн	-11.6969
▁приняв	-11.697
▁письменным	-11.6971
▁душистым	-11.6973
▁умеет	-11.6975
▁оголенны	-11.6975
▁завязал	-11.6977
▁запрети	-11.6978
▁позволени	-11.6981
lis	-11.6981
▁выставил	-11.6981
▁проезд	-11.6982
▁развязк	-11.6982
▁внушал	-11.6982
растут	-11.6985
▁храп	-11.6986
▁переверну	-11.6987
▁пле	-11.6987
платил	-11.6988
▁венча	-11.6989
▁сене	-11.699
бытия	-11.6991
▁заглянул	-11.6992
▁хваста	-11.6993
▁заезжал	-11.6996
▁каску	-11.6996
▁чьи	-11.6996
▁записал	-11.6997
▁уличени	-11.6998
▁отъехал	-11.6998
▁дадут	-11.6999
ехали	-11.7002
▁раковину	-11.7002
▁выпростал	-11.7005
▁расспроси	-11.7005
▁приблизил	-11.7008
▁помещиков	-11.7009
▁застанет	-11.701
▁успокоения	-11.701
▁справил	-11.7011
▁унылы	-11.7011
вина	-11.7011
▁заключения	-11.7017
▁основанно	-11.7017
▁вымы	-11.7019
▁дос	-11.7019
▁вещью	-11.702
▁вари	-11.7023
166	-11.7025
▁заслуга	-11.7026
самобытно	-11.7028
▁чужды	-11.7031
▁ожидало	-11.7032
▁праздны	-11.7035
▁иваном	-11.7035
▁лагеря	-11.7039
▁приговаривал	-11.7039
▁портить	-11.7039
▁сучк	-11.7039
▁руководству	-11.7042
▁повинности	-11.7042
▁переносил	-11.7042
▁занимающи	-11.7043
урок	-11.7043
▁уложив	-11.7046
▁хитрость	-11.7047
▁спорт	-11.705
▁отдай	-11.7052
▁сделаешь	-11.7053
▁постоял	-11.7054
чище	-11.7055
▁милан	-11.7056
▁бедност	-11.7058
▁местечк	-11.7058
▁унизительное	-11.7059
роб	-11.7059
▁обижа	-11.706
▁безобразно	-11.7061
▁выгоня	-11.7061
▁катавши	-11.7065
▁all	-11.7066
исках	-11.7068
▁бедность	-11.7068
▁любимов	-11.7068
▁гувернер	-11.7068
▁затеянн	-11.7068
▁конча	-11.7068
▁чеченски	-11.7068
▁чье	-11.7073
▁объявляет	-11.7074
▁основы	-11.7074
▁падши	-11.7075
▁дружелюбны	-11.7076
▁гласно	-11.7078
▁уз	-11.708
▁кротким	-11.708
▁звучно	-11.708
▁настоящем	-11.7085
▁внешность	-11.7085
кани	-11.7087
▁комически	-11.7088
▁напряженны	-11.7089
131	-11.709
▁практическ	-11.7093
▁сунул	-11.71
▁скакавши	-11.7101
дро	-11.7101
▁соль	-11.7104
▁пронзительны	-11.7106
▁пожалел	-11.7108
▁возобнови	-11.7109
▁степи	-11.7109
▁заметны	-11.7114
▁проведу	-11.7114
▁великодушно	-11.7116
ги	-11.7126
▁бледн	-11.7128
▁звонк	-11.7129
▁лучшим	-11.7133
▁тел	-11.7133
▁смущенны	-11.7134
▁возбужденны	-11.7136
▁нрав	-11.7138
унг	-11.7141
▁карте	-11.7141
▁остановивш	-11.7142
▁шлепая	-11.7142
▁мнимо	-11.7147
▁мешочк	-11.7148
▁блюдо	-11.7148
нер	-11.7152
▁пиль	-11.7152
▁ручь	-11.7152
▁законом	-11.7155
▁верен	-11.7155
▁самодовольн	-11.7156
▁оттенк	-11.7157
▁погибш	-11.7159
▁светла	-11.716
▁человечески	-11.716
вым	-11.7161
▁презрительны	-11.7162
▁пролета	-11.7165
▁углов	-11.7165
▁искренне	-11.717
▁дура	-11.7171
▁жида	-11.7173
44	-11.7174
▁писание	-11.7177
▁мертвеца	-11.718
▁правильно	-11.7181
азом	-11.7182
▁вредно	-11.7187
уважительно	-11.7193
▁шести	-11.72
▁портно	-11.72
▁облит	-11.7203
▁мужественны	-11.7203
▁найдут	-11.7206
▁материальн	-11.7207
▁подда	-11.7209
▁узд	-11.7209
▁потухл	-11.721
▁брате	-11.7216
▁плешивы	-11.7218
▁повредит	-11.7219
▁соображать	-11.722
▁рыжи	-11.7224
▁тягост	-11.7226
▁тщетны	-11.7227
▁рамк	-11.7228
▁скакал	-11.7232
▁двоить	-11.7234
▁восьми	-11.7237
▁пела	-11.7237
▁принцу	-11.7237
▁костлявы	-11.7238
пье	-11.724
▁сходят	-11.7248
▁царя	-11.7248
держал	-11.7249
▁плачу	-11.7251
▁197	-11.7254
рут	-11.7254
▁разгоряченно	-11.7255
▁благодарил	-11.7256
▁сдержанны	-11.7263
▁ложа	-11.7264
▁бархатно	-11.7269
ению	-11.727
▁чистым	-11.7273
▁душил	-11.7273
▁поверенны	-11.7274
▁жесток	-11.7274
олю	-11.728
▁голубым	-11.728
▁закус	-11.7281
▁подав	-11.7283
пасть	-11.7286
▁наивным	-11.7287
▁укладывала	-11.729
▁обнима	-11.7295
▁ложк	-11.7296
рст	-11.7297
▁выдающим	-11.7301
жать	-11.7306
▁милостив	-11.7313
▁освеща	-11.7314
▁грехи	-11.7314
etit	-11.7316
▁столике	-11.732
лос	-11.7322
▁продан	-11.7322
падает	-11.7323
▁пускать	-11.7326
▁грустн	-11.734
ухов	-11.7341
▁достойна	-11.7341
▁серебряно	-11.7342
▁статны	-11.7351
▁начнет	-11.7352
▁начинают	-11.7353
▁обнаженным	-11.7353
▁вязал	-11.7354
▁темне	-11.7359
▁состояще	-11.736
▁пропусти	-11.7363
▁бегу	-11.7363
▁быстрые	-11.7364
▁духовным	-11.7365
ци	-11.7366
▁ладоня	-11.7369
▁звонки	-11.7369
▁офицерски	-11.7373
▁колебал	-11.7374
лок	-11.7375
▁музыка	-11.7375
▁воспитанны	-11.7376
▁препятствие	-11.7379
▁развяза	-11.7393
бы	-11.7395
вается	-11.7405
▁наблюдениям	-11.7412
▁выгнал	-11.7414
лым	-11.7418
▁денника	-11.7424
▁факта	-11.7424
мешало	-11.7427
ойдем	-11.7427
пон	-11.7427
▁спаси	-11.743
159	-11.7433
▁работника	-11.7434
▁толку	-11.7435
иваясь	-11.7436
▁научить	-11.7437
ряд	-11.7439
скотник	-11.7441
▁расчета	-11.745
▁разби	-11.7454
▁женским	-11.7455
▁мальчикам	-11.7456
▁va	-11.746
ons	-11.7462
▁спрятал	-11.7478
колебавши	-11.7479
▁обманывал	-11.7479
выездно	-11.748
▁отнима	-11.7482
мер	-11.7485
▁подробностям	-11.7494
▁безнадежно	-11.7495
▁учить	-11.7495
▁наблюдение	-11.7497
▁везет	-11.7497
▁парижа	-11.7501
тремя	-11.7506
любивший	-11.7508
▁истина	-11.751
▁соображал	-11.7512
▁умо	-11.7514
▁кафтанам	-11.7515
▁144	-11.7515
советы	-11.7518
▁земно	-11.7518
езде	-11.7522
вели	-11.7524
▁основанны	-11.7526
▁рыже	-11.7527
▁отказыва	-11.7528
▁отставил	-11.754
▁гру	-11.7546
▁существующе	-11.7547
▁человеческ	-11.7551
читает	-11.7554
▁несчастным	-11.7558
▁вальдшнепа	-11.7561
летнем	-11.7571
▁свободна	-11.7572
60	-11.7573
▁распределен	-11.7573
▁падения	-11.7574
▁совершивши	-11.758
▁николаевича	-11.7584
▁непонятн	-11.7592
▁выгода	-11.7597
сом	-11.7604
вский	-11.7611
▁обществом	-11.7615
рент	-11.7616
▁вставил	-11.7624
тин	-11.7624
▁тверды	-11.7625
▁вышедше	-11.7629
▁присоединил	-11.7633
▁такт	-11.7635
▁склонн	-11.7635
▁муч	-11.7643
▁восстанови	-11.7645
▁колк	-11.7647
▁учит	-11.7648
ступают	-11.7651
▁коли	-11.7654
▁стога	-11.7658
▁невинны	-11.7664
▁здоровым	-11.7668
▁генерала	-11.7671
▁похвала	-11.7672
▁адвокату	-11.7678
ачка	-11.7686
▁противоположном	-11.7689
▁связыва	-11.769
▁городск	-11.7691
▁щекам	-11.7695
▁определенность	-11.77
▁болезненн	-11.7712
▁одеял	-11.7712
ская	-11.7712
▁кроватк	-11.7724
мок	-11.7731
▁надев	-11.7733
▁долгу	-11.7733
▁обряда	-11.775
фа	-11.7751
пристраст	-11.7754
▁возвративши	-11.7755
▁куск	-11.7756
▁отворачива	-11.7763
▁повторение	-11.7764
▁находят	-11.7764
утко	-11.7772
▁паров	-11.778
▁пришедши	-11.7784
93	-11.7787
▁148	-11.7789
▁получа	-11.7789
ушать	-11.779
▁поверк	-11.7792
▁втягива	-11.7793
шн	-11.78
▁стог	-11.7812
▁порядочн	-11.7817
▁доехал	-11.7819
▁поведени	-11.7821
знать	-11.7823
утренним	-11.7824
▁научи	-11.7828
тир	-11.783
ори	-11.7833
168	-11.7835
▁больн	-11.7837
▁оправить	-11.7838
▁приглашение	-11.7838
▁мяч	-11.7839
▁столб	-11.7839
▁естественна	-11.784
▁освещенны	-11.784
▁игрушка	-11.7843
▁проигра	-11.7843
пела	-11.7847
▁разным	-11.785
▁широка	-11.7853
ге	-11.786
▁серебряны	-11.7868
▁засуну	-11.7869
▁мелко	-11.7871
▁пойде	-11.7875
дим	-11.7877
▁начинали	-11.7884
▁звуча	-11.7885
шин	-11.7885
▁крепостн	-11.7893
▁дорожа	-11.7898
▁низост	-11.7901
▁министерство	-11.7902
▁узнай	-11.7904
▁наден	-11.7907
вне	-11.7918
вине	-11.792
▁выучить	-11.7924
▁дань	-11.7926
▁ветк	-11.793
▁сосредоточен	-11.7936
▁вертеть	-11.7949
▁отчаянн	-11.7951
lan	-11.7951
▁пружин	-11.7955
esse	-11.796
ведение	-11.7963
▁настоятельн	-11.7966
▁писателя	-11.797
66	-11.7975
енька	-11.7978
▁военн	-11.7979
▁добродушн	-11.7981
▁товарищам	-11.7982
▁откинула	-11.7984
▁облива	-11.7994
▁влез	-11.8003
▁собрав	-11.8003
▁elle	-11.8005
▁повода	-11.8006
ени	-11.801
▁воинск	-11.8011
▁франт	-11.8014
81	-11.8016
▁приведе	-11.8016
▁заменили	-11.8016
▁утверди	-11.8021
▁бумага	-11.8023
▁летн	-11.8024
▁примир	-11.8025
▁перев	-11.8027
▁задним	-11.8029
▁вчерашн	-11.8033
арь	-11.8043
ставлять	-11.8043
тающего	-11.805
▁порт	-11.805
▁занятиям	-11.8054
▁конов	-11.8055
нс	-11.8058
смотрите	-11.8058
▁ранен	-11.8059
▁откажет	-11.8064
71	-11.8067
нем	-11.8079
▁мах	-11.8083
▁ук	-11.8086
▁позови	-11.8092
78	-11.8103
▁надоел	-11.8105
ставляет	-11.8107
▁нерв	-11.8108
▁сияюще	-11.8108
▁строя	-11.8109
▁мет	-11.8115
▁совершить	-11.8116
бежавши	-11.8127
▁покровительству	-11.8136
▁отправлени	-11.8141
пала	-11.8148
▁гостиница	-11.8158
кова	-11.8158
▁побр	-11.8164
oc	-11.8176
нным	-11.8178
▁si	-11.8194
▁философск	-11.8196
▁вступал	-11.8197
ерев	-11.8201
▁убранн	-11.8201
▁тайно	-11.8206
▁близком	-11.8209
▁розовы	-11.8217
▁мокрым	-11.8222
▁взаимном	-11.8223
▁современны	-11.8228
▁неверующ	-11.8231
▁перенесла	-11.8236
▁жир	-11.8242
95	-11.8244
▁изложени	-11.8246
▁тайна	-11.825
обо	-11.825
▁обедн	-11.8251
жный	-11.8252
▁эк	-11.8253
▁соединение	-11.8256
▁158	-11.8258
▁поднимали	-11.8264
▁ин	-11.8265
▁ар	-11.8278
▁одеты	-11.8281
пан	-11.8283
займ	-11.8288
▁коса	-11.8288
шее	-11.8291
щав	-11.8296
прош	-11.8312
▁итали	-11.8315
▁покрывавш	-11.8317
▁высш	-11.8325
res	-11.8326
▁любовнице	-11.8328
68	-11.8336
▁закурива	-11.834
▁красны	-11.8344
▁излишеств	-11.8346
▁ручонка	-11.8356
▁разгоряч	-11.8365
▁ручонк	-11.8367
терпе	-11.8368
чер	-11.8375
▁дышло	-11.8376
▁учи	-11.838
▁спе	-11.838
▁закурив	-11.8382
▁соха	-11.8389
▁бумагам	-11.8389
▁исполнял	-11.839
▁близким	-11.839
нью	-11.8399
▁последствие	-11.841
▁болотны	-11.8411
air	-11.8418
▁удалил	-11.8427
▁цепляя	-11.8428
▁46	-11.8428
▁дж	-11.8435
▁девичьи	-11.8436
▁рассея	-11.845
своил	-11.8455
▁съезж	-11.8457
здания	-11.8458
▁перегибая	-11.846
дар	-11.846
▁41	-11.8467
строен	-11.847
▁непо	-11.8483
▁обращает	-11.85
▁доставит	-11.85
▁разлюби	-11.8504
▁подсказал	-11.8506
▁выходивше	-11.8509
ставя	-11.8513
уст	-11.8517
▁понимавши	-11.852
▁переста	-11.852
84	-11.8524
взаимно	-11.8524
▁выговор	-11.8527
▁некрасивы	-11.8536
▁посади	-11.8551
▁недоступн	-11.8563
▁огляде	-11.8567
▁поло	-11.857
▁овладев	-11.8571
▁спросит	-11.8579
знаю	-11.8601
про	-11.861
▁хоте	-11.8619
любовавши	-11.8626
152	-11.8632
io	-11.8632
▁спотыка	-11.8636
▁осуждени	-11.8638
ваемо	-11.8639
▁мучаю	-11.8642
▁постиг	-11.8643
▁оправдать	-11.865
▁куплен	-11.8651
▁фраза	-11.8653
▁подойди	-11.8654
пряжк	-11.8665
еж	-11.8677
▁суда	-11.8687
▁незнакомо	-11.8687
знания	-11.8695
▁уездны	-11.8696
слов	-11.8699
▁указа	-11.87
▁дрожат	-11.8705
илы	-11.8712
стить	-11.8719
ступал	-11.8723
▁закуси	-11.8725
▁нагнул	-11.8727
дится	-11.8735
▁начальника	-11.8738
говорил	-11.8741
▁образа	-11.8744
▁почин	-11.8745
▁угла	-11.8745
▁выскаж	-11.875
▁начинало	-11.8756
ации	-11.8757
▁укор	-11.8759
кал	-11.8768
▁искани	-11.877
▁разруша	-11.877
▁огорча	-11.8774
▁дипломатическ	-11.8775
▁печата	-11.8779
▁вор	-11.8779
▁воинско	-11.8784
▁мужск	-11.8803
▁бессонн	-11.8804
▁сообража	-11.8814
▁сияющ	-11.8822
▁бессмысленн	-11.8823
▁пуга	-11.8829
▁золот	-11.8831
ебн	-11.8831
▁разнообразным	-11.8838
ъ	-11.8843
▁рубл	-11.8848
▁взглядам	-11.8852
▁гладко	-11.8861
▁предлагаем	-11.8872
▁стон	-11.8874
▁совершенство	-11.8876
▁основани	-11.8884
▁предостави	-11.8887
▁сол	-11.889
одействи	-11.8897
▁бесконечн	-11.8921
ски	-11.8922
дей	-11.893
it	-11.8932
▁ль	-11.8934
▁существую	-11.8935
вишь	-11.8952
ело	-11.8955
ог	-11.8957
▁стуль	-11.8962
ницу	-11.897
▁долож	-11.8972
▁tr	-11.8974
▁стыдливо	-11.8982
▁перенос	-11.8987
плакала	-11.899
▁завяз	-11.8995
▁величи	-11.8997
обрать	-11.9002
тельные	-11.9003
▁волновали	-11.9004
▁ступенька	-11.9005
▁поступка	-11.9012
▁приступа	-11.9015
▁пункт	-11.9019
▁доказательство	-11.9021
личить	-11.9024
▁отталкива	-11.9025
▁внимательн	-11.9026
кру	-11.9037
▁шор	-11.9047
▁приема	-11.9053
▁необходимост	-11.9058
▁взято	-11.9063
▁плане	-11.9067
▁запаха	-11.9068
▁замужн	-11.9068
▁молот	-11.9096
▁попада	-11.9101
▁приглашени	-11.9102
▁ще	-11.9103
▁извест	-11.9103
бирает	-11.9117
▁син	-11.9121
▁модн	-11.9126
▁восстанов	-11.9133
ent	-11.9135
лета	-11.9138
▁потребова	-11.915
▁поджа	-11.916
▁услов	-11.9183
авшие	-11.9191
▁удара	-11.9192
ьную	-11.9194
▁согласн	-11.9201
▁покажет	-11.9203
▁оглядев	-11.9209
зор	-11.9214
говаривая	-11.9214
шиты	-11.9215
ate	-11.9228
▁забуд	-11.9233
▁просител	-11.9235
▁смут	-11.924
les	-11.9249
▁подразумевал	-11.9251
▁возбужден	-11.9258
n	-11.9263
▁зелены	-11.9263
точным	-11.9265
▁радует	-11.9271
иней	-11.9277
▁кушань	-11.9282
ri	-11.9286
кре	-11.9286
ведя	-11.9287
пору	-11.929
▁третьи	-11.929
▁опере	-11.9291
▁милле	-11.9297
▁классическ	-11.9302
▁чуд	-11.9305
▁ночны	-11.9309
▁препятстви	-11.931
вари	-11.9311
▁смущен	-11.9321
me	-11.9322
дов	-11.9326
▁принципа	-11.934
▁защищая	-11.9343
двинул	-11.9343
док	-11.9344
▁отдан	-11.935
▁заплат	-11.9369
▁вороча	-11.9375
▁стеклянн	-11.9381
▁извинять	-11.939
3–18	-11.9399
▁раскрыт	-11.9403
▁отсутстви	-11.9406
йском	-11.9408
ческое	-11.941
щу	-11.941
▁нечем	-11.9412
▁сближа	-11.9414
чиков	-11.9418
▁прекрасн	-11.9421
смотр	-11.9423
▁нахмури	-11.9424
▁двигала	-11.9433
знание	-11.9442
▁определенным	-11.9442
▁дрожащ	-11.9459
тировал	-11.946
▁проснувш	-11.9468
▁показывало	-11.947
▁вызыва	-11.9477
сыпать	-11.9478
▁произвол	-11.948
▁увеличи	-11.9482
▁неважны	-11.9487
▁начн	-11.9491
▁уве	-11.9491
▁закрывали	-11.95
▁сло	-11.9509
▁посеща	-11.952
▁потух	-11.952
▁развива	-11.9521
льность	-11.9529
▁освещал	-11.953
▁бронзовы	-11.953
скому	-11.953
телем	-11.9534
▁отрек	-11.9539
▁минутно	-11.9546
▁сочинени	-11.9548
▁прощени	-11.9548
▁углуб	-11.955
опыт	-11.955
▁элегантн	-11.9551
▁лом	-11.9557
▁некрасиво	-11.9561
ыч	-11.9561
▁передавал	-11.9562
▁поража	-11.9563
▁расскаж	-11.9566
фер	-11.9583
▁невозмож	-11.9585
▁исчез	-11.9587
спор	-11.9587
▁любопытств	-11.9592
стное	-11.9593
▁труде	-11.9594
▁внуш	-11.9595
▁подоб	-11.9598
мест	-11.9601
порт	-11.9604
▁дост	-11.9606
▁потн	-11.961
▁завязыва	-11.961
пора	-11.9612
▁любимом	-11.9615
нежно	-11.9616
▁посажен	-11.9623
▁сознав	-11.963
ворот	-11.963
▁приготовленн	-11.9634
▁отрыв	-11.9634
долгу	-11.9638
▁заблуждени	-11.964
вавшие	-11.9643
▁неделе	-11.9644
▁понимающи	-11.9649
▁уговорил	-11.9649
▁последстви	-11.9651
вавшая	-11.9651
▁уличен	-11.9657
нг	-11.9661
лер	-11.9663
берут	-11.9663
▁подходит	-11.9665
переписк	-11.9667
стары	-11.9667
▁раздражительно	-11.967
▁увлекал	-11.9671
▁пыльн	-11.9675
вольно	-11.9677
▁пес	-11.9677
душ	-11.9679
бог	-11.9681
vo	-11.9681
дело	-11.9682
▁пиш	-11.9684
ваши	-11.9684
разрыв	-11.9685
живая	-11.9686
немец	-11.9688
служил	-11.9691
мертво	-11.9692
широко	-11.9695
удивительно	-11.9696
считать	-11.9697
▁вере	-11.9697
▁принадлеж	-11.9699
вопросительно	-11.9701
теперь	-11.9705
▁поколеба	-11.9706
▁зависимост	-11.9708
ярко	-11.9711
одна	-11.9712
▁огн	-11.9712
старик	-11.9713
мундир	-11.9717
▁большинств	-11.9717
▁комеди	-11.9721
▁твер	-11.9732
▁пролет	-11.9733
▁трясущ	-11.9739
▁приезжа	-11.9746
▁представлен	-11.975
уры	-11.9752
плыв	-11.9755
щи	-11.9757
после	-11.9757
лена	-11.9757
друга	-11.9757
свеж	-11.9757
▁помина	-11.9759
▁влек	-11.9759
▁выпроста	-11.9759
▁несправедлив	-11.9764
▁поднимает	-11.9769
▁душист	-11.9771
▁духов	-11.9772
▁приближени	-11.9777
▁отбива	-11.9786
▁блестевши	-11.9787
▁возобновил	-11.9791
▁отворял	-11.9793
▁обруч	-11.9794
▁ревнова	-11.9796
бор	-11.98
▁загляну	-11.9803
чивая	-11.9805
яется	-11.9808
▁сердите	-11.9808
красная	-11.9809
▁завит	-11.981
▁любезн	-11.981
▁авторитет	-11.9812
▁современн	-11.9813
англи	-11.9816
▁бедно	-11.9818
дную	-11.9818
▁обрадовал	-11.9819
▁приноси	-11.9819
▁произведен	-11.9821
▁комическ	-11.9822
▁сжа	-11.9825
▁мужски	-11.9825
▁укоризн	-11.9826
▁несправедливы	-11.9826
▁социально	-11.9827
▁смуща	-11.9832
мешива	-11.9836
▁прижимал	-11.9839
плох	-11.9839
▁европ	-11.9849
▁повеселе	-11.9856
▁сужден	-11.9857
▁воспоминан	-11.9858
▁отход	-11.986
08	-11.9862
орке	-11.9865
▁суде	-11.9866
▁увлечен	-11.9866
▁задн	-11.9873
▁девя	-11.9873
▁позавтрака	-11.9873
▁совершила	-11.9876
▁зрелищ	-11.9876
▁ненатуральн	-11.9876
стающие	-11.9885
▁паровоз	-11.9888
▁нарядны	-11.9891
▁заболе	-11.9893
▁заезжа	-11.9893
але	-11.9893
▁заткну	-11.9899
▁заслуг	-11.99
▁любовны	-11.9901
▁выдел	-11.9901
▁поднявше	-11.9902
mme	-11.9902
перев	-11.9902
▁спустила	-11.9906
▁охлаждени	-11.9907
▁затея	-11.9908
▁придерживал	-11.991
▁сработа	-11.9915
▁перевертыва	-11.9919
чувствовал	-11.992
▁дарвин	-11.9922
▁сообразив	-11.9923
▁выжида	-11.9924
▁граждан	-11.9925
▁деликатн	-11.9926
▁заключен	-11.9926
▁прод	-11.9926
▁отправляю	-11.9929
▁страдальческ	-11.9931
▁посея	-11.9931
▁венец	-11.9931
ждав	-11.9932
▁пьяны	-11.9933
ицкого	-11.9935
▁выражен	-11.9936
религиозн	-11.9946
какая	-11.995
▁небесн	-11.995
▁изменен	-11.9951
ьные	-11.9953
▁приглашен	-11.9955
▁урожа	-11.9955
кладывали	-11.9961
▁гов	-11.9963
▁требовани	-11.9963
▁описан	-11.9965
▁чаш	-11.9969
▁счастливым	-11.9974
▁девуш	-11.9974
рус	-11.9974
▁стук	-11.9975
▁крив	-11.9976
▁изложен	-11.9977
▁несчасти	-11.9978
▁подтверди	-11.9979
▁любв	-11.9985
▁лежавше	-11.9987
▁откину	-11.9989
пахал	-11.9992
дачи	-11.9993
рем	-11.9993
▁здоровь	-11.9998
▁присев	-11.9999
▁сочувствую	-12
▁изменила	-12
▁серб	-12.0003
▁столкновени	-12.0004
▁исп	-12.0009
▁назван	-12.0011
▁тоненьки	-12.0014
▁дяде	-12.0021
живать	-12.0021
▁настаива	-12.0022
▁возмути	-12.0022
▁рассматрива	-12.0023
переложи	-12.0025
▁выезд	-12.0027
▁мужествен	-12.0028
ущие	-12.0029
▁рожден	-12.0031
▁повторен	-12.0032
▁отве	-12.0035
▁значил	-12.0036
бестолков	-12.0042
ованны	-12.0042
кончить	-12.0049
ставив	-12.0049
▁принужд	-12.005
покойнее	-12.0051
▁высказывани	-12.0055
остояние	-12.0055
▁происшедше	-12.0059
ждения	-12.0062
▁рюм	-12.0064
▁гляде	-12.0068
▁откажу	-12.0069
тно	-12.0069
▁крюч	-12.0071
▁вскочи	-12.0072
▁наступит	-12.0073
▁челюст	-12.0073
ень	-12.0077
медлен	-12.0077
▁ближни	-12.008
▁потерянно	-12.008
»3	-12.0081
▁прозв	-12.0081
▁попробова	-12.0081
▁поиск	-12.0084
реби	-12.0085
иваемы	-12.0088
▁ут	-12.0091
▁самоуверенно	-12.0092
храм	-12.0093
узн	-12.0094
▁заходит	-12.0094
следовательность	-12.0095
▁поклонник	-12.0095
возврат	-12.0095
▁последова	-12.0096
▁сжат	-12.0098
▁сходить	-12.0098
▁строй	-12.0099
▁наружность	-12.0099
▁гус	-12.01
▁человечеств	-12.01
▁кул	-12.0101
▁сочувствова	-12.0103
▁избави	-12.0104
▁ненавидя	-12.0105
▁промежут	-12.0107
▁объяснив	-12.0107
инском	-12.0107
▁увидим	-12.0108
▁справедливы	-12.0108
▁почем	-12.0111
▁медицин	-12.0115
▁выступ	-12.0116
▁спенсер	-12.0118
▁прижав	-12.0118
молоду	-12.0118
тельства	-12.0119
трещал	-12.0124
гибели	-12.0126
▁робост	-12.0126
▁тих	-12.0127
▁наибол	-12.0129
▁вольнодум	-12.013
разрез	-12.0132
спешно	-12.0134
▁богослов	-12.0135
▁потолк	-12.0135
клонивши	-12.0135
тупил	-12.0136
тывал	-12.0137
▁огур	-12.0137
енден	-12.0141
трачен	-12.0141
бург	-12.0142
университетски	-12.0143
▁постукива	-12.0144
кормили	-12.0144
ясности	-12.0145
▁слег	-12.0145
равне	-12.0146
▁оторва	-12.0148
▁соединит	-12.0148
▁монах	-12.0149
▁артел	-12.0149
▁значительны	-12.0149
напрасн	-12.015
необычайн	-12.0153
▁выдающи	-12.0154
наружи	-12.0154
ржи	-12.0154
▁избе	-12.0155
ъехав	-12.0155
шептал	-12.0156
ревел	-12.0157
облада	-12.0157
удовлетворен	-12.0157
кошенным	-12.0157
▁атак	-12.0158
▁сложила	-12.0159
▁рубаш	-12.0159
▁кудря	-12.0159
▁клубно	-12.016
дневн	-12.016
▁артиллери	-12.0161
▁человеч	-12.0162
▁надобно	-12.0162
вяжет	-12.0162
ll	-12.0163
▁поощр	-12.0163
▁кварт	-12.0164
▁надпис	-12.0164
▁попробу	-12.0164
ant	-12.0164
прерафаэлит	-12.0164
▁ami	-12.0165
▁традици	-12.0165
▁ракит	-12.0165
▁симпати	-12.0165
▁рафаэл	-12.0165
▁лоснящ	-12.0165
leurs	-12.0165
овскоренановско	-12.0165
▁антокольск	-12.0165
▁башкир	-12.0165
▁дразня	-12.0165
▁консерв	-12.0165
▁ломберн	-12.0165
▁соблазн	-12.0165
▁соскучи	-12.0165
▁стеарин	-12.0165
▁усумни	-12.0165
eletons	-12.0165
ellesoeur	-12.0165
беспрепятственно	-12.0165
гороженн	-12.0165
летопис	-12.0165
отступно	-12.0165
пиетизм	-12.0165
спасенный	-12.0165
церковнослужител	-12.0165
ысокопоставленны	-12.0165
▁автомедон	-12.0165
▁административно	-12.0165
▁аксаков	-12.0165
▁астроном	-12.0165
▁афиш	-12.0165
▁башлык	-12.0165
▁безжалостн	-12.0165
▁безукоризненн	-12.0165
▁бесполезны	-12.0165
▁беспричинно	-12.0165
▁библиотек	-12.0165
▁благоустроенно	-12.0165
▁буржуазн	-12.0165
▁буслаева	-12.0165
▁висбаден	-12.0165
▁владимир	-12.0165
▁внезапно	-12.0165
▁возмуща	-12.0165
▁вознагражден	-12.0165
▁восхитительн	-12.0165
▁вспышк	-12.0165
▁выгнуты	-12.0165
▁генераладъютант	-12.0165
▁гибким	-12.0165
▁гибко	-12.0165
▁дармштадт	-12.0165
▁доверчиво	-12.0165
▁дразнил	-12.0165
▁дуняш	-12.0165
▁дурацко	-12.0165
▁замучал	-12.0165
▁застучал	-12.0165
▁затруднительны	-12.0165
▁изобража	-12.0165
▁изуродован	-12.0165
▁каламбур	-12.0165
▁калужско	-12.0165
▁камерюнкер	-12.0165
▁капельдинер	-12.0165
▁картошк	-12.0165
▁катехизис	-12.0165
▁кедров	-12.0165
▁климат	-12.0165
▁колясочк	-12.0165
▁комисарова	-12.0165
▁коротенько	-12.0165
▁кочкарник	-12.0165
▁лозин	-12.0165
▁мальчише	-12.0165
▁министерск	-12.0165
▁многочисленны	-12.0165
▁морожен	-12.0165
▁мудрец	-12.0165
▁нарушил	-12.0165
▁невежеств	-12.0165
▁незаняты	-12.0165
▁неприязненно	-12.0165
▁неразгаданн	-12.0165
▁неудобн	-12.0165
▁нижегородск	-12.0165
▁обренович	-12.0165
▁обруши	-12.0165
▁обстриг	-12.0165
▁обсуди	-12.0165
▁обсуждени	-12.0165
▁окаменел	-12.0165
▁окончани	-12.0165
▁окошк	-12.0165
▁определяющ	-12.0165
▁опроверга	-12.0165
▁орошении	-12.0165
▁оскверн	-12.0165
▁отбрасыва	-12.0165
▁отвергну	-12.0165
▁отступлени	-12.0165
▁официальны	-12.0165
▁оффенбах	-12.0165
▁охладе	-12.0165
▁партнер	-12.0165
▁первобытн	-12.0165
▁пехот	-12.0165
▁пиетистк	-12.0165
▁подчеркива	-12.0165
▁премудры	-12.0165
▁преподавание	-12.0165
▁претензи	-12.0165
▁приготовля	-12.0165
▁пришлет	-12.0165
▁промышленност	-12.0165
▁протопоп	-12.0165
▁прыжок	-12.0165
▁пюпитр	-12.0165
▁разноцветны	-12.0165
▁распечатал	-12.0165
▁распоряжусь	-12.0165
▁редактор	-12.0165
▁реценз	-12.0165
▁римлян	-12.0165
▁руководящ	-12.0165
▁самоуверенны	-12.0165
▁сборчат	-12.0165
▁скоропостижн	-12.0165
▁сморщенно	-12.0165
▁сокровище	-12.0165
▁сопровожд	-12.0165
▁спарж	-12.0165
▁стаскивал	-12.0165
▁ступиц	-12.0165
▁судорожно	-12.0165
▁тендер	-12.0165
▁термин	-12.0165
▁тревожил	-12.0165
▁тревожит	-12.0165
▁тривиально	-12.0165
▁убытк	-12.0165
▁увещани	-12.0165
▁удовлетвори	-12.0165
▁фамильярно	-12.0165
▁фленсбургские	-12.0165
▁четырнадцат	-12.0165
▁шифоньерк	-12.0165
▁шулер	-12.0165
▁экзамен	-12.0165
▁эстетическ	-12.0165
▁этнографическ	-12.0165
▁этюд	-12.0165
▁эффект	-12.0165
грыз	-12.0165
опримечательност	-12.0165
плодотворн	-12.0165
▁благовидн	-12.0165
▁болтовн	-12.0165
▁вешалк	-12.0165
▁врезывал	-12.0165
▁избавлен	-12.0165
▁конькобеж	-12.0165
▁крапив	-12.0165
▁кутеж	-12.0165
▁непреодолим	-12.0165
▁опоры	-12.0165
▁отпечат	-12.0165
▁ошибочно	-12.0165
▁поздравлени	-12.0165
▁покачивал	-12.0165
▁призрак	-12.0165
▁просвещенн	-12.0165
▁развалина	-12.0165
▁рассчита	-12.0165
▁рюрик	-12.0165
▁симпатична	-12.0165
▁творц	-12.0165
▁творчеств	-12.0165
▁тренер	-12.0165
▁удостоиваю	-12.0165
▁фабрик	-12.0165
▁шурша	-12.0165
▁щепетил	-12.0165
imm	-12.0165
итикоэкономическ	-12.0165
стежка	-12.0165
▁1819–1	-12.0165
▁заброшен	-12.0165
▁замолви	-12.0165
▁комиссионер	-12.0165
▁консервативн	-12.0165
▁концепци	-12.0165
▁неважно	-12.0165
▁николеньк	-12.0165
▁осмеян	-12.0165
▁переполнял	-12.0165
▁просительниц	-12.0165
▁революционер	-12.0165
▁стремлени	-12.0165
▁цивилизация	-12.0165
▁чепц	-12.0165
созерцани	-12.0165
▁бейст	-12.0165
▁досуг	-12.0165
▁осмели	-12.0165
▁штоф	-12.0165
▁бирю	-12.0165
▁гримм	-12.0165
▁ермил	-12.0165
▁затопта	-12.0165
▁кириллыч	-12.0165
▁набожн	-12.0165
▁ослепл	-12.0165
▁ошеломлен	-12.0165
▁предоставь	-12.0165
▁разъеха	-12.0165
▁самообладани	-12.0165
▁фарфор	-12.0165
▁derni	-12.0165
▁дмитриевн	-12.0165
▁сомнительны	-12.0165
▁черногори	-12.0165
капуйское	-12.0165
▁девятнадцать	-12.0165
▁ребяч	-12.0165
▁бодался	-12.0165
▁дыхань	-12.0165
▁концесси	-12.0165
▁ослепи	-12.0165
▁певц	-12.0165
▁тулуп	-12.0165
▁1808–18	-12.0165
▁дремал	-12.0165
▁зяб	-12.0165
▁неряш	-12.0165
▁поразивши	-12.0165
▁прячников	-12.0165
▁птичк	-12.0165
▁чемодан	-12.0165
▁весенни	-12.0165
▁дмитриевич	-12.0165
▁снытк	-12.0165
пепельниц	-12.0165
▁мичели	-12.0165
▁аттическ	-12.0165
▁подпиравши	-12.0165
▁sorte	-12.0165
▁кристаллиз	-12.0165
▁поборол	-12.0165
▁прокос	-12.0165
▁сустав	-12.0165
▁ходьб	-12.0165
▁заманива	-12.0165
▁лычк	-12.0165
пире	-12.0165
▁раздавил	-12.0165
▁хаос	-12.0165
лаухт	-12.0165
▁весенне	-12.0165
▁специалист	-12.0165
▁перечитыва	-12.0165
▁колонн	-12.0165
лассалевско	-12.0165
▁пронес	-12.0165
▁стихотвор	-12.0165
▁поддакива	-12.0165
▁легион	-12.0165
▁пьес	-12.0165
▁гремел	-12.0165
▁дерга	-12.0165
▁воскликнул	-12.0165
▁вертляв	-12.0165
▁подробны	-12.0165
▁порадова	-12.0165
▁телесн	-12.0165
enn	-12.0165
ourn	-12.0165
▁mieux	-12.0165
▁утонул	-12.0165
▁упря	-12.0165
▁антракт	-12.0165
▁турецк	-12.0165
▁проголода	-12.0165
▁застегну	-12.0165
▁озим	-12.0165
▁прохор	-12.0165
▁количеств	-12.0165
▁михайлыч	-12.0165
▁пятидесятилетн	-12.0165
сборник	-12.0165
▁укуси	-12.0165
▁подкатил	-12.0165
▁физиологическим	-12.0165
▁оберк	-12.0165
▁окружающе	-12.0165
▁тетушк	-12.0165
▁ипат	-12.0165
▁наилучше	-12.0165
▁ist	-12.0165
▁традиционн	-12.0165
▁исчезает	-12.0165
носто	-12.0166
▁маркиз	-12.0166
▁повелительны	-12.0166
▁ребра	-12.0166
▁пульс	-12.0166
▁потекл	-12.0166
▁китай	-12.0166
▁предположи	-12.0166
▁карточн	-12.0166
▁поведет	-12.0166
▁текущи	-12.0166
канчивал	-12.0166
▁достижени	-12.0166
▁банкетк	-12.0166
▁проливно	-12.0166
▁изнежен	-12.0166
▁перерва	-12.0166
▁движущи	-12.0166
▁перетянут	-12.0166
▁страница	-12.0166
▁пилюля	-12.0166
arr	-12.0166
▁бедствия	-12.0166
▁штаб	-12.0166
▁размягчен	-12.0166
▁татар	-12.0166
▁amis	-12.0166
▁куртк	-12.0166
ules	-12.0166
▁косогор	-12.0166
▁раскину	-12.0166
7–19	-12.0166
рискова	-12.0166
▁завтрашне	-12.0166
делывал	-12.0166
▁вертящи	-12.0166
▁кореньями	-12.0166
▁нависши	-12.0166
▁национальн	-12.0166
▁застилал	-12.0166
плачивал	-12.0166
▁прошлогодни	-12.0166
▁задева	-12.0166
рента	-12.0166
▁рабства	-12.0166
▁фаст	-12.0166
▁жаровн	-12.0166
вежливост	-12.0166
помилос	-12.0166
▁щетк	-12.0166
▁басня	-12.0166
▁разравнива	-12.0166
▁освободил	-12.0166
▁лощин	-12.0166
группировал	-12.0166
▁трати	-12.0166
▁высохл	-12.0167
▁шерстяно	-12.0167
▁тенор	-12.0167
▁надписях	-12.0167
▁свинств	-12.0167
▁оперетт	-12.0167
▁пьяница	-12.0167
▁сторублев	-12.0167
▁кухн	-12.0167
▁отошли	-12.0167
▁налади	-12.0167
▁променял	-12.0167
ружей	-12.0167
▁dra	-12.0167
▁перемещ	-12.0167
▁рысак	-12.0167
▁премил	-12.0167
▁dess	-12.0167
▁неглупы	-12.0167
▁закутан	-12.0167
▁мерзко	-12.0167
▁поместил	-12.0167
▁спирит	-12.0167
пущу	-12.0167
▁раздавал	-12.0167
▁служени	-12.0168
▁запущен	-12.0168
▁cons	-12.0168
▁огород	-12.0168
▁перелом	-12.0168
▁соколов	-12.0168
атывая	-12.0168
▁раздирал	-12.0168
▁подвязанны	-12.0168
▁выбивш	-12.0168
▁мимолетн	-12.0168
▁веневск	-12.0168
▁пятер	-12.0168
▁смягчен	-12.0168
▁расплака	-12.0168
▁покрывш	-12.0168
▁девер	-12.0168
▁предосудительн	-12.0168
загорелым	-12.0168
▁щегольств	-12.0168
▁глянь	-12.0168
▁причесыва	-12.0168
▁припасов	-12.0168
▁скачущи	-12.0168
▁полоумн	-12.0168
▁бантик	-12.0168
▁трогательно	-12.0168
▁метод	-12.0169
▁отлуч	-12.0169
▁войтов	-12.0169
▁гроб	-12.0169
▁затаенно	-12.0169
▁постыл	-12.0169
▁ручей	-12.0169
▁выравнива	-12.0169
арай	-12.0169
▁гомер	-12.0169
▁стиле	-12.0169
ation	-12.0169
▁ушиб	-12.0169
▁тельц	-12.0169
▁отстаива	-12.0169
▁разгорал	-12.0169
▁сядем	-12.0169
▁son	-12.0169
▁наяву	-12.0169
▁коммунисто	-12.0169
▁классическое	-12.017
▁шш	-12.017
▁враща	-12.017
научны	-12.017
▁экономически	-12.017
▁выдач	-12.017
▁cos	-12.017
▁заплатанн	-12.017
▁противодействие	-12.017
▁свинь	-12.017
▁скверный	-12.017
▁ликуй	-12.017
▁различа	-12.017
▁перекрикива	-12.017
▁заинтересован	-12.017
емян	-12.017
▁покупател	-12.0171
▁град	-12.0171
▁ослабел	-12.0171
▁оставленным	-12.0171
▁лгу	-12.0171
▁диванчик	-12.0171
▁содрогнул	-12.0171
▁косьб	-12.0171
▁мяки	-12.0171
▁налиты	-12.0171
▁склоненн	-12.0172
▁непрочн	-12.0172
▁дарован	-12.0172
▁лимон	-12.0172
▁медлил	-12.0172
▁сложена	-12.0173
▁покаяни	-12.0173
▁участник	-12.0173
▁мерз	-12.0173
▁испан	-12.0173
rte	-12.0173
▁четверг	-12.0173
▁туск	-12.0173
▁порабо	-12.0173
▁поверял	-12.0173
▁лечил	-12.0173
▁помирились	-12.0173
▁полдни	-12.0173
▁порыва	-12.0173
▁вызывающе	-12.0174
▁пройдем	-12.0174
▁турки	-12.0174
▁окун	-12.0174
рыжеват	-12.0174
▁зажжен	-12.0174
terre	-12.0175
перескочил	-12.0175
▁превосходств	-12.0175
енера	-12.0175
▁56	-12.0175
▁гир	-12.0175
▁актер	-12.0175
▁лейк	-12.0175
▁обзор	-12.0175
▁осмотр	-12.0175
▁разрезны	-12.0176
твердил	-12.0176
▁замахал	-12.0176
▁захватывал	-12.0176
▁крепостник	-12.0176
▁негодны	-12.0176
▁унижать	-12.0176
▁узка	-12.0176
▁жали	-12.0176
▁допускает	-12.0176
▁откровение	-12.0176
▁подвергать	-12.0176
▁служан	-12.0176
▁смягчающе	-12.0177
▁обиженны	-12.0177
▁декабр	-12.0177
▁флигель	-12.0177
▁волостны	-12.0177
▁казарм	-12.0177
▁печень	-12.0177
лубок	-12.0177
▁телеграфировать	-12.0177
магн	-12.0178
▁таска	-12.0178
▁будущие	-12.0178
▁мотив	-12.0178
▁оскорбивш	-12.0178
▁контр	-12.0179
▁проблем	-12.0179
▁умиленны	-12.0179
tin	-12.0179
▁молочн	-12.0179
▁ковра	-12.0179
▁шика	-12.018
▁упругим	-12.018
▁ограничива	-12.018
▁прибор	-12.018
▁ехавши	-12.0181
▁юри	-12.0181
▁специально	-12.0181
▁устроится	-12.0181
▁пудр	-12.0181
▁фри	-12.0181
▁поможе	-12.0181
▁торгова	-12.0181
▁чувственн	-12.0181
▁согнув	-12.0182
ишить	-12.0182
▁240	-12.0182
▁плит	-12.0182
рассуд	-12.0183
▁мостик	-12.0183
▁соболезнование	-12.0183
▁139	-12.0183
▁доеда	-12.0183
ткнули	-12.0183
▁лишает	-12.0183
▁подкупи	-12.0184
▁надень	-12.0184
▁усиленно	-12.0184
▁200	-12.0184
клик	-12.0184
▁перелетел	-12.0185
▁символическ	-12.0185
▁жалует	-12.0185
архи	-12.0185
▁перечисл	-12.0185
▁классик	-12.0185
▁записок	-12.0186
▁сними	-12.0186
▁пережито	-12.0186
▁120	-12.0186
летуч	-12.0187
▁радовать	-12.0187
▁банкир	-12.0187
▁замина	-12.0187
▁рима	-12.0187
▁перескакива	-12.0187
▁забросил	-12.0187
▁помиривши	-12.0188
▁державшую	-12.0188
▁осиновы	-12.0188
▁злоупотреблени	-12.0188
▁фан	-12.0188
декламировал	-12.0188
▁щечк	-12.0189
изменным	-12.019
▁пробудет	-12.019
▁неапол	-12.019
▁постла	-12.0191
▁ссориться	-12.0191
▁сорвал	-12.0191
▁худым	-12.0191
▁порохов	-12.0192
▁улик	-12.0192
▁собакам	-12.0192
▁отодвига	-12.0192
▁заговаривал	-12.0192
тским	-12.0193
▁смотревшим	-12.0193
▁огурц	-12.0193
▁бред	-12.0193
▁встретивши	-12.0193
▁убеж	-12.0193
▁ноздрям	-12.0193
▁арми	-12.0194
▁подсаживая	-12.0194
▁засидел	-12.0194
▁заслоня	-12.0194
бивший	-12.0194
▁полемику	-12.0195
▁хрипя	-12.0196
▁тресну	-12.0196
▁капал	-12.0196
▁вылез	-12.0196
▁разлучать	-12.0196
mes	-12.0197
▁пятниц	-12.0198
▁наказань	-12.0198
▁стройно	-12.0199
▁туле	-12.0199
▁сумк	-12.02
▁присутству	-12.02
can	-12.02
▁одобрил	-12.0201
▁просвет	-12.0201
▁пощупал	-12.0201
▁выпуклым	-12.0203
▁готье	-12.0203
▁пестро	-12.0203
▁хлопа	-12.0204
▁затевал	-12.0204
▁перевал	-12.0204
▁форточк	-12.0204
▁верхово	-12.0204
▁черногорцы	-12.0204
▁отречени	-12.0205
▁тупо	-12.0205
▁смешил	-12.0205
▁жарки	-12.0206
▁знатны	-12.0206
▁опускал	-12.0207
lais	-12.0207
▁забавно	-12.0207
▁налега	-12.0207
▁возникал	-12.0207
▁комья	-12.0207
▁стрелк	-12.0207
▁ростовщик	-12.0208
▁преданност	-12.0208
▁управ	-12.0208
▁лесков	-12.0208
▁свидетельство	-12.0208
▁совещани	-12.0208
публиковал	-12.0208
▁выдержал	-12.0209
▁ночева	-12.0209
▁назначает	-12.0209
▁затихал	-12.021
▁ножичк	-12.021
▁бросал	-12.021
▁общине	-12.021
▁запутанно	-12.021
▁заревел	-12.021
▁ничье	-12.021
▁ваньк	-12.0211
▁влады	-12.0211
▁летит	-12.0212
▁дрожание	-12.0212
▁императорско	-12.0213
▁туркам	-12.0213
▁супружеск	-12.0213
▁убеждениями	-12.0213
▁шатки	-12.0213
▁повалил	-12.0214
▁велите	-12.0214
▁применени	-12.0214
▁просьбы	-12.0214
▁фартук	-12.0214
▁медицински	-12.0216
▁муз	-12.0216
▁укладывается	-12.0216
поили	-12.0216
влиятельн	-12.0216
▁кривин	-12.0217
▁исписа	-12.0217
▁неинтересно	-12.0217
▁прихо	-12.0218
▁вегикуле	-12.0218
▁упира	-12.0218
▁попр	-12.0218
▁ненужно	-12.0219
▁торжествовал	-12.0219
▁адвокатура	-12.0219
▁числа	-12.0219
▁образц	-12.022
▁уступк	-12.022
▁убирал	-12.022
▁горячность	-12.0221
▁пелен	-12.0221
никак	-12.0221
▁ночевать	-12.0221
▁занимавших	-12.0222
▁божественны	-12.0222
▁пью	-12.0224
▁барышня	-12.0225
▁завес	-12.0225
▁отмахива	-12.0226
▁посол	-12.0226
▁моря	-12.0226
▁пажеском	-12.0226
▁высчитыва	-12.0227
▁неземн	-12.0227
▁банков	-12.0228
▁конс	-12.0228
▁замычал	-12.0228
▁почтени	-12.0228
▁преступника	-12.0229
▁сблизить	-12.023
▁скверно	-12.023
▁подсев	-12.023
казала	-12.0231
▁шерсть	-12.0231
▁поравнявши	-12.0232
▁колодц	-12.0232
старел	-12.0233
▁приложил	-12.0234
▁видневши	-12.0234
▁раздева	-12.0235
▁пелеринк	-12.0235
▁опозорен	-12.0236
▁исчезну	-12.0236
▁унижающи	-12.0237
▁самоуверенность	-12.0238
▁хлынул	-12.0238
▁безвыходность	-12.0239
▁медал	-12.024
▁липов	-12.024
▁ведени	-12.024
▁рукавчик	-12.024
▁ковров	-12.024
▁ладонь	-12.0241
▁отчаива	-12.0242
▁владел	-12.0242
▁прощальны	-12.0242
▁покрывал	-12.0243
▁старчески	-12.0244
▁находившее	-12.0245
▁происходивше	-12.0245
▁достигну	-12.0246
решимость	-12.0247
▁достанет	-12.0248
▁вспыхивал	-12.0248
▁колечк	-12.0248
▁надвига	-12.0248
▁средневеково	-12.0248
▁дверц	-12.0249
▁рысь	-12.0249
▁высказан	-12.0249
▁качающе	-12.0249
▁подобрал	-12.025
▁распространенны	-12.025
▁расстегну	-12.0251
▁киев	-12.0252
▁служаще	-12.0252
▁помня	-12.0252
▁делавших	-12.0253
▁ступеням	-12.0253
▁гадост	-12.0253
▁прощание	-12.0253
▁рождень	-12.0253
▁шестидесяти	-12.0254
▁воспитател	-12.0254
ченным	-12.0257
▁вздыхал	-12.0259
▁встряхива	-12.0259
▁переделк	-12.026
▁участвовал	-12.0261
▁уйду	-12.0261
ники	-12.0261
▁вальдшнепы	-12.0262
▁успеет	-12.0263
▁ощущал	-12.0263
▁поздравил	-12.0263
▁лиловым	-12.0264
▁дупелины	-12.0264
вздумал	-12.0264
держим	-12.0264
▁произносил	-12.0264
▁расслышал	-12.0264
▁чутки	-12.0265
▁взрослы	-12.0266
▁запрят	-12.0269
▁неприложимы	-12.027
хозяйственн	-12.027
тянули	-12.0271
опустивши	-12.0271
▁слышанн	-12.0271
▁слушател	-12.0271
чество	-12.0271
идеалист	-12.0272
»34	-12.0272
▁завел	-12.0272
▁явно	-12.0273
▁поправишь	-12.0273
вывая	-12.0273
▁замет	-12.0273
▁ангелом	-12.0274
▁острот	-12.0274
▁просидел	-12.0275
▁объяснивш	-12.0275
▁слушани	-12.0276
▁наступ	-12.0277
▁каплям	-12.0277
▁изгиба	-12.0279
верующий	-12.0279
rand	-12.0279
▁нитк	-12.0279
▁взволнованным	-12.0282
▁ухаживань	-12.0283
0–189	-12.0283
▁роко	-12.0283
▁блаженны	-12.0283
▁внук	-12.0284
▁опомина	-12.0284
▁брю	-12.0285
кидывая	-12.0285
▁совершал	-12.0286
▁созрел	-12.0287
тащил	-12.0287
▁привязал	-12.0288
жалуюсь	-12.0289
▁бью	-12.0289
▁бестолково	-12.029
179	-12.029
▁биографи	-12.0291
▁мильгаузен	-12.0291
▁происхождени	-12.0291
▁хозяйнича	-12.0291
▁наследственно	-12.0291
▁избытк	-12.0291
▁скромно	-12.0292
▁организм	-12.0292
▁купе	-12.0293
▁наскучил	-12.0294
▁мота	-12.0294
▁вагнеровско	-12.0295
▁нормальн	-12.0295
▁полученно	-12.0296
▁порывисты	-12.0296
▁заметк	-12.0297
▁сочета	-12.0298
▁плутовски	-12.0299
▁176	-12.0299
▁174	-12.0299
▁180	-12.0299
▁173	-12.03
▁насторожи	-12.03
▁ускори	-12.03
▁плот	-12.03
▁придир	-12.0302
▁выдают	-12.0302
▁вычисл	-12.0302
▁водок	-12.0302
▁пятилетн	-12.0303
▁прусско	-12.0304
▁щелк	-12.0304
171	-12.0304
▁оконченны	-12.0305
▁пошатнул	-12.0305
▁ненавидящ	-12.0306
▁хлопотлив	-12.0306
▁сыты	-12.0306
▁просиявше	-12.0307
▁доставил	-12.0307
▁растерянно	-12.0307
▁ездишь	-12.0307
▁спута	-12.0308
▁подвинула	-12.0308
▁рассказы	-12.0308
▁принесенны	-12.0309
▁тенист	-12.031
▁свободным	-12.0311
▁прозрачны	-12.0313
жения	-12.0315
▁выписыва	-12.0316
▁петровной	-12.0316
вергнуть	-12.0317
▁потрепа	-12.0318
▁употреблени	-12.0319
▁перепута	-12.032
▁решивш	-12.0321
▁желч	-12.0321
щать	-12.0321
▁умоляющи	-12.0321
теля	-12.0324
▁молчит	-12.0327
▁рвала	-12.0327
▁займи	-12.0329
строение	-12.0329
▁откажут	-12.0329
▁положительны	-12.0329
раке	-12.0331
▁плешиве	-12.0331
сверстни	-12.0332
снова	-12.0333
▁отосла	-12.0334
▁белел	-12.0335
▁упадка	-12.0335
▁хомякова	-12.0337
▁чувствительност	-12.0337
▁одинаковы	-12.0337
▁успокоенным	-12.0337
▁стремя	-12.0338
▁путешестви	-12.0341
▁ост	-12.0342
▁способностям	-12.0343
мение	-12.0344
ученье	-12.0346
▁содержанием	-12.0346
▁блестящем	-12.0347
▁решать	-12.0347
▁скрипя	-12.0349
▁куриц	-12.035
▁белокурым	-12.0351
▁нападал	-12.0352
▁власьевн	-12.0353
▁дружеско	-12.0353
▁точен	-12.0353
▁марк	-12.0357
▁потушил	-12.0358
▁елен	-12.0359
▁умоляюще	-12.036
▁тяготил	-12.036
▁нашедше	-12.0362
▁махну	-12.0365
▁привыкши	-12.0368
▁пробу	-12.0369
ваше	-12.0369
▁увеселительны	-12.0369
▁вторая	-12.0369
▁постоялом	-12.0372
▁переодева	-12.0372
▁поглади	-12.0374
▁смущенно	-12.0375
▁встречавшим	-12.0375
▁разлуч	-12.0375
▁комедия	-12.0376
валены	-12.0376
▁вилк	-12.0376
уф	-12.0377
▁поско	-12.0378
▁петровым	-12.0379
▁прошедшим	-12.0379
▁вмешива	-12.0379
▁лени	-12.038
▁отражение	-12.0381
станци	-12.0382
▁отклонила	-12.0383
▁крючк	-12.0385
▁ад	-12.0385
▁изменени	-12.0386
▁развил	-12.0386
пахали	-12.0387
▁намекну	-12.0388
ille	-12.0388
▁повязанны	-12.039
▁господь	-12.0391
▁rose	-12.0391
▁купанье	-12.0391
▁неизбежны	-12.0391
▁пахну	-12.0394
▁лишаю	-12.0394
▁записыва	-12.0394
живио	-12.0396
»29	-12.0397
ация	-12.0398
▁оконченно	-12.0398
▁глух	-12.04
▁пьянств	-12.04
▁стуча	-12.0402
▁незнание	-12.0402
вения	-12.0403
▁сложенно	-12.0404
воротив	-12.0405
▁величин	-12.0406
пер	-12.0408
улочк	-12.0409
▁сестрин	-12.0413
тность	-12.0413
▁избранном	-12.0414
мерк	-12.0415
▁вынесенн	-12.0416
151	-12.0416
еньким	-12.0417
▁корова	-12.0419
▁пробуд	-12.0419
▁соломе	-12.0419
пели	-12.0422
▁убедительны	-12.0422
▁непро	-12.0423
нским	-12.0424
▁социалистически	-12.0425
▁скинул	-12.0428
слушайте	-12.0429
▁потерявше	-12.0431
стическо	-12.0432
▁почерневши	-12.0434
▁сконфуженно	-12.0434
▁слага	-12.0434
▁сослови	-12.0438
▁гимназист	-12.0438
душечк	-12.0441
зь	-12.0442
▁заведения	-12.0442
▁пит	-12.0443
▁зрелища	-12.0446
▁фо	-12.0448
▁совпада	-12.0449
▁паровоза	-12.0449
▁ослабева	-12.0451
▁занесенн	-12.0453
▁чес	-12.0456
▁сукн	-12.0457
ыня	-12.0458
▁расстрои	-12.0458
▁совершающе	-12.0461
▁позавтракал	-12.0465
▁пахучи	-12.0466
▁веселили	-12.0467
▁поднесл	-12.0467
▁неспособны	-12.0467
лишняя	-12.0469
▁инстинктивно	-12.0471
▁подарки	-12.0471
▁размен	-12.0473
▁добросовестн	-12.0473
▁разъяснил	-12.0474
▁ротик	-12.0476
▁обруча	-12.0477
▁отплати	-12.0477
▁тряск	-12.0479
▁отцеп	-12.0481
▁медны	-12.0481
▁кажущ	-12.0482
▁лапт	-12.0482
▁камня	-12.0482
▁помилуйте	-12.0483
сказать	-12.0484
▁обви	-12.0485
▁повеселел	-12.0486
▁складно	-12.0486
▁поэтически	-12.0487
▁найденны	-12.0488
▁противоречил	-12.0491
▁объявлени	-12.0492
▁смирны	-12.0493
▁наемны	-12.0493
▁едином	-12.0493
▁гу	-12.0497
овод	-12.0499
▁увязан	-12.0502
▁занимавшем	-12.0503
нявши	-12.0505
итель	-12.0506
▁медиум	-12.0506
▁уверенност	-12.0507
льберт	-12.0507
▁пусты	-12.0512
▁буфф	-12.0513
▁ударение	-12.0514
▁честность	-12.0517
▁пристыженны	-12.0518
▁присяжны	-12.0522
▁неподвижны	-12.0523
▁равня	-12.0524
▁роскошно	-12.0524
▁безвыходн	-12.0524
▁заразительны	-12.0527
▁конф	-12.0528
▁надеждой	-12.0528
▁чудно	-12.0528
мот	-12.0528
▁резны	-12.0529
▁шали	-12.053
▁родственны	-12.0531
▁принце	-12.0534
▁отталкивал	-12.0535
▁портит	-12.0537
▁верхне	-12.0538
▁усыпанн	-12.0541
▁обнимал	-12.0541
бли	-12.0542
▁советовать	-12.0542
нспект	-12.0543
▁волшебн	-12.0546
▁забира	-12.0547
▁зары	-12.0548
▁мучаешь	-12.0548
▁толкнул	-12.0549
▁нечистот	-12.055
▁крошечны	-12.0551
наслаждени	-12.0554
▁спускавши	-12.0558
▁метел	-12.0559
мства	-12.056
риме	-12.0563
▁продолжали	-12.0563
▁могущи	-12.0563
▁уничтожени	-12.0564
▁кредита	-12.0564
▁землевладельца	-12.0566
▁губит	-12.0568
▁раздет	-12.057
▁побужда	-12.0571
▁плотны	-12.0571
▁качал	-12.0573
▁бледне	-12.0575
▁довел	-12.0576
дельн	-12.0577
▁слышит	-12.0579
▁внесен	-12.058
▁бесчисленны	-12.0583
▁поп	-12.0584
▁перебирал	-12.0585
▁рассчитывал	-12.0585
▁открывавше	-12.0585
▁алешк	-12.0586
▁потерянны	-12.0588
строить	-12.059
терла	-12.059
▁лежавш	-12.0591
▁расстраивал	-12.0592
▁исповеду	-12.0592
▁разгоревши	-12.0593
судим	-12.0594
▁ноздре	-12.0594
▁публике	-12.0599
▁чудесно	-12.06
▁жестокость	-12.0601
▁залит	-12.0602
ляла	-12.0603
▁сбил	-12.0604
раб	-12.0605
▁исключа	-12.0606
озор	-12.0608
лины	-12.0608
▁страдающи	-12.0609
▁разобран	-12.0609
▁моно	-12.0612
▁попадал	-12.0613
▁стеснени	-12.0616
▁развязност	-12.0616
▁несправедливым	-12.0619
▁85	-12.062
▁полученны	-12.0624
готовит	-12.0624
▁мат	-12.0625
▁срам	-12.0626
▁страданиями	-12.0627
▁радостный	-12.0627
▁перекрестив	-12.0629
▁покорность	-12.063
▁наживать	-12.0631
132	-12.0631
▁мягкость	-12.0631
▁натуральны	-12.0635
▁привязать	-12.0635
лев	-12.064
▁выезжал	-12.0641
▁описания	-12.0642
▁подставил	-12.0644
▁худш	-12.0645
сидев	-12.0648
▁расстройство	-12.0649
▁учтивость	-12.0651
▁призва	-12.0651
▁просторно	-12.0652
▁трясуще	-12.0658
▁направленны	-12.0658
▁разгул	-12.0664
▁погоди	-12.0665
▁внуша	-12.067
▁несчастный	-12.067
ческий	-12.0672
▁благословен	-12.0675
▁напряженным	-12.0675
▁годам	-12.0685
▁домов	-12.0685
▁услуга	-12.0686
ras	-12.0688
держиваемо	-12.0696
▁провожал	-12.0698
кладывается	-12.07
▁офицером	-12.0702
▁подс	-12.0703
▁повторявши	-12.0703
▁грубост	-12.0704
▁страдающе	-12.0704
▁поправлял	-12.0706
▁чуждым	-12.0706
рует	-12.0708
▁признани	-12.0709
▁непохоже	-12.0712
чески	-12.0713
▁наполнял	-12.0713
ированны	-12.0714
▁научил	-12.0717
▁донск	-12.0718
дурны	-12.072
auc	-12.0731
▁вскину	-12.0736
▁порци	-12.0738
▁древни	-12.074
▁торжествующе	-12.074
▁утвердительны	-12.0748
▁кисейно	-12.0751
▁замя	-12.0752
▁катает	-12.0752
▁опустить	-12.0759
▁снисходительн	-12.0765
тать	-12.0766
▁натягива	-12.0766
lie	-12.0767
▁завитк	-12.0769
▁побегу	-12.0774
46	-12.0775
▁плачевно	-12.0783
▁жизненны	-12.0785
▁расправлял	-12.0786
▁чудесны	-12.0787
▁юг	-12.0788
▁пригибая	-12.0796
▁распут	-12.0799
▁испортила	-12.0802
▁низки	-12.0804
▁налага	-12.0804
▁тете	-12.081
▁противника	-12.0811
▁обходил	-12.0813
▁собиравши	-12.0813
▁каприз	-12.0821
▁пристыженно	-12.0821
▁шутливы	-12.0826
▁развратны	-12.0829
▁уменьшило	-12.0832
▁увеличить	-12.0836
берега	-12.0838
▁таб	-12.084
хвативши	-12.0841
▁втянула	-12.0843
▁горячк	-12.0843
il	-12.0844
▁любовным	-12.085
▁следу	-12.0851
▁непривычны	-12.0858
▁собравшим	-12.0863
▁удивить	-12.087
▁откупа	-12.0871
▁дружно	-12.0871
▁втягивал	-12.0872
▁негр	-12.0874
настоящие	-12.0878
▁лопатка	-12.0878
▁щу	-12.0881
▁докторов	-12.0882
▁господу	-12.0883
▁лавр	-12.0895
▁парадны	-12.0895
▁прис	-12.0896
▁сжимал	-12.0896
▁грамот	-12.0898
▁mor	-12.0901
▁верны	-12.0901
ящего	-12.0903
▁березовым	-12.0904
алку	-12.0904
▁крепким	-12.0906
▁мешка	-12.0908
▁привод	-12.0911
▁пересыпа	-12.0911
▁заставит	-12.0912
тора	-12.0916
▁карточка	-12.0919
▁страданиям	-12.0919
▁банки	-12.0922
▁привлекательн	-12.0925
▁удивленны	-12.0928
▁успокоивала	-12.0931
▁проектам	-12.0933
▁свежест	-12.0935
▁выражавше	-12.0937
ичок	-12.0937
откуда	-12.0946
▁заведени	-12.0959
▁торжественны	-12.0963
▁случивш	-12.097
▁отстранил	-12.0972
▁плотно	-12.0975
▁ганн	-12.0976
▁крайн	-12.098
▁взошл	-12.0988
▁связывавш	-12.0989
раскрытым	-12.0992
вязывать	-12.0997
▁краск	-12.1004
▁43	-12.1006
▁теперешни	-12.1007
ленно	-12.1007
▁расчес	-12.1012
▁пира	-12.1013
ризы	-12.1014
житель	-12.1014
▁стеклянны	-12.1016
▁банке	-12.1016
жит	-12.1017
ошедшие	-12.1017
▁причиненно	-12.1018
–187	-12.1022
▁нарушал	-12.1024
▁дочеря	-12.1028
▁ночам	-12.1032
▁разобрал	-12.1033
▁сморщи	-12.1034
▁разделивш	-12.1038
скакивал	-12.104
▁мрачным	-12.1044
▁реку	-12.1047
▁занимавши	-12.1047
▁раздражает	-12.1049
▁наклоня	-12.1049
▁церковны	-12.105
▁улыбками	-12.105
▁встретивше	-12.1052
раев	-12.1052
▁отталкивающ	-12.1056
▁смир	-12.1056
▁дворянском	-12.1056
▁внимательны	-12.1057
▁бархатны	-12.1058
▁умирающим	-12.1059
▁вечерни	-12.1059
▁пришедш	-12.1064
▁древне	-12.1067
▁тонкость	-12.1077
▁пугай	-12.1077
дем	-12.1085
▁унизить	-12.1086
▁превосходны	-12.1089
▁волнова	-12.109
▁ме	-12.109
кими	-12.1093
▁глубок	-12.1098
▁ve	-12.1102
▁механическо	-12.1105
терял	-12.1106
нял	-12.1106
▁дрожащи	-12.1108
▁однообраз	-12.1114
▁забота	-12.1117
анков	-12.1119
сыпанны	-12.1122
▁подбегал	-12.1124
▁вника	-12.1127
▁позаботи	-12.1129
▁губил	-12.1131
инга	-12.1131
▁чугунн	-12.1137
▁забавлял	-12.1139
▁напо	-12.1144
▁закуск	-12.1148
▁умывать	-12.1153
▁голода	-12.1155
att	-12.116
▁разрушаю	-12.1162
▁подвигая	-12.1162
▁юношеск	-12.1166
▁бессильны	-12.1167
▁опасна	-12.1169
▁кушанье	-12.1172
▁лестно	-12.1173
▁бабу	-12.1174
▁брит	-12.1176
▁уносил	-12.1179
▁качая	-12.118
▁бледном	-12.1181
▁поч	-12.1183
▁угод	-12.1186
▁двоюродны	-12.1187
кола	-12.1187
▁маши	-12.1199
чья	-12.12
▁приготовлени	-12.1203
▁просителя	-12.1206
▁выставленн	-12.1209
▁увеличенн	-12.1216
▁чей	-12.1219
▁рессора	-12.1222
тягивающим	-12.1223
▁спорит	-12.1228
▁достиг	-12.1232
▁бедна	-12.1237
▁ярки	-12.1238
▁величие	-12.1241
▁громадн	-12.1242
ваться	-12.1245
▁отделан	-12.1248
▁сходите	-12.1249
▁громадны	-12.1249
▁скрыт	-12.125
▁яви	-12.1252
▁американски	-12.1255
▁дожди	-12.1256
▁испачканн	-12.1261
▁упруго	-12.1268
▁соборовал	-12.1271
▁уговарива	-12.1271
▁покорност	-12.1274
▁полус	-12.1274
род	-12.1274
▁храбро	-12.1275
▁внешнем	-12.1277
▁давнишни	-12.128
▁58	-12.1285
▁переводил	-12.1286
льям	-12.1295
▁установил	-12.1295
ект	-12.1297
▁потным	-12.1298
▁военном	-12.1298
▁туманны	-12.1298
ale	-12.131
▁следа	-12.1312
▁ловким	-12.1314
▁мелька	-12.1315
▁испытанно	-12.1317
пускали	-12.1323
▁188	-12.1326
анд	-12.1327
▁возбудил	-12.1328
корен	-12.1332
▁возд	-12.1334
▁вытекал	-12.1341
▁скуч	-12.1341
▁презрен	-12.1346
▁сонны	-12.1349
▁толкая	-12.1353
▁ссыла	-12.1363
▁моло	-12.1363
▁умн	-12.1364
▁достига	-12.1366
▁выписанно	-12.1366
▁поту	-12.1369
▁описани	-12.137
▁печатал	-12.1373
▁мя	-12.1374
▁ревнивы	-12.1374
▁скр	-12.1374
ализма	-12.1377
▁вышедши	-12.1379
▁семи	-12.138
считал	-12.138
▁бумажн	-12.1381
править	-12.1384
▁играющи	-12.1385
▁конторк	-12.1389
▁растянуто	-12.1406
▁отечес	-12.141
▁гостеприимн	-12.1411
▁висевш	-12.1415
▁смят	-12.1417
▁улыбающим	-12.1421
▁супругам	-12.1432
▁махавши	-12.1438
▁встряхнул	-12.1445
▁постоянны	-12.145
▁влечени	-12.1455
▁выпрями	-12.147
ливость	-12.147
▁родила	-12.1471
▁убей	-12.1471
▁безнравственн	-12.1478
▁оживляя	-12.1481
красно	-12.1488
▁речк	-12.149
▁небесны	-12.1493
no	-12.1498
▁солнцем	-12.1505
▁начальн	-12.1511
▁мужицко	-12.1521
▁дальн	-12.1522
▁причесанн	-12.1523
▁перегна	-12.1529
▁выпущен	-12.1535
свободн	-12.1537
▁смирн	-12.1546
▁благосостояние	-12.1551
▁бабам	-12.1552
▁игрушечн	-12.1555
▁обра	-12.1556
▁произнесен	-12.156
▁спускать	-12.1561
крывает	-12.1561
▁кость	-12.1564
▁антинигили	-12.1568
▁грубом	-12.1572
▁испортило	-12.1578
еб	-12.1585
ьич	-12.1586
▁расходя	-12.1587
▁измучен	-12.1592
▁ши	-12.1593
▁тесно	-12.1593
▁дальнейше	-12.1593
om	-12.1594
▁грубым	-12.1596
ровн	-12.1599
▁церковно	-12.1599
учает	-12.16
▁упорны	-12.1604
▁крошечно	-12.1605
▁вмеша	-12.1606
▁принимаю	-12.1607
▁святы	-12.1614
▁заплаканн	-12.1618
▁кот	-12.1628
▁сделавше	-12.1631
▁реш	-12.1634
▁оживил	-12.1635
▁нехороши	-12.1637
▁бессмысленна	-12.1641
роч	-12.1643
main	-12.1648
se	-12.165
▁серо	-12.1651
▁разумны	-12.1653
▁нахмурен	-12.1667
чный	-12.1669
▁резким	-12.1671
вальсирова	-12.1671
▁вытер	-12.1672
▁серпуховск	-12.1693
▁служит	-12.1697
▁невыгод	-12.17
▁деревьям	-12.1706
тром	-12.1711
▁отдавала	-12.1711
▁третьем	-12.1734
▁талия	-12.1735
риги	-12.1742
▁дамско	-12.1743
▁печатали	-12.1743
▁испуганном	-12.1744
▁солдата	-12.1746
▁опера	-12.1748
онской	-12.1748
▁миловидно	-12.1758
нку	-12.1766
▁форму	-12.1767
▁лечени	-12.1771
▁безнадежн	-12.1773
стоявшей	-12.1784
▁мертва	-12.1785
рассвет	-12.1785
▁существующ	-12.179
▁убиты	-12.1795
▁занимавше	-12.1798
▁смири	-12.1798
еньки	-12.1803
льз	-12.1805
▁хватал	-12.1806
▁пропитан	-12.1806
▁безумн	-12.1807
▁ногтя	-12.1809
▁сказа	-12.1815
садить	-12.1834
▁косцам	-12.1841
▁просьба	-12.1841
▁невинност	-12.1853
писание	-12.1856
▁серьезн	-12.1861
▁пухлым	-12.1861
▁выскаже	-12.1862
▁обсыпа	-12.1872
▁стебле	-12.1874
▁успевши	-12.1877
▁возвращ	-12.188
▁виден	-12.1882
▁разде	-12.1883
▁крестьянско	-12.1887
инами	-12.1896
фу	-12.1898
▁бессмысленны	-12.1912
▁прогон	-12.1913
▁беле	-12.1914
▁домика	-12.1916
▁ес	-12.1917
▁тронуты	-12.1935
▁устремленным	-12.1939
▁миновав	-12.194
▁творени	-12.1942
▁горячим	-12.1944
вечных	-12.1947
▁интересна	-12.1947
▁покрытым	-12.1952
▁изящн	-12.1955
▁река	-12.1964
▁споро	-12.1965
▁спотык	-12.1967
ур	-12.197
▁овладе	-12.1972
▁наука	-12.1976
▁любител	-12.1982
▁капуе	-12.1984
▁энергическ	-12.1988
▁поцелуй	-12.199
йдем	-12.1992
любить	-12.1994
▁подбира	-12.2
▁либеральност	-12.2007
▁неспособ	-12.201
▁дышл	-12.202
▁осуждение	-12.2023
▁развлекл	-12.2024
▁философско	-12.2027
ышев	-12.2038
▁поставленны	-12.2042
▁растира	-12.2049
▁собирают	-12.2049
▁сломан	-12.2061
▁побож	-12.2071
торопи	-12.2072
▁восторженн	-12.2077
▁означало	-12.209
▁подъеха	-12.2092
▁еди	-12.2094
▁угрожа	-12.2106
▁земств	-12.2115
▁оцени	-12.2128
ливавший	-12.213
меньшая	-12.2132
▁прах	-12.2141
воему	-12.2148
▁достигал	-12.2148
▁американско	-12.2151
▁упрекаю	-12.2152
путать	-12.2153
▁строка	-12.2154
▁проведенн	-12.2155
▁несчастливы	-12.2156
ставь	-12.2163
▁подробность	-12.217
▁пойманн	-12.2172
▁покатил	-12.2176
▁подобн	-12.2176
мле	-12.2176
стях	-12.2179
▁измучала	-12.218
соответственно	-12.2181
шедшим	-12.2182
▁пару	-12.2185
тах	-12.2186
▁смешной	-12.2187
▁низк	-12.2195
▁покрасне	-12.2218
▁порядочно	-12.2223
▁выбега	-12.2224
▁штатско	-12.2228
▁наказание	-12.2233
▁воображаем	-12.2238
▁войд	-12.2257
▁полем	-12.226
▁сует	-12.2262
▁громадно	-12.2268
▁неправы	-12.2269
▁каменн	-12.2272
▁криво	-12.2278
репля	-12.2286
свобод	-12.2316
ачки	-12.2318
▁поруч	-12.2319
▁рассказам	-12.232
▁свечк	-12.2322
▁допускаю	-12.2323
▁задержива	-12.2324
▁знавши	-12.2332
болта	-12.2335
спеть	-12.2335
ходит	-12.2339
▁намеревал	-12.234
▁подразумева	-12.2346
▁новорожденно	-12.2348
▁варе	-12.2348
▁оценит	-12.2354
руг	-12.2366
▁отража	-12.2373
обирать	-12.2373
▁бедны	-12.2375
▁наслаждает	-12.2376
▁излишество	-12.2384
▁проводит	-12.2392
зывает	-12.2393
лян	-12.2404
▁мыслител	-12.2409
▁тесн	-12.241
▁грустное	-12.2419
ловить	-12.2443
▁голуби	-12.2446
▁упорство	-12.2449
▁испугали	-12.246
▁общественн	-12.2464
▁стороннико	-12.248
ахито	-12.2483
▁склоня	-12.249
▁разверну	-12.2492
фур	-12.2501
кити	-12.2501
нимания	-12.2504
▁конфузи	-12.2507
▁явивше	-12.2509
вернуты	-12.251
▁жирн	-12.2518
щею	-12.2521
▁драть	-12.2522
▁вырыва	-12.2526
▁сдержива	-12.2535
ence	-12.2549
▁историк	-12.255
▁51	-12.2552
▁гер	-12.2554
▁состоявш	-12.2556
креп	-12.2557
▁обращ	-12.2558
дороже	-12.256
▁вернувш	-12.2578
▁задал	-12.2579
▁основание	-12.2593
▁испытываю	-12.2605
▁откладывал	-12.262
m	-12.262
благодарил	-12.2622
▁угрожавш	-12.2623
лку	-12.2638
рубить	-12.2639
▁прич	-12.2641
ивает	-12.2645
сунул	-12.2652
▁красивым	-12.2667
▁офицерам	-12.2676
▁скучны	-12.2677
▁крошечн	-12.2681
▁щур	-12.269
▁скучн	-12.2692
▁спасен	-12.2702
▁допустит	-12.2707
верш	-12.2711
▁обрыва	-12.2721
▁июл	-12.2724
▁косит	-12.2725
▁усилить	-12.2727
▁сбега	-12.2732
тельным	-12.2748
▁невидим	-12.2752
отчетлив	-12.2762
▁разбирал	-12.2767
▁существ	-12.277
▁виновн	-12.2772
▁встряхну	-12.2778
▁ненатуральност	-12.2783
▁изящно	-12.2785
▁хитр	-12.2793
▁прислонив	-12.2795
▁находящи	-12.2803
творение	-12.2805
▁родств	-12.2805
85	-12.2808
▁уничтожа	-12.281
▁встречающ	-12.2815
▁типу	-12.2816
▁передав	-12.2816
воплощен	-12.2829
решительность	-12.2833
▁заменивш	-12.2834
▁изгна	-12.2839
▁просьб	-12.2853
ющею	-12.2857
▁тигров	-12.2864
ерб	-12.2879
▁державши	-12.2879
▁ворвал	-12.2884
▁скрыв	-12.2886
▁расстроит	-12.2888
ворачивая	-12.2888
▁наивн	-12.2897
водя	-12.2897
гла	-12.2899
▁веле	-12.2906
▁франти	-12.291
▁стебл	-12.2913
▁залив	-12.2914
пишь	-12.2922
▁актуальн	-12.2923
▁летне	-12.2926
▁заменила	-12.2932
▁приказан	-12.2933
▁утренни	-12.2944
▁итальянски	-12.2948
бегая	-12.2964
безумны	-12.2971
▁ожесточенн	-12.2971
▁мелк	-12.2972
▁неразумны	-12.2974
▁кашля	-12.2976
▁удержива	-12.298
овершенствования	-12.298
omme	-12.2981
ложения	-12.2983
▁праздную	-12.2987
▁рисовал	-12.2994
▁пож	-12.2997
▁нагнувш	-12.3005
▁рыж	-12.3005
▁довез	-12.3013
▁остро	-12.3021
▁рассуждениям	-12.3023
▁убеждала	-12.3031
мужич	-12.3033
▁хватая	-12.3034
▁физическим	-12.3046
▁придуман	-12.3046
глядывать	-12.3046
ностью	-12.3058
биваемы	-12.3058
▁пронзительно	-12.306
▁пережива	-12.306
ous	-12.3066
кар	-12.3078
▁огромном	-12.3079
▁беспоряд	-12.3093
▁превосход	-12.3097
▁упорн	-12.3099
▁окруженно	-12.3099
вит	-12.31
▁поворачива	-12.3109
казанно	-12.3113
▁удивительне	-12.3115
▁посвященн	-12.3118
rin	-12.3122
▁покорн	-12.3129
▁нервны	-12.3136
▁домик	-12.316
груд	-12.3166
▁удивлял	-12.3169
▁евре	-12.3178
итя	-12.318
ad	-12.3182
▁осторожность	-12.3185
▁влеза	-12.3187
▁отреч	-12.3189
▁дум	-12.3195
▁дальнейш	-12.3215
▁анти	-12.3229
▁серебро	-12.3233
даль	-12.3237
▁далек	-12.3237
▁рассып	-12.3246
▁соседя	-12.3247
валось	-12.3248
▁превосходн	-12.3252
▁пружинн	-12.3254
▁выпущенн	-12.3261
▁безнравственно	-12.3266
получен	-12.3273
старому	-12.3273
▁лишни	-12.3275
▁брянск	-12.3275
▁топк	-12.3277
▁подбежа	-12.3277
▁оруди	-12.3287
пуская	-12.3311
▁открывавши	-12.3315
▁постыдн	-12.3315
▁засн	-12.3322
▁споре	-12.3322
▁разбирали	-12.3329
▁проведенно	-12.3332
▁кликну	-12.3349
лежавшее	-12.3354
▁легк	-12.3363
▁перенесли	-12.3373
▁ру	-12.338
злом	-12.3382
▁cou	-12.3389
▁трону	-12.339
▁убран	-12.3391
▁устраиваю	-12.3391
▁удивляла	-12.3393
▁мужско	-12.3395
▁поднято	-12.3395
▁провод	-12.3403
лены	-12.3404
луб	-12.3404
▁издани	-12.3411
▁защити	-12.3433
▁бумажно	-12.3435
оде	-12.344
овика	-12.3444
нника	-12.3466
манил	-12.3468
▁несчаст	-12.3468
▁куша	-12.3471
▁растянут	-12.3476
ущее	-12.3488
цей	-12.3494
▁содержа	-12.3505
рациональное	-12.3505
▁вынес	-12.3507
▁румяно	-12.3512
▁любов	-12.3513
▁увеличивал	-12.3518
▁обнаженны	-12.3518
▁падающ	-12.3519
благоразумн	-12.3519
▁высунувш	-12.3524
▁заже	-12.3525
▁обращали	-12.3529
▁съе	-12.3534
▁лежат	-12.3541
бря	-12.3543
▁отстав	-12.3545
▁устроенн	-12.3546
▁раскрыв	-12.3552
▁похолоде	-12.3559
▁вяза	-12.3562
▁бежавш	-12.3565
▁упруг	-12.3566
▁мужицк	-12.3567
▁отправить	-12.3571
▁прощен	-12.3576
▁соборова	-12.3586
▁обидн	-12.3593
▁женском	-12.3594
▁наблюдени	-12.3597
▁подстр	-12.3613
▁искренн	-12.3622
▁пахн	-12.3623
▁удиви	-12.3623
▁ездя	-12.3629
сив	-12.3631
▁обнаженно	-12.364
▁подразумевае	-12.364
▁кавалерийск	-12.3645
диться	-12.365
онка	-12.3657
шение	-12.3658
▁изголовь	-12.3661
▁полотенц	-12.3661
шут	-12.3663
▁выздоровлени	-12.3664
уаль	-12.3665
музыкально	-12.367
▁послан	-12.3673
▁оружи	-12.3686
▁вечн	-12.3686
▁полнот	-12.3688
▁двоюродн	-12.3689
меня	-12.369
льную	-12.3692
▁обор	-12.3693
▁нажив	-12.3698
▁игрушеч	-12.3702
▁нездорова	-12.3716
рос	-12.3728
▁испуганн	-12.373
▁пото	-12.3736
правды	-12.3739
▁развяз	-12.3747
▁выдающ	-12.3763
▁фабрично	-12.3764
▁привезенн	-12.3765
▁удоб	-12.3767
чмокал	-12.3772
▁понят	-12.3773
ивным	-12.3777
▁строк	-12.378
▁медвежь	-12.3782
маны	-12.3782
▁провал	-12.3791
▁неподвижн	-12.3795
▁артиллерист	-12.3797
▁мад	-12.3798
▁небес	-12.38
▁провож	-12.3801
▁сообщит	-12.3801
▁бровя	-12.3801
▁крестно	-12.3804
▁описыва	-12.3809
шняя	-12.3813
▁разр	-12.3818
▁откровен	-12.3821
▁унизи	-12.383
одевши	-12.3831
чном	-12.3832
▁спрята	-12.3834
евско	-12.3844
иль	-12.3846
▁лестн	-12.3853
▁насыпа	-12.3853
▁социальн	-12.3853
sa	-12.3859
▁украшени	-12.3863
▁правдив	-12.3863
▁сходств	-12.3871
▁страш	-12.3872
▁ударив	-12.3876
▁схватыва	-12.3876
▁неизвестны	-12.3881
▁завед	-12.3883
щим	-12.3891
шедшие	-12.3893
дения	-12.3896
▁игравше	-12.39
▁наруша	-12.3903
великим	-12.3907
▁освещен	-12.3909
▁поступаю	-12.3911
нешь	-12.3914
ьер	-12.3914
▁наруж	-12.3916
дент	-12.3917
▁бабк	-12.3919
розовы	-12.3922
▁запа	-12.3927
▁добродетельно	-12.3927
▁ладон	-12.3929
▁риз	-12.3934
оба	-12.3934
▁финансов	-12.3944
вод	-12.3945
▁бабка	-12.3947
ящих	-12.3949
дну	-12.3953
нить	-12.3963
▁вызванн	-12.3981
▁нетороплив	-12.3983
▁пускал	-12.3987
▁волк	-12.3988
▁развернул	-12.3989
▁угле	-12.3991
▁освеженн	-12.3995
пертым	-12.4001
▁желез	-12.4002
льсинг	-12.4004
глы	-12.4008
▁неожиданн	-12.4013
▁пробыл	-12.4014
▁прощала	-12.4015
▁ослаб	-12.4027
▁прям	-12.4031
нимавший	-12.4034
▁наж	-12.4046
эта	-12.4054
ровность	-12.4065
грамотн	-12.4071
▁заре	-12.4073
▁парадн	-12.4074
▁лав	-12.4077
▁вспоминает	-12.4079
▁представлявши	-12.4088
▁метк	-12.4092
▁нетерпени	-12.4104
▁плешив	-12.4108
▁засел	-12.4108
ирует	-12.4109
▁дорогам	-12.4112
▁материнск	-12.4114
▁гряз	-12.4115
▁рассердит	-12.4115
ометр	-12.4116
варен	-12.4118
▁покрыт	-12.4118
▁умыва	-12.4121
▁переб	-12.4125
▁недосягаем	-12.4126
север	-12.4127
▁присыл	-12.4129
▁радую	-12.4131
дание	-12.4133
вините	-12.4134
ore	-12.4137
▁дешево	-12.4138
▁успокоивал	-12.4144
лечи	-12.4148
▁готовност	-12.415
праве	-12.4153
▁ску	-12.4162
▁выводит	-12.4167
▁всход	-12.4169
▁пойман	-12.4171
▁заня	-12.4173
▁бессильн	-12.418
▁отпустит	-12.4183
ришь	-12.4185
▁носивши	-12.4186
▁овчин	-12.4188
▁заговорит	-12.4194
▁загна	-12.4195
только	-12.42
▁баллотирова	-12.4201
▁состоящ	-12.4208
▁ловкост	-12.4209
▁интересую	-12.4215
вавшему	-12.4221
▁опасн	-12.4223
▁ссыл	-12.4229
дон	-12.4262
▁точны	-12.4271
▁откуп	-12.4274
ie	-12.4285
отечественн	-12.4286
▁морозн	-12.4287
▁свояк	-12.4288
▁to	-12.4296
▁костляв	-12.4298
▁либеральны	-12.43
парижски	-12.4306
▁виск	-12.4307
ительство	-12.4308
▁великодуш	-12.4312
▁засне	-12.4312
двига	-12.4315
луш	-12.4318
▁приемам	-12.4328
▁наход	-12.4332
▁распл	-12.4333
▁несомненн	-12.435
▁убор	-12.4351
овское	-12.4353
такт	-12.4355
озя	-12.4371
ваясь	-12.4371
▁вытягивал	-12.4371
дню	-12.4377
▁проясн	-12.4388
образи	-12.439
▁заменил	-12.4391
▁натуральн	-12.4397
трогал	-12.4399
▁просиде	-12.4413
уважительн	-12.4414
крытом	-12.4417
возможны	-12.4424
▁отрицательн	-12.4428
нька	-12.4432
▁отрекаю	-12.4437
вязал	-12.4442
дель	-12.4453
▁возненавид	-12.4455
стой	-12.4459
▁заслужит	-12.4462
▁бильярд	-12.447
▁окруженны	-12.447
▁крепк	-12.4474
▁старш	-12.4475
ция	-12.4484
▁прибав	-12.4488
▁углово	-12.4488
▁постар	-12.4489
▁безвыходно	-12.449
иру	-12.4494
два	-12.4496
топтан	-12.4501
стоял	-12.4502
толкнул	-12.4508
▁спутанн	-12.4519
▁приезжавш	-12.4519
▁непри	-12.4522
▁происход	-12.4522
▁побуд	-12.4526
▁медовы	-12.453
▁побужд	-12.4535
▁раздум	-12.4542
▁привяза	-12.4544
счастлив	-12.4552
▁подступ	-12.4552
ковых	-12.4555
▁комнатам	-12.4559
▁чарск	-12.456
▁собравши	-12.4561
▁покину	-12.4561
высши	-12.4563
зить	-12.4564
8–18	-12.4565
▁услыш	-12.4565
нимал	-12.4565
стер	-12.4568
американски	-12.4576
ходивший	-12.4577
▁кавалергард	-12.4578
▁мужественн	-12.458
▁сруби	-12.4581
строго	-12.4585
▁оставш	-12.4586
верен	-12.4586
▁следов	-12.4589
▁окончен	-12.4589
живаю	-12.4592
▁зацепил	-12.4598
шутливы	-12.4598
делали	-12.46
против	-12.4604
держивать	-12.4604
▁восхищ	-12.4609
сидел	-12.461
▁развратн	-12.4612
▁щекот	-12.4613
равно	-12.4613
▁голланд	-12.4615
скакал	-12.4616
▁держав	-12.462
буфф	-12.4621
▁проходивше	-12.4623
▁заплака	-12.4624
▁непогрешим	-12.4625
гласно	-12.4627
▁униж	-12.4628
сл	-12.4629
▁кротки	-12.4629
чины	-12.463
ванья	-12.463
боявши	-12.4631
любил	-12.4631
медиум	-12.4631
закон	-12.4631
сказал	-12.4633
нимание	-12.4634
▁вязань	-12.4635
sc	-12.464
французск	-12.4644
будет	-12.4646
tr	-12.4646
▁озлобленн	-12.4646
▁чеченск	-12.4647
звучно	-12.4647
милостив	-12.4647
гувернер	-12.4647
▁умыт	-12.4648
убедить	-12.4649
▁прекрат	-12.465
▁неловки	-12.4651
▁движень	-12.4656
временно	-12.4657
all	-12.4658
▁li	-12.4658
▁дыхани	-12.4658
быстрые	-12.4658
истина	-12.4658
▁каблу	-12.4659
▁неразумн	-12.4662
четверты	-12.4662
утру	-12.4663
ремя	-12.4664
нравственно	-12.4664
сделай	-12.4668
▁вытесн	-12.4668
учтивость	-12.467
▁приглаша	-12.4671
тронут	-12.468
поэзи	-12.4683
робко	-12.4683
действует	-12.4684
прекрасным	-12.4684
одно	-12.4684
остей	-12.4685
слаб	-12.4686
дыхания	-12.4687
добровольце	-12.4688
полагал	-12.4689
прежне	-12.4692
мари	-12.4693
четыре	-12.4693
▁шведск	-12.4694
кажет	-12.4694
марье	-12.4695
заснуть	-12.4697
горничн	-12.4697
покорно	-12.4698
▁бож	-12.4699
жани	-12.4701
утро	-12.4702
чувствует	-12.4703
кучера	-12.4705
левин	-12.4706
пиль	-12.4706
успех	-12.4706
холодно	-12.4707
уехал	-12.4707
крепко	-12.4707
иванов	-12.4707
▁объясн	-12.4707
дороги	-12.4708
трудно	-12.4708
эти	-12.4709
мужик	-12.4709
▁лагер	-12.471
помнит	-12.471
скоро	-12.471
удовольствия	-12.471
серге	-12.471
люблю	-12.4711
долли	-12.4711
письмо	-12.4711
зелен	-12.4711
вдруг	-12.4711
мысль	-12.4711
▁камн	-12.4711
нынче	-12.4711
росси	-12.4711
хочет	-12.4712
▁лак	-12.4713
потом	-12.4714
плод	-12.4714
▁развязно	-12.4714
▁денеж	-12.4714
которая	-12.4715
пьян	-12.4715
▁алекс	-12.4715
▁подозрительн	-12.4718
ходившее	-12.4719
клуб	-12.4719
хозяин	-12.4719
меньше	-12.472
лицы	-12.472
всю	-12.4722
народ	-12.4722
▁наказан	-12.4723
злоб	-12.4724
сам	-12.4725
еще	-12.4725
or	-12.4727
настоящ	-12.473
▁убе	-12.473
▁положит	-12.4731
▁продав	-12.4731
цвет	-12.4731
страшн	-12.4732
ированн	-12.4733
▁сдав	-12.4736
▁жениш	-12.4739
▁почерневш	-12.4741
▁закол	-12.4742
▁замечани	-12.4742
▁пирож	-12.4743
пише	-12.4745
треть	-12.4746
искал	-12.4748
▁сослов	-12.4753
▁раздражи	-12.4753
▁нищи	-12.4753
светск	-12.4757
em	-12.4757
ставили	-12.4762
▁подат	-12.4764
енному	-12.4769
▁утвердительн	-12.4769
бьет	-12.4771
▁противоположн	-12.4773
хороше	-12.4782
▁гвоздев	-12.4783
lic	-12.4785
спорил	-12.4785
енок	-12.4789
цем	-12.479
▁завис	-12.4796
▁застенчиво	-12.48
▁участвова	-12.4804
▁подействова	-12.4808
станешь	-12.481
▁домочадц	-12.4811
▁сукно	-12.4811
▁тарел	-12.4813
▁произведени	-12.4813
кормилиц	-12.4816
▁обозре	-12.4832
▁плав	-12.4836
европейски	-12.4838
▁пожертвова	-12.4843
▁содержани	-12.4848
сильны	-12.4848
▁ловит	-12.4849
бед	-12.4852
▁обрадова	-12.4853
▁дыш	-12.4854
ослужив	-12.4854
▁письменны	-12.4857
стическим	-12.4858
▁стукну	-12.4859
▁возьме	-12.486
▁произведе	-12.4861
▁фаз	-12.4861
▁парламент	-12.4863
▁выгляну	-12.4865
▁подаваем	-12.4866
▁привяз	-12.4867
ева	-12.4869
▁возражени	-12.487
венчан	-12.487
▁выгон	-12.487
▁вяз	-12.4871
▁совпад	-12.4871
▁православн	-12.4879
выш	-12.488
▁кругообразн	-12.4885
▁подход	-12.4887
▁власьев	-12.4888
▁хомяков	-12.4891
▁чувствительн	-12.4891
▁уклад	-12.4892
▁корзин	-12.4893
зывала	-12.4894
енью	-12.4897
верстн	-12.4898
▁красавц	-12.4898
▁соблю	-12.4899
▁буро	-12.4899
▁выздорове	-12.49
▁подверг	-12.4903
трахи	-12.4905
▁исцелени	-12.4907
▁сумасшестви	-12.491
▁коммунизм	-12.491
▁утешени	-12.4912
▁постанов	-12.4913
▁участ	-12.4914
▁учрежден	-12.4916
▁упрашива	-12.4917
▁льв	-12.4918
ящие	-12.492
▁вытянувш	-12.4921
ировал	-12.4922
▁высыл	-12.4923
▁глад	-12.4924
▁обгоня	-12.4927
▁психологи	-12.493
обить	-12.4932
▁заказ	-12.4933
▁брош	-12.4933
▁забо	-12.4934
очке	-12.4936
▁знамен	-12.4937
▁купч	-12.4938
▁двенадцат	-12.4941
▁пошат	-12.4941
▁перчат	-12.4943
▁меч	-12.4945
рознь	-12.4947
▁запомн	-12.4949
▁издан	-12.4952
текла	-12.4953
▁просветлев	-12.4953
▁подозрени	-12.4955
бел	-12.4959
▁приветств	-12.496
▁благодарно	-12.4967
▁изучен	-12.4969
ернувши	-12.497
крип	-12.4971
больше	-12.4972
мол	-12.4974
▁неумолка	-12.4974
▁компан	-12.4977
▁лас	-12.4977
выпрямл	-12.4979
пошел	-12.4979
▁разрешен	-12.4982
▁швед	-12.4983
▁церкв	-12.4985
▁росс	-12.4989
лияние	-12.4989
требован	-12.499
▁провиз	-12.4992
▁сообщени	-12.4992
▁отходя	-12.4992
▁соскочи	-12.4993
▁знамени	-12.4995
▁сияни	-12.4996
▁прибавля	-12.4997
тала	-12.4997
стоящи	-12.4999
суса	-12.5
tion	-12.5003
▁урони	-12.5003
▁побледне	-12.5003
лочк	-12.5005
▁расслыша	-12.5005
▁император	-12.5006
▁оттягива	-12.5006
▁ступень	-12.5006
▁поздрави	-12.5007
ихнул	-12.5007
▁ощуща	-12.5008
бат	-12.5008
▁удерж	-12.501
▁заменив	-12.5011
чок	-12.5013
▁полза	-12.5014
▁бесс	-12.5017
▁вздыха	-12.5017
▁единств	-12.502
▁щегол	-12.502
▁смути	-12.5027
енел	-12.5027
▁ободр	-12.503
средневеков	-12.503
▁христиан	-12.5032
говаривал	-12.5033
▁усилен	-12.5034
истов	-12.5036
пасен	-12.5036
▁плутовск	-12.5037
▁выдер	-12.5037
▁шо	-12.5038
▁вбега	-12.504
▁отчаивал	-12.5041
▁высказала	-12.5042
ливости	-12.5046
▁экономи	-12.5049
▁подар	-12.5051
▁отчужден	-12.5053
скавшему	-12.5054
кошенно	-12.5055
шила	-12.5055
▁улыбн	-12.5056
▁начав	-12.5056
▁шерст	-12.5056
живает	-12.5058
покойна	-12.5059
нюха	-12.5059
▁латинск	-12.5059
▁нагн	-12.5059
издат	-12.5059
▁пелерин	-12.5062
нчики	-12.5064
▁припад	-12.5066
▁кивну	-12.5068
▁горьк	-12.5069
▁узакон	-12.5071
▁убрав	-12.5072
▁скатерт	-12.5074
▁заинтересов	-12.5074
здоровье	-12.5074
▁рыс	-12.5074
шке	-12.5078
▁дву	-12.5078
▁студен	-12.508
▁непростительн	-12.5083
гражда	-12.5084
▁коры	-12.5085
▁цыпл	-12.5085
▁убег	-12.5086
▁огранич	-12.5086
▁пароди	-12.5089
отворен	-12.5089
▁ценим	-12.5091
▁долл	-12.5092
▁граб	-12.5094
▁растяну	-12.5095
▁совеща	-12.5095
▁свидетельств	-12.5095
▁шуткам	-12.5097
▁таинств	-12.5097
▁содрога	-12.5098
▁телеграф	-12.5098
новение	-12.5101
десятилет	-12.5101
▁действуе	-12.5102
▁узор	-12.5102
dis	-12.5102
▁черногорц	-12.5103
▁выпукл	-12.5104
ибле	-12.5104
▁изменив	-12.5105
▁единственн	-12.5108
офей	-12.5108
▁понятн	-12.511
▁бук	-12.5112
▁сходили	-12.5114
ирени	-12.5114
▁вытянув	-12.5115
евочка	-12.5116
греба	-12.5116
▁плутовс	-12.5117
метил	-12.5117
стол	-12.5117
цветал	-12.5117
▁красав	-12.5119
режу	-12.5119
▁оригинальн	-12.512
▁заискива	-12.5122
тыкал	-12.5123
ждавший	-12.5123
нич	-12.5124
▁разгоряченн	-12.5124
кусыва	-12.5124
▁посторон	-12.5126
рину	-12.5126
▁попав	-12.5127
▁истощ	-12.5128
▁мочи	-12.5133
▁плут	-12.5133
▁допуска	-12.5134
▁спич	-12.5134
▁медленн	-12.5136
сып	-12.5136
▁соболезнован	-12.5136
унд	-12.5137
▁переул	-12.5137
▁нанят	-12.5137
болевши	-12.5138
▁береж	-12.514
▁сновиден	-12.514
дергивая	-12.514
▁превра	-12.514
покуп	-12.5141
▁кофт	-12.5142
▁бессмысл	-12.5143
▁усерд	-12.5143
нутым	-12.5144
▁загород	-12.5144
ящая	-12.5144
ставля	-12.5145
ительству	-12.5145
▁флигел	-12.5146
▁тюр	-12.5146
упленным	-12.5146
▁оскорбит	-12.5147
▁флер	-12.5147
збегал	-12.5148
юдь	-12.5148
▁объя	-12.5149
▁terr	-12.515
▁голени	-12.515
▁чибис	-12.515
олете	-12.5152
▁страдальческисо	-12.5152
▁сбив	-12.5152
▁олицетвор	-12.5153
▁пугов	-12.5154
слушивал	-12.5155
ведом	-12.5155
▁влече	-12.5156
▁лыс	-12.5156
учат	-12.5156
ышко	-12.5156
надцат	-12.5156
пуще	-12.5158
кабри	-12.5158
▁поговорит	-12.5158
грамм	-12.5158
зображен	-12.5158
▁произой	-12.5158
▁петербур	-12.5159
▁предшеств	-12.5159
▁колос	-12.5159
учтив	-12.5159
▁тра	-12.5159
▁заключени	-12.5159
▁посыпа	-12.5159
uss	-12.516
ученны	-12.516
стрижен	-12.516
▁возмущен	-12.516
кладывала	-12.5161
парт	-12.5161
▁спир	-12.5161
перва	-12.5161
▁обещав	-12.5162
nder	-12.5162
гли	-12.5162
▁герман	-12.5162
привлекател	-12.5162
▁бант	-12.5162
▁оригинал	-12.5162
усложн	-12.5162
хватит	-12.5162
▁гимнаст	-12.5163
ватая	-12.5163
отреп	-12.5163
▁раздражител	-12.5163
▁снисходит	-12.5164
▁приподняв	-12.5164
растая	-12.5164
чайши	-12.5164
▁инородц	-12.5164
чайше	-12.5164
гуще	-12.5164
▁избрав	-12.5164
▁прогл	-12.5164
пыхнул	-12.5164
арше	-12.5164
еприят	-12.5164
ратце	-12.5165
▁лопуш	-12.5165
нтер	-12.5165
▁америк	-12.5165
анцев	-12.5165
▁зоологи	-12.5165
вещал	-12.5165
визгива	-12.5165
редсто	-12.5165
позици	-12.5165
▁корс	-12.5165
команд	-12.5165
▁семидесят	-12.5165
essive	-12.5165
existe	-12.5165
[...]
