<unk>	0
<s>	0
</s>	0
▁и	-3.32947
а	-3.68466
е	-3.70626
▁в	-3.9402
▁	-3.99455
и	-4.04661
▁не	-4.05731
▁что	-4.31077
▁с	-4.35123
▁на	-4.41771
й	-4.47341
▁он	-4.49697
у	-4.51077
о	-4.60812
я	-4.62018
▁я	-4.73329
м	-4.75957
ся	-4.94461
▁да	-4.94518
то	-4.94853
▁как	-4.96532
▁а	-4.99566
ы	-5.08884
х	-5.13909
▁был	-5.14308
ю	-5.15893
ть	-5.18754
▁по	-5.21126
▁это	-5.21729
▁его	-5.33597
▁так	-5.33602
▁к	-5.39932
▁вы	-5.4024
▁но	-5.40351
же	-5.43566
▁же	-5.45417
ом	-5.48823
ой	-5.49449
▁за	-5.50357
▁т	-5.54674
▁то	-5.56804
▁у	-5.58476
▁бы	-5.65153
▁всё	-5.65248
ь	-5.66127
го	-5.67902
сь	-5.70875
▁уж	-5.72273
с	-5.76031
▁от	-5.77563
ая	-5.79649
▁она	-5.81365
▁еще	-5.9758
▁о	-5.99538
▁раскольников	-6.00169
олько	-6.03312
▁из	-6.0367
▁ее	-6.04206
ли	-6.04431
ему	-6.05229
ого	-6.07784
▁до	-6.08489
л	-6.08734
в	-6.13998
▁ты	-6.14024
▁вот	-6.14811
т	-6.15284
▁теперь	-6.15797
▁ну	-6.19938
▁вдруг	-6.20223
ни	-6.22698
▁меня	-6.24151
ую	-6.26135
▁сам	-6.27553
▁ведь	-6.30914
лся	-6.31976
▁ни	-6.3233
▁мне	-6.32641
▁быть	-6.3969
ов	-6.40819
▁раз	-6.42434
▁все	-6.46548
▁вам	-6.51148
▁при	-6.51351
▁себя	-6.53098
▁ли	-6.53856
ый	-6.53953
ет	-6.54014
▁стал	-6.54308
▁может	-6.5486
▁про	-6.56471
▁очень	-6.57811
▁нет	-6.57947
будь	-6.58852
если	-6.59857
лась	-6.59899
▁вас	-6.60547
▁под	-6.61203
▁опять	-6.62216
▁него	-6.64813
ми	-6.6547
▁тут	-6.66364
▁разумихин	-6.66547
▁когда	-6.66587
ться	-6.68492
▁во	-6.70335
▁человек	-6.73282
з	-6.73308
▁есть	-6.747
лось	-6.75851
▁об	-6.78581
▁потому	-6.80179
▁ивановн	-6.80184
▁чем	-6.81747
▁дл	-6.81786
▁петрович	-6.87045
ым	-6.87409
шел	-6.87773
но	-6.88997
▁минут	-6.89883
ем	-6.91862
ла	-6.93657
▁ничего	-6.94111
▁того	-6.9421
▁тогда	-6.9479
▁соня	-6.949
▁г	-6.97434
ешь	-6.98515
▁тем	-6.98655
▁совсем	-6.98931
▁время	-6.98955
ами	-7.0114
▁буд	-7.02582
▁ей	-7.03697
▁со	-7.03814
▁чтоб	-7.05073
▁чего	-7.06449
▁сказал	-7.07321
▁мы	-7.07553
▁весь	-7.07916
▁этом	-7.08815
ется	-7.09061
▁дело	-7.09091
▁они	-7.10226
▁надо	-7.10235
▁их	-7.10458
ах	-7.10582
▁этот	-7.10784
те	-7.10997
▁без	-7.11061
лись	-7.11679
ось	-7.12752
▁где	-7.12937
▁там	-7.14501
▁свидригайлов	-7.16894
ых	-7.18092
▁почти	-7.1881
ок	-7.19651
▁хо	-7.2011
▁впр	-7.20391
▁тебе	-7.20624
ен	-7.20707
▁один	-7.2109
очем	-7.22209
▁свое	-7.22573
▁ж	-7.2296
ду	-7.23654
▁будет	-7.24261
▁котор	-7.25063
▁себ	-7.25528
▁хотел	-7.26528
▁голов	-7.274
бы	-7.28624
▁мог	-7.29972
▁ним	-7.30507
отчас	-7.30524
ка	-7.3056
▁всех	-7.30899
▁потом	-7.32293
▁раскольникова	-7.32501
▁этого	-7.32807
ей	-7.32998
▁эти	-7.33201
▁всего	-7.37381
▁тебя	-7.38241
▁одна	-7.38484
▁более	-7.38924
▁наконец	-7.40099
▁были	-7.40945
▁эту	-7.41169
▁говорил	-7.41408
▁сейчас	-7.41699
▁можно	-7.417
▁знаю	-7.41978
ась	-7.42155
▁особенно	-7.44136
▁ней	-7.44792
ют	-7.46122
▁кажет	-7.46834
▁после	-7.47161
▁точно	-7.47745
их	-7.48591
сколько	-7.4925
▁какой	-7.49307
ло	-7.49479
▁брат	-7.49514
▁много	-7.51737
▁том	-7.52617
▁чере	-7.52748
шь	-7.52899
▁друго	-7.53573
▁знал	-7.54386
▁тот	-7.54959
тся	-7.55
▁глаза	-7.55485
▁совершенно	-7.55537
конечно	-7.55781
▁комнат	-7.55946
▁зачем	-7.56965
▁кто	-7.57007
▁сторон	-7.57555
▁два	-7.57572
▁перед	-7.57924
▁прямо	-7.58941
▁вопрос	-7.59123
му	-7.59469
▁дуня	-7.59962
▁б	-7.60277
▁стоял	-7.60851
ись	-7.61585
ко	-7.62211
▁действительно	-7.6278
▁начал	-7.63147
▁здес	-7.63211
сказать	-7.63318
▁дверь	-7.64886
вою	-7.65173
▁всем	-7.65254
▁лицо	-7.65306
▁спросил	-7.65435
▁петр	-7.66034
▁порфирий	-7.6607
▁друг	-7.66878
▁хотя	-7.67001
▁одно	-7.67161
к	-7.67404
▁всю	-7.67748
да	-7.68688
▁пожалуй	-7.69206
▁меж	-7.69983
▁лучше	-7.70392
▁всегда	-7.70947
▁александровн	-7.71549
▁пульхери	-7.71557
▁лужин	-7.71557
▁катерина	-7.7173
▁лет	-7.72262
р	-7.73643
▁слова	-7.74061
▁достоевски	-7.74068
▁роман	-7.74387
▁которы	-7.74976
▁подумал	-7.75466
▁именно	-7.75598
▁заметил	-7.76157
б	-7.76307
▁ваше	-7.7635
▁проговорил	-7.76511
▁вчера	-7.77238
▁руки	-7.77726
▁эта	-7.7775
ки	-7.77874
▁романовн	-7.7815
▁господин	-7.78556
▁больше	-7.81067
▁сестр	-7.81441
▁деньги	-7.81515
▁самом	-7.81983
▁над	-7.82191
▁слишком	-7.8244
ный	-7.82811
н	-7.83969
вши	-7.84089
ма	-7.84437
▁черт	-7.84517
▁смотрел	-7.85123
▁мысль	-7.8598
▁думал	-7.8675
ные	-7.87122
▁разве	-7.87157
▁вмест	-7.88216
▁дом	-7.88328
▁никогда	-7.88771
▁могл	-7.89393
▁сегодня	-7.90654
▁нельзя	-7.90654
▁нас	-7.90657
▁зна	-7.91116
▁день	-7.91601
▁пере	-7.91841
йти	-7.91954
ная	-7.92462
▁родион	-7.92589
▁просто	-7.93224
▁перв	-7.93259
на	-7.93565
▁слово	-7.93767
ных	-7.94516
ою	-7.94562
▁дунечк	-7.94778
▁право	-7.95385
▁чуть	-7.95546
▁прежде	-7.95567
▁знаете	-7.95597
▁почему	-7.95648
сти	-7.9575
сть	-7.96388
▁мо	-7.9666
▁голос	-7.97284
ной	-7.97684
▁образ	-7.97773
▁могу	-7.98165
ошел	-7.98623
▁ужасно	-7.98753
▁сама	-7.98784
▁нем	-7.98835
▁одного	-7.9912
нее	-7.99145
▁куда	-7.99302
▁сил	-7.99365
▁взгляд	-7.99467
▁странно	-7.99523
ить	-7.9953
▁продолжал	-7.9958
▁сами	-7.99761
▁мое	-7.99845
▁который	-8.00395
▁шаг	-8.00451
▁д	-8.00815
▁вид	-8.01026
▁такой	-8.0165
▁дома	-8.01882
ец	-8.02242
▁человека	-8.02295
▁сюда	-8.03166
ий	-8.03334
▁тому	-8.03646
▁рук	-8.03898
▁ваш	-8.04096
▁зосимов	-8.05037
▁вскричал	-8.05037
2	-8.05067
▁прибавил	-8.05121
▁сердце	-8.05359
▁которо	-8.05464
▁пришел	-8.05526
▁какая	-8.05746
▁пуст	-8.05793
▁пор	-8.064
▁посмотрел	-8.06523
ку	-8.06577
▁этой	-8.06647
▁говорит	-8.06914
▁п	-8.06951
▁катерин	-8.06979
ые	-8.07162
▁пол	-8.07887
▁три	-8.09085
▁взял	-8.09151
вший	-8.09282
▁ко	-8.09363
довольно	-8.09558
родя	-8.09635
ного	-8.09849
д	-8.0986
▁петербург	-8.09993
▁последне	-8.10352
▁романа	-8.11024
▁давн	-8.11345
▁такое	-8.11489
зад	-8.11518
▁видел	-8.11617
▁мало	-8.12071
▁преступления	-8.12335
▁стол	-8.12718
▁говорю	-8.13119
▁непременно	-8.13141
▁одним	-8.13487
▁час	-8.14031
▁ах	-8.14145
▁руку	-8.14291
▁жизни	-8.14292
▁поскоре	-8.14316
▁знает	-8.14443
▁отвечал	-8.14626
i	-8.15129
▁своего	-8.15133
▁крикнул	-8.15547
ек	-8.15952
▁жизнь	-8.16746
▁ясно	-8.1684
▁заметов	-8.16842
ился	-8.16967
▁первы	-8.17011
1	-8.17052
▁своим	-8.17527
▁господи	-8.17547
▁долго	-8.17627
▁нему	-8.181
▁этих	-8.18101
▁пять	-8.18126
юсь	-8.18731
ходить	-8.18863
▁хорошо	-8.19383
▁м	-8.19397
▁своем	-8.1959
▁18	-8.19871
▁порфири	-8.20703
▁петровн	-8.20758
▁авдотья	-8.20765
веча	-8.21394
▁говорить	-8.21829
▁всетаки	-8.21898
▁времен	-8.22955
▁никак	-8.23119
▁стул	-8.23171
▁марф	-8.23331
▁неужел	-8.23352
ому	-8.23438
▁настась	-8.23922
мать	-8.24006
o	-8.24228
ным	-8.24408
▁семеновн	-8.24493
бо	-8.25107
▁улиц	-8.25354
▁дела	-8.26066
п	-8.27051
▁свои	-8.27148
▁лебезятников	-8.27213
▁им	-8.27235
ста	-8.27286
▁преступление	-8.27538
кроме	-8.28831
▁нам	-8.29317
▁бросил	-8.29331
ишь	-8.29412
смотря	-8.29513
ит	-8.29695
не	-8.30008
▁месяц	-8.30011
▁диван	-8.30015
▁дня	-8.30032
▁стоит	-8.30144
▁мысли	-8.31439
▁остановил	-8.31611
▁вся	-8.31755
▁мере	-8.31896
ную	-8.32236
▁какие	-8.3273
▁оста	-8.32881
▁людей	-8.32914
▁2	-8.33069
че	-8.3352
пример	-8.33757
▁буду	-8.34078
▁сидел	-8.34809
▁одной	-8.35214
▁амали	-8.35856
▁решил	-8.35861
▁матери	-8.36366
▁каким	-8.36447
▁иног	-8.366
▁такие	-8.3676
г	-8.36978
▁пред	-8.37497
▁крайне	-8.37733
▁вод	-8.37754
много	-8.37795
▁топор	-8.38926
йте	-8.39002
▁каза	-8.39242
▁обе	-8.39391
против	-8.40128
ое	-8.40156
▁сколько	-8.40542
▁деле	-8.40721
▁этак	-8.41058
▁какое	-8.42011
▁скажу	-8.42129
▁бог	-8.42634
▁сел	-8.43124
▁достоевско	-8.43468
▁ль	-8.43585
ра	-8.4361
▁двух	-8.43668
▁значит	-8.43671
▁тысяч	-8.43707
▁люди	-8.44238
▁известно	-8.44278
▁ново	-8.44887
▁убил	-8.45165
▁кровь	-8.45309
▁вперед	-8.4547
▁ф	-8.45491
ят	-8.46606
▁бред	-8.46764
▁комнаты	-8.46882
▁ними	-8.47172
e	-8.47232
▁место	-8.47274
▁жить	-8.47284
▁этим	-8.47471
▁ног	-8.47875
▁понимаю	-8.48086
▁узнал	-8.48404
▁стен	-8.48524
чь	-8.48582
▁разумеет	-8.48743
▁чрезвычайно	-8.48806
▁подле	-8.48877
▁правда	-8.49584
ля	-8.49679
ш	-8.50212
▁зате	-8.5038
▁мгновение	-8.50396
▁встал	-8.50423
▁хочет	-8.51184
▁кого	-8.51289
▁смотря	-8.51414
▁должн	-8.51936
▁свой	-8.52097
▁завтра	-8.52197
▁ответил	-8.5222
▁причин	-8.52263
▁забыл	-8.52309
▁должно	-8.52359
▁делать	-8.52893
▁квартиру	-8.53138
▁э	-8.53175
▁случае	-8.53352
▁против	-8.53546
▁вздор	-8.53933
▁мармеладов	-8.53933
▁своих	-8.54698
▁молча	-8.54875
▁ту	-8.55079
▁рубле	-8.55559
▁показал	-8.55694
▁студент	-8.55771
ва	-8.5584
▁вскрикнул	-8.55843
▁улыбк	-8.55844
▁скоро	-8.56468
▁вами	-8.56639
тесь	-8.5691
▁ряд	-8.57
▁та	-8.57303
▁батюшк	-8.57603
▁десять	-8.5761
▁нароч	-8.57699
▁карман	-8.58256
▁факт	-8.58352
▁таким	-8.58505
▁разговор	-8.58576
▁пока	-8.58938
▁моя	-8.59416
▁толп	-8.59449
ью	-8.59632
▁год	-8.59688
▁лежал	-8.5981
хочу	-8.60449
▁места	-8.60456
▁глаз	-8.60649
▁самы	-8.60793
ут	-8.61256
▁тихо	-8.61406
▁денег	-8.61413
▁пьян	-8.61697
▁успел	-8.61755
▁случай	-8.61758
▁молодой	-8.61956
▁тех	-8.62251
▁углу	-8.62446
▁вер	-8.62517
▁имел	-8.63152
▁наверно	-8.63375
▁романыч	-8.63376
▁оба	-8.63432
▁рад	-8.63478
ны	-8.63548
▁софь	-8.63635
наче	-8.64141
▁хоч	-8.64536
▁такая	-8.64578
счет	-8.65097
▁обратил	-8.65192
ч	-8.65248
▁лица	-8.65375
▁квартир	-8.65382
▁окончательно	-8.65519
▁понял	-8.65528
чего	-8.65578
▁письмо	-8.65605
▁ждал	-8.65641
▁новы	-8.66562
▁две	-8.66582
одну	-8.67023
ях	-8.67274
▁смех	-8.67424
▁лестнице	-8.67595
▁мной	-8.68041
▁сделать	-8.68142
▁сделал	-8.68454
▁больно	-8.68751
▁характер	-8.68928
им	-8.69193
▁страх	-8.6925
ши	-8.69321
вообще	-8.69498
▁ночь	-8.69518
▁ник	-8.69695
▁готов	-8.69835
▁самое	-8.70219
нул	-8.70386
▁город	-8.70555
▁дун	-8.71078
▁улицу	-8.71247
▁франц	-8.71626
▁детей	-8.71628
▁девочк	-8.71659
▁л	-8.71685
▁других	-8.71828
▁быстро	-8.71846
▁слез	-8.71863
▁19	-8.72088
▁писал	-8.72412
▁остава	-8.72489
▁говорят	-8.72494
▁де	-8.72578
вести	-8.72689
▁ум	-8.73261
скать	-8.73326
▁андре	-8.73802
овсе	-8.73877
▁платье	-8.73993
▁серьезно	-8.74181
▁ходил	-8.7486
▁автор	-8.74992
▁круго	-8.75411
ное	-8.7547
▁ответ	-8.75937
▁семенович	-8.76022
▁смерти	-8.76025
▁сони	-8.76107
▁перевод	-8.76204
▁часов	-8.76364
▁видал	-8.76505
▁наказани	-8.77052
▁само	-8.77353
▁глазам	-8.77682
▁народ	-8.77811
чи	-8.78232
▁разом	-8.78247
ев	-8.783
▁собой	-8.78331
казать	-8.78356
▁цел	-8.7855
дти	-8.7877
▁коли	-8.78922
▁случи	-8.79038
▁узна	-8.79237
▁свет	-8.79765
ков	-8.79987
▁н	-8.80097
▁3	-8.80202
▁рас	-8.80217
▁вещи	-8.80326
▁вниз	-8.80651
▁миг	-8.8074
▁поднял	-8.80761
▁пристально	-8.80774
его	-8.80939
▁больш	-8.80991
▁видно	-8.81284
▁котором	-8.81341
▁домой	-8.82006
▁достоевск	-8.82028
▁шел	-8.82212
ями	-8.82517
нов	-8.83021
▁позвольте	-8.83031
▁смея	-8.83192
▁те	-8.83414
▁смотреть	-8.83505
▁дворник	-8.83678
▁виде	-8.83687
▁равно	-8.83693
ости	-8.83881
▁верно	-8.83959
▁старух	-8.84296
▁хозяйк	-8.84778
▁име	-8.84847
ль	-8.84937
▁1	-8.85172
▁пробормотал	-8.85474
▁вероятно	-8.85652
▁понимаете	-8.85726
▁соню	-8.85777
▁рукам	-8.85782
▁которым	-8.86029
▁тобо	-8.86057
▁роде	-8.86403
ри	-8.86544
▁горяч	-8.86616
▁чувствовал	-8.86678
иться	-8.86768
▁начала	-8.87225
▁полно	-8.87652
▁знать	-8.87877
▁собственно	-8.87948
▁соне	-8.8796
▁дети	-8.87979
▁принял	-8.87993
▁девушк	-8.88073
▁хотите	-8.88114
▁семь	-8.88193
обою	-8.88369
▁некоторы	-8.88428
▁тяжело	-8.88483
▁проч	-8.88604
ния	-8.88708
▁лизавет	-8.89291
▁уверен	-8.8944
▁род	-8.89586
▁прошло	-8.89644
▁ш	-8.89864
ня	-8.89893
▁получил	-8.90068
▁какого	-8.9013
ость	-8.90135
▁пре	-8.90177
▁жар	-8.90183
▁писател	-8.90424
▁года	-8.90479
▁доктор	-8.90504
▁маменьк	-8.90504
▁романович	-8.90504
▁читал	-8.90505
стати	-8.90562
▁лестниц	-8.90645
▁любит	-8.91269
▁стать	-8.91278
▁газет	-8.91298
▁жив	-8.91314
шла	-8.9132
▁слов	-8.91423
вших	-8.9151
вшего	-8.91543
▁имеет	-8.91598
▁несчастн	-8.91868
▁часть	-8.92239
▁вечер	-8.92277
▁кажды	-8.92697
мой	-8.92806
▁никола	-8.92982
нять	-8.93031
▁приходил	-8.93055
▁помню	-8.93216
▁всеми	-8.93218
▁многи	-8.93333
▁обо	-8.93341
▁1865	-8.93347
▁подлец	-8.93351
▁годов	-8.9339
▁боже	-8.9342
▁говорите	-8.93761
▁мир	-8.93969
вшие	-8.94446
▁проче	-8.94499
▁чему	-8.94506
▁большо	-8.94567
▁повернул	-8.94696
▁закон	-8.94825
▁душ	-8.95008
▁сп	-8.95032
▁сильно	-8.95099
вижу	-8.95122
▁наст	-8.95293
▁говори	-8.96255
▁обществ	-8.96359
▁лестницы	-8.96496
▁глубоко	-8.96756
▁суд	-8.96806
▁петра	-8.96894
▁досад	-8.96894
▁слышал	-8.96947
ну	-8.97248
гр	-8.97281
▁придет	-8.9746
▁ра	-8.98257
▁какую	-8.98577
▁главное	-8.98658
▁1860	-8.98705
▁друга	-8.98715
▁никого	-8.98978
▁дума	-8.99041
▁ужас	-8.99176
▁квартире	-8.99253
он	-8.99269
▁последни	-8.99366
▁вон	-8.99404
▁принес	-8.9944
ж	-8.99556
▁преступлени	-8.99736
▁кричал	-8.99824
▁думаю	-9.00467
▁страшно	-9.00778
части	-9.01106
▁призна	-9.01151
▁контор	-9.0116
▁вполне	-9.01473
▁болезни	-9.01475
▁прошептал	-9.01476
▁мимо	-9.01476
▁сцен	-9.01492
ал	-9.01521
жи	-9.01567
вал	-9.01664
▁целый	-9.0215
▁угол	-9.02413
▁любил	-9.02923
▁среди	-9.02981
▁вспомнил	-9.03004
▁женщина	-9.03097
▁вышл	-9.03228
▁произнес	-9.0367
▁слушал	-9.03792
▁бедн	-9.04
▁боя	-9.04252
▁лично	-9.0436
▁любл	-9.04415
▁взять	-9.04418
▁двадцать	-9.04422
должен	-9.04432
▁очевидно	-9.04507
▁внимательно	-9.04519
ник	-9.04737
▁руках	-9.04816
▁пойду	-9.04851
▁4	-9.04922
ель	-9.04944
▁мои	-9.052
▁помо	-9.0544
▁некоторо	-9.05462
▁одному	-9.05663
▁самым	-9.05706
▁встреча	-9.05728
ите	-9.05921
▁наш	-9.06317
первы	-9.06629
▁убит	-9.06698
▁всему	-9.06854
ил	-9.06931
уже	-9.07153
▁дух	-9.07341
▁государ	-9.07442
▁вздрогнул	-9.07445
▁едва	-9.07449
▁закричал	-9.0747
▁извините	-9.07491
▁гл	-9.07548
▁внимание	-9.07679
▁1866	-9.07725
▁обращая	-9.07785
▁интерес	-9.08037
▁виду	-9.08087
ти	-9.08405
▁скоре	-9.08512
▁решительно	-9.08582
▁прошл	-9.08689
▁видите	-9.08804
ать	-9.08883
▁чувство	-9.09001
кой	-9.09399
▁вчерашне	-9.09722
▁видеть	-9.10006
▁лице	-9.10007
▁состояни	-9.10029
▁таких	-9.10441
▁истори	-9.10468
раздо	-9.10553
▁хехе	-9.10556
▁третий	-9.1057
▁ключ	-9.10571
▁ровно	-9.10573
▁этаж	-9.10647
или	-9.10687
▁другие	-9.10756
▁положил	-9.10801
лю	-9.10865
▁лиц	-9.11045
▁думает	-9.11097
▁земл	-9.11101
▁работ	-9.11107
▁шага	-9.11473
ке	-9.11536
▁положени	-9.11741
ном	-9.12196
▁понимал	-9.12227
ски	-9.12382
начала	-9.12995
▁билет	-9.13136
▁процесс	-9.13796
▁рассказыва	-9.13832
де	-9.13915
▁третьего	-9.13965
▁недавн	-9.13986
▁брак	-9.13991
ками	-9.14052
▁чай	-9.14054
▁дурак	-9.14121
▁увидел	-9.14224
что	-9.14232
▁ме	-9.1426
▁возьми	-9.14332
▁бою	-9.14351
▁женщин	-9.14373
▁трудно	-9.14462
▁месте	-9.14471
▁испуга	-9.14476
▁злоб	-9.15042
▁каких	-9.15073
▁таком	-9.15159
▁согласи	-9.15377
▁дам	-9.15454
уда	-9.15694
▁заклад	-9.15709
▁бол	-9.15843
▁журнал	-9.15928
▁схватил	-9.15944
енной	-9.16028
▁отчаяни	-9.16109
a	-9.1628
ан	-9.16523
▁двер	-9.16632
▁одном	-9.16664
▁ощущение	-9.16741
▁наши	-9.1684
медленно	-9.16939
видишь	-9.16967
▁показа	-9.17007
▁окна	-9.17042
▁бормотал	-9.17129
▁бумаг	-9.17129
▁перебил	-9.17129
▁захотел	-9.17131
▁исступлени	-9.17167
▁невест	-9.17246
▁мамаша	-9.17288
▁подробност	-9.17326
▁мук	-9.17508
▁дал	-9.1755
▁свидания	-9.17692
▁твердо	-9.17697
▁голова	-9.17847
▁знаком	-9.18006
▁одни	-9.18007
▁спокойно	-9.1821
чик	-9.18266
▁сердца	-9.18464
▁волнени	-9.18867
▁часы	-9.18935
▁отвращение	-9.19137
▁ск	-9.19137
▁цель	-9.19551
▁част	-9.19834
▁следу	-9.20222
▁видимо	-9.20265
▁вороти	-9.20371
▁дмитри	-9.20577
▁вслед	-9.20577
▁ii	-9.20591
▁громко	-9.20644
▁оттого	-9.20668
▁вещь	-9.20687
▁двор	-9.20717
▁дальше	-9.2075
ает	-9.20768
▁живет	-9.20866
▁пойдет	-9.2089
▁верите	-9.21029
▁след	-9.21222
3	-9.2132
▁делу	-9.21404
▁выражение	-9.21605
ру	-9.21933
▁твое	-9.21964
▁смотрит	-9.22278
▁вход	-9.22353
▁связ	-9.22522
▁эх	-9.22606
та	-9.2275
▁утро	-9.22766
ставить	-9.22868
▁глядел	-9.2288
▁всяком	-9.22898
▁другом	-9.22959
▁говоря	-9.22981
▁маленьк	-9.23328
▁замети	-9.23453
▁счита	-9.23613
▁стыд	-9.2396
▁около	-9.24034
▁трактир	-9.24112
▁иванович	-9.24149
▁изволил	-9.24149
▁мещанин	-9.24152
▁каса	-9.24162
▁невозможно	-9.24185
▁строго	-9.24212
▁милостив	-9.2426
▁свете	-9.24331
▁полечк	-9.24336
▁выгод	-9.24401
▁четыре	-9.24413
▁колен	-9.24852
▁далеко	-9.25041
ц	-9.25567
▁возможно	-9.25896
ел	-9.26858
▁прежне	-9.27025
▁тоск	-9.27103
▁крик	-9.27276
вер	-9.27335
▁спрашива	-9.27419
▁лег	-9.27433
▁отца	-9.27457
▁мост	-9.27631
▁часу	-9.27646
▁дуне	-9.27814
▁писарев	-9.27852
▁университет	-9.27852
▁болезнь	-9.27853
▁памят	-9.27856
▁воз	-9.27892
▁представить	-9.27898
▁уме	-9.27928
▁стакан	-9.27955
ре	-9.28012
▁подушк	-9.28041
▁прощай	-9.28132
▁судар	-9.28201
▁каком	-9.28286
▁крепко	-9.28309
▁приду	-9.28342
таки	-9.28383
▁четверт	-9.284
▁отвеча	-9.28413
▁слушай	-9.28467
▁единственно	-9.2855
▁муж	-9.28818
▁испуг	-9.28946
▁упал	-9.29047
▁иль	-9.29241
▁тво	-9.29268
▁сумасшедши	-9.29351
▁вин	-9.29417
▁слышн	-9.29965
u	-9.29984
ский	-9.30196
▁прав	-9.3029
▁проспект	-9.30491
▁яви	-9.30765
▁ход	-9.30877
▁наше	-9.30912
це	-9.31004
ров	-9.31125
▁имею	-9.3135
чу	-9.3143
минутно	-9.3156
ер	-9.31594
юю	-9.31618
▁анализ	-9.31698
▁прокофьич	-9.31699
▁канав	-9.31699
▁человечеств	-9.31727
▁степен	-9.31742
▁чутьчут	-9.31755
▁хехехе	-9.31763
га	-9.31801
ились	-9.31895
▁никаких	-9.31907
▁недел	-9.31961
▁самую	-9.32038
▁сознани	-9.32051
▁настояще	-9.32066
▁шум	-9.3214
▁работник	-9.32187
▁миколка	-9.3221
▁отчего	-9.32317
говорить	-9.32342
▁снова	-9.32372
▁помнил	-9.32475
▁зара	-9.32494
▁думать	-9.32495
▁вынул	-9.32623
▁наказание	-9.32627
щи	-9.32655
▁болезненно	-9.32764
▁впечатлени	-9.32838
▁любопытно	-9.33092
▁оставил	-9.33243
▁плач	-9.33433
▁убийства	-9.33679
▁пришл	-9.33724
ения	-9.34006
▁пят	-9.34206
▁паль	-9.34209
▁идет	-9.34252
нет	-9.34539
▁знакомы	-9.34554
чувствовал	-9.34645
▁крест	-9.35073
▁всяко	-9.35185
▁чувства	-9.35223
▁камень	-9.35699
▁никодим	-9.35699
▁фомич	-9.35699
▁поразил	-9.35699
▁оставь	-9.35701
▁кричит	-9.35705
▁скажите	-9.35751
▁проходил	-9.3577
▁героя	-9.35859
▁резк	-9.35956
▁5	-9.35958
▁сад	-9.35974
▁урок	-9.36109
▁начало	-9.36315
▁второй	-9.36333
▁грудь	-9.3636
▁маленьки	-9.36366
▁неожиданно	-9.36474
▁ворот	-9.36585
▁квартира	-9.36618
▁начина	-9.36638
▁русско	-9.36814
▁удар	-9.37322
▁положи	-9.37678
ро	-9.37859
▁постоянно	-9.37891
▁делает	-9.38073
вшая	-9.38252
▁моем	-9.38278
▁главн	-9.38299
▁чиновник	-9.38479
▁смел	-9.38618
▁выходит	-9.38867
▁удивление	-9.3896
▁петербургск	-9.39013
ще	-9.39129
▁окн	-9.39242
▁целу	-9.39254
▁прежни	-9.39281
▁часа	-9.39286
▁дале	-9.39338
▁тороп	-9.39477
нный	-9.39656
ры	-9.39701
▁счет	-9.39731
ты	-9.39753
енных	-9.39832
▁странн	-9.3986
▁старушонк	-9.39865
▁копе	-9.39866
▁борьб	-9.39866
▁порог	-9.39869
▁1867	-9.3987
▁части	-9.39903
▁послышал	-9.39925
▁побежал	-9.39978
▁дверей	-9.39991
▁шесть	-9.39992
▁може	-9.39998
▁тон	-9.40212
▁спрашивал	-9.40254
▁благородны	-9.40322
▁пьяны	-9.40359
вшей	-9.40414
▁нумер	-9.40463
▁рубля	-9.40648
дней	-9.40652
зза	-9.40657
▁стары	-9.40773
▁окно	-9.40861
▁кажд	-9.4105
за	-9.41064
▁другим	-9.41072
▁будем	-9.41173
▁убежден	-9.41235
▁картин	-9.41273
ба	-9.4132
▁недоумени	-9.41761
▁нравственно	-9.41809
▁лист	-9.41975
▁кому	-9.41998
▁молчание	-9.42014
итесь	-9.42038
ющий	-9.4207
▁благородно	-9.42134
▁конце	-9.42308
▁психологически	-9.42338
▁немедленно	-9.42409
ского	-9.4244
▁авдотье	-9.42676
▁полу	-9.42908
▁разврат	-9.43126
▁такую	-9.43207
ижу	-9.43207
▁мно	-9.4329
▁широко	-9.43311
▁судьб	-9.43317
▁стола	-9.43421
по	-9.43587
▁всяк	-9.43762
йтесь	-9.43768
▁внимани	-9.43876
▁мечта	-9.43967
ние	-9.4407
▁здоров	-9.44197
▁сапог	-9.44213
▁письмоводител	-9.44213
▁наплева	-9.44213
▁труд	-9.44214
▁крови	-9.44223
▁баб	-9.44238
▁полтор	-9.44243
▁заговорил	-9.4432
десят	-9.44357
лен	-9.44415
▁фу	-9.44487
▁коль	-9.44591
▁принять	-9.44736
вать	-9.4516
ний	-9.45394
▁рассказ	-9.45472
▁холод	-9.45486
▁аль	-9.45525
▁спросить	-9.45632
видимом	-9.46043
▁последний	-9.46062
▁желаю	-9.46204
▁ума	-9.4627
чать	-9.46374
▁выход	-9.46381
ует	-9.46417
▁нашел	-9.46517
▁взгляда	-9.46652
▁необыкновенно	-9.46726
▁полн	-9.46828
▁пер	-9.46832
ед	-9.46969
▁пора	-9.47168
▁дворе	-9.47181
▁пришли	-9.47233
▁представля	-9.47288
▁одет	-9.47393
▁обыкновенно	-9.47438
просить	-9.47443
▁конца	-9.47478
па	-9.47621
▁стольк	-9.47744
ход	-9.47897
жды	-9.4804
▁бес	-9.48041
ской	-9.48085
ча	-9.48258
▁сен	-9.48261
▁будуще	-9.48312
▁спал	-9.4843
▁иные	-9.48585
▁пойдем	-9.48713
▁обстановк	-9.48759
▁адрес	-9.48759
▁вслух	-9.48759
▁очеред	-9.48759
▁глядя	-9.4876
▁честь	-9.48766
▁бывало	-9.48771
ежь	-9.48771
▁сирот	-9.48777
▁подхватил	-9.48829
▁фуражк	-9.48836
▁жильц	-9.48859
▁трех	-9.48885
▁ст	-9.48986
▁вскочил	-9.49002
▁замолчал	-9.49106
▁сверх	-9.49151
▁ба	-9.49184
▁добры	-9.49253
▁дас	-9.49287
6	-9.49544
▁раздражительно	-9.49565
▁выходил	-9.49586
▁помнит	-9.49649
ойти	-9.49663
▁дни	-9.49747
▁злобно	-9.49754
▁vii	-9.49826
▁рассказал	-9.4998
▁стар	-9.5001
▁особенны	-9.5004
▁белье	-9.50044
ющих	-9.50116
мест	-9.50168
▁взглянул	-9.50199
▁внезапно	-9.50248
▁дверям	-9.50389
правду	-9.50457
ща	-9.50527
▁достоевским	-9.50547
▁контору	-9.50586
▁пошл	-9.50699
▁евангели	-9.50799
чем	-9.50856
▁молод	-9.50868
▁очнул	-9.51131
▁ушл	-9.51154
▁протянул	-9.51274
енно	-9.51403
волосы	-9.51466
ком	-9.51466
под	-9.51549
щего	-9.51592
часа	-9.51597
▁пункт	-9.51706
▁шляп	-9.518
▁сред	-9.52074
ик	-9.52097
5	-9.52312
▁бо	-9.52321
▁приподнял	-9.5235
▁го	-9.5242
▁правд	-9.52424
хожу	-9.52449
конец	-9.53127
▁сон	-9.53299
▁русски	-9.53312
ально	-9.53321
▁осторожно	-9.53333
▁обморок	-9.5352
▁процент	-9.5352
▁тревог	-9.5352
▁изволит	-9.53521
▁воскликнул	-9.53521
▁повторил	-9.53521
▁жаль	-9.53525
▁робко	-9.53526
▁забот	-9.53529
▁подобно	-9.53545
▁москв	-9.53546
▁усмехну	-9.53548
▁нищет	-9.53562
▁сидит	-9.53639
▁глупо	-9.53751
▁чаю	-9.53752
▁милый	-9.53767
▁всякий	-9.53884
▁легко	-9.53959
▁социально	-9.53996
жу	-9.54384
▁убийца	-9.54536
роде	-9.54562
en	-9.54605
▁работа	-9.54679
▁старая	-9.5478
вел	-9.54799
▁желание	-9.5494
▁сын	-9.54984
▁дел	-9.55093
▁дороге	-9.55151
▁па	-9.55241
▁власт	-9.55319
ложил	-9.5532
▁холодно	-9.55367
жешь	-9.55935
▁приятно	-9.56049
▁печат	-9.56135
▁считал	-9.56276
▁эк	-9.5644
▁кох	-9.56493
▁обстоятельства	-9.56588
▁матер	-9.56764
▁плакал	-9.5709
▁мертв	-9.57238
▁обществе	-9.5739
ту	-9.57402
▁жил	-9.5746
▁литератур	-9.57496
держать	-9.57583
▁будь	-9.57792
▁убийств	-9.57899
▁попал	-9.57949
▁вр	-9.58098
▁богат	-9.58106
▁старухи	-9.58229
ете	-9.58353
ешься	-9.58388
▁наполеон	-9.58432
▁ейбогу	-9.5852
▁каморк	-9.5852
▁повторял	-9.5852
▁тридцать	-9.5852
▁семейств	-9.58521
▁отворил	-9.58522
▁весело	-9.58527
▁мелькнул	-9.58533
▁засмеял	-9.58553
▁пятнадцат	-9.58577
▁нужно	-9.58586
▁семен	-9.58603
▁продолжа	-9.58651
▁дочер	-9.58671
▁откуда	-9.58677
▁тип	-9.58694
▁поспешил	-9.58743
ства	-9.58748
▁слышит	-9.58856
ший	-9.58869
▁поглядел	-9.58895
▁половин	-9.59081
▁бледно	-9.59105
ими	-9.59164
▁вечера	-9.59371
▁идей	-9.5957
▁положение	-9.59646
▁гор	-9.59679
▁обеда	-9.59691
нием	-9.59727
▁прошу	-9.59888
▁дрожа	-9.6005
▁вышло	-9.60229
▁велико	-9.60245
▁выходя	-9.60295
▁возможност	-9.60524
▁помни	-9.60666
ест	-9.60677
▁кар	-9.60698
▁разны	-9.607
▁вошл	-9.60776
▁лизавету	-9.608
▁людя	-9.60901
▁тел	-9.60964
следствие	-9.60976
▁дико	-9.61127
▁станови	-9.61161
▁беспокойте	-9.6122
дил	-9.61273
▁ч	-9.61289
▁рассказа	-9.61454
▁наслаждени	-9.61597
▁спин	-9.61601
▁чувству	-9.6163
▁слав	-9.61643
▁некоторым	-9.61765
▁р	-9.61798
ша	-9.61849
ейшим	-9.6198
щей	-9.62035
▁собственны	-9.62245
▁задыха	-9.62441
▁письме	-9.62637
▁преступник	-9.62734
▁молоды	-9.6279
▁другая	-9.62803
▁груд	-9.62914
▁отзыв	-9.62986
▁обрат	-9.63042
▁статья	-9.63178
ряд	-9.63632
▁решен	-9.63647
▁ваши	-9.63697
▁темно	-9.63708
▁площад	-9.63771
▁кончил	-9.63779
▁невольно	-9.63784
▁произошл	-9.63784
▁револьвер	-9.63784
▁сундук	-9.63784
▁сущност	-9.63784
▁тротуар	-9.63784
▁эпох	-9.63784
▁особо	-9.63785
▁ярко	-9.6379
▁телег	-9.63797
▁просну	-9.63803
▁подобны	-9.63807
▁покойник	-9.63811
▁надежд	-9.63827
▁забыть	-9.63854
▁запор	-9.63871
▁поручик	-9.63871
▁прид	-9.63907
▁пойдемте	-9.63934
▁остров	-9.63974
▁начнет	-9.63983
▁душе	-9.64009
▁пе	-9.64016
▁извольте	-9.64094
▁роди	-9.64264
▁постель	-9.64409
▁пойм	-9.64467
▁поминк	-9.64497
▁ныне	-9.64536
▁видели	-9.6456
ств	-9.64591
▁стоя	-9.64594
▁круг	-9.64625
▁малейше	-9.64641
▁письма	-9.64661
▁губ	-9.64733
даст	-9.64845
▁разда	-9.64863
▁читать	-9.65023
▁обстоятельство	-9.65057
▁чувств	-9.65123
▁люд	-9.65127
давать	-9.65212
ше	-9.65322
▁дожд	-9.65468
▁получи	-9.65522
▁смысле	-9.65728
▁случая	-9.6581
▁распивочн	-9.65834
▁права	-9.65961
щая	-9.65992
пе	-9.66061
▁критик	-9.66083
▁жалко	-9.66168
▁пяти	-9.66191
нимаешь	-9.66294
▁старуху	-9.66322
▁поступ	-9.66374
▁слышали	-9.66695
▁вспомни	-9.66761
▁истории	-9.66868
три	-9.66888
▁стара	-9.67078
дел	-9.67088
▁сошел	-9.67106
▁сход	-9.67205
▁дорого	-9.67256
▁встретил	-9.67345
▁кармана	-9.67373
▁мужа	-9.67485
▁вашим	-9.67486
▁сказа	-9.67718
▁добр	-9.6775
▁души	-9.67919
▁цели	-9.68153
▁обязан	-9.6822
▁серди	-9.68248
▁странны	-9.68294
▁настоящи	-9.68393
▁общи	-9.68423
▁посмотре	-9.68616
▁n	-9.68877
▁чрез	-9.69115
цы	-9.69137
ца	-9.69208
▁аркади	-9.69339
▁ожидал	-9.69339
▁гроб	-9.6934
▁коммун	-9.6934
▁предположи	-9.6934
▁вестник	-9.69341
▁текст	-9.69343
овтор	-9.69364
возь	-9.69374
ведет	-9.6938
▁снял	-9.69426
ность	-9.69429
▁никому	-9.69438
▁роль	-9.69442
▁лежит	-9.69468
▁обид	-9.69479
▁обернул	-9.69484
▁дрожал	-9.69522
▁искренно	-9.69532
▁стыдно	-9.69569
▁бумажк	-9.69571
рот	-9.69877
▁видя	-9.6988
▁служб	-9.69902
▁спит	-9.6993
▁страхов	-9.70023
▁увидал	-9.70023
▁общественно	-9.70127
▁нос	-9.7021
▁идеи	-9.70234
▁авдоть	-9.7036
▁неподвижно	-9.70394
▁отда	-9.70416
▁ср	-9.70472
▁деревн	-9.70488
▁пользу	-9.70554
▁наде	-9.70592
▁книг	-9.70694
▁находил	-9.70757
бывает	-9.70878
▁вчерашни	-9.70888
ейши	-9.71059
▁припомнил	-9.7131
▁женщины	-9.71456
▁пожар	-9.71788
▁утр	-9.71836
▁глав	-9.71838
чки	-9.71917
вает	-9.71953
ности	-9.72014
ющего	-9.7222
▁свеч	-9.72241
▁бросила	-9.72276
шая	-9.72481
▁боял	-9.72581
▁полез	-9.72667
▁желал	-9.72838
▁ребен	-9.72873
▁чисто	-9.72892
▁видит	-9.72907
▁любопытство	-9.72908
▁черта	-9.72915
▁устал	-9.72929
▁бога	-9.7295
▁мрачно	-9.72974
шка	-9.73043
▁дворника	-9.73073
▁правы	-9.73077
▁убеждени	-9.73092
▁голуб	-9.73182
▁богу	-9.73442
▁кудато	-9.73473
▁взгляну	-9.73549
носить	-9.73613
▁зап	-9.73634
▁расчет	-9.73656
▁объявил	-9.73696
▁плеч	-9.73746
▁спас	-9.73781
▁города	-9.73791
▁пр	-9.74109
▁молодо	-9.74154
▁проходя	-9.74179
вы	-9.7424
▁зло	-9.74292
▁бросить	-9.74349
▁объяснить	-9.74483
▁постел	-9.74529
▁дверя	-9.74536
▁ради	-9.7463
лет	-9.74674
▁кра	-9.74705
▁свидани	-9.74717
▁раздража	-9.74766
бежать	-9.74813
▁потерял	-9.74824
чен	-9.74961
▁16	-9.75027
▁спеш	-9.75048
шего	-9.75083
▁сильне	-9.75126
▁гром	-9.75141
▁капитал	-9.75175
▁послушай	-9.75183
▁публик	-9.75217
▁колокольчик	-9.75221
▁мальчишк	-9.75221
▁пишет	-9.75221
▁восемь	-9.75222
▁привычк	-9.75222
▁выпил	-9.75223
▁костюм	-9.75223
▁данилов	-9.75226
▁план	-9.75232
▁согласен	-9.75232
▁повод	-9.75233
▁митьк	-9.75237
▁хаха	-9.75244
▁шепот	-9.75257
▁материал	-9.75266
▁известны	-9.75274
▁попросил	-9.75291
▁бесконечно	-9.75292
тихоньк	-9.75295
▁отрезал	-9.75318
▁софье	-9.75327
▁страдание	-9.75369
▁жена	-9.75381
▁добра	-9.75438
▁помня	-9.75455
▁грех	-9.75459
in	-9.75463
▁ногам	-9.75466
▁186	-9.75547
▁отношении	-9.75574
▁человеческо	-9.75578
▁кабак	-9.75583
дка	-9.7566
▁дойд	-9.75674
до	-9.75729
▁слушать	-9.75737
▁выше	-9.75766
▁строк	-9.75795
▁неизвестно	-9.75833
тельно	-9.75851
▁берет	-9.75876
▁грубо	-9.75911
▁ощущени	-9.75918
▁худо	-9.75937
▁побледнел	-9.75937
▁петь	-9.76033
an	-9.76062
▁слабо	-9.76064
▁вечером	-9.76221
дет	-9.76286
▁совести	-9.76454
▁смотри	-9.76653
▁идея	-9.76654
▁свобод	-9.76671
▁дороги	-9.76694
▁боль	-9.7673
▁похоже	-9.76837
▁предмет	-9.76943
▁достоинств	-9.76971
▁ночью	-9.76989
▁услышал	-9.7701
ф	-9.77027
▁надобно	-9.77059
▁толку	-9.77098
er	-9.77201
▁преступника	-9.77273
▁наслаждение	-9.77765
▁смешно	-9.77774
▁ох	-9.77777
▁комната	-9.77951
▁разу	-9.78229
▁10	-9.78317
▁виноват	-9.78336
бить	-9.78367
▁характера	-9.78446
▁положительно	-9.78557
▁личност	-9.78683
▁отворен	-9.78727
▁русском	-9.78741
тащил	-9.78792
ские	-9.78946
ина	-9.78998
▁нескольк	-9.79099
стию	-9.79123
▁разговора	-9.79394
▁наблюда	-9.79401
▁взяла	-9.79468
4	-9.7951
ходят	-9.79551
▁находит	-9.79591
вшее	-9.79835
▁молчал	-9.7984
▁острог	-9.79917
▁приехал	-9.80009
▁принцип	-9.80057
▁замечал	-9.80066
▁долг	-9.80119
вшую	-9.80225
▁похорон	-9.80231
▁бешенств	-9.80346
▁петербургски	-9.8036
дут	-9.80374
▁v	-9.80375
▁бледны	-9.80572
▁пу	-9.80883
дите	-9.81078
▁ударил	-9.81277
▁прос	-9.81316
▁запис	-9.8132
▁толст	-9.81323
пл	-9.8136
▁компани	-9.81471
▁коридор	-9.81471
▁мальчик	-9.81471
▁иисус	-9.81472
▁выразил	-9.81472
▁звук	-9.81472
▁заходил	-9.81472
▁одеяло	-9.81472
▁увидит	-9.81472
▁кошелек	-9.81473
▁язык	-9.81473
▁лавк	-9.81473
▁лазар	-9.81473
▁кулак	-9.81474
▁манер	-9.81481
▁хозяин	-9.81482
▁примеч	-9.81482
▁живу	-9.81488
▁больниц	-9.81497
▁платок	-9.81513
▁угодно	-9.81515
▁ворота	-9.81524
▁опустил	-9.8162
▁офицер	-9.81667
▁март	-9.81675
▁привел	-9.81691
▁прочим	-9.81743
сп	-9.81758
▁честны	-9.81759
▁просил	-9.81824
▁берег	-9.81947
ресс	-9.81976
▁слаб	-9.82039
▁звал	-9.82048
▁ожидании	-9.82123
▁неприятно	-9.82139
▁вопроса	-9.82182
▁краск	-9.82182
нос	-9.8226
▁удивил	-9.82262
▁низки	-9.82353
▁дорогу	-9.82355
▁девиц	-9.82466
▁состояние	-9.82581
▁ваших	-9.82616
▁рода	-9.82632
▁книжк	-9.8266
▁перестал	-9.82684
27	-9.82692
▁пить	-9.82799
▁входил	-9.82807
▁средства	-9.82813
▁страшны	-9.83104
▁странным	-9.83166
▁познакоми	-9.83177
▁вынес	-9.83229
▁соч	-9.83259
▁разряд	-9.83323
▁беспрерывно	-9.83403
▁мучил	-9.83459
▁больны	-9.83459
▁случа	-9.83509
точь	-9.83593
▁ошибк	-9.83665
▁посмотри	-9.83738
ение	-9.8394
дать	-9.83942
ятся	-9.84047
▁страда	-9.84109
ают	-9.84522
▁сообщил	-9.84691
▁догада	-9.84791
▁покойн	-9.84884
▁толк	-9.84916
▁удовольствие	-9.85113
▁написал	-9.85296
▁обрадова	-9.85298
▁фигур	-9.85359
▁помоч	-9.85497
▁каков	-9.85611
ряду	-9.85658
▁третье	-9.85828
ника	-9.85891
ены	-9.85899
▁высок	-9.85962
▁ре	-9.86162
сюда	-9.8624
▁замеча	-9.86333
▁беспокойство	-9.86366
▁задумчивост	-9.86538
▁жертв	-9.86561
нная	-9.86567
▁крайн	-9.86792
▁отвори	-9.86898
▁воздух	-9.86996
губы	-9.87239
▁рост	-9.87251
ках	-9.87267
фу	-9.87349
▁наук	-9.87403
ова	-9.87554
▁умер	-9.87568
▁отц	-9.87577
род	-9.87642
▁отправи	-9.87738
верить	-9.87791
▁сделан	-9.87877
▁собственн	-9.87902
▁делал	-9.87935
▁целы	-9.87987
▁скажи	-9.88052
ньше	-9.88054
ошла	-9.88064
▁секрет	-9.88135
▁восторг	-9.88138
▁одиннадцат	-9.88138
▁представь	-9.88138
▁раздумь	-9.88138
▁рубашк	-9.88138
▁сибир	-9.88138
▁огромно	-9.88138
▁фамили	-9.88139
▁расскаж	-9.8814
▁принужден	-9.88144
▁дыр	-9.88148
▁личико	-9.88152
▁усмешк	-9.88154
▁намерения	-9.88164
▁велел	-9.88181
▁мысле	-9.88215
▁мужик	-9.88216
▁един	-9.88226
▁намерение	-9.88324
▁убежит	-9.88348
▁нечаянно	-9.88376
▁увлек	-9.88385
▁столик	-9.88386
зи	-9.88388
▁поверил	-9.88399
▁дрян	-9.88422
▁спешил	-9.88424
▁лб	-9.8855
▁явля	-9.88584
ву	-9.88589
▁сонечка	-9.88603
▁креп	-9.88689
▁близ	-9.88693
▁убили	-9.88735
▁девят	-9.88753
▁речь	-9.88763
▁рассудк	-9.88929
ждать	-9.88993
▁указал	-9.88995
ья	-9.89048
▁исход	-9.89112
▁скажет	-9.89206
▁воздуху	-9.89294
▁случаю	-9.89428
▁настоящ	-9.89467
▁гостя	-9.89472
▁ясны	-9.89645
▁горд	-9.89695
вшему	-9.8983
▁изре	-9.8994
▁глупы	-9.90011
ину	-9.90049
▁мрачны	-9.90095
ющие	-9.9016
▁втор	-9.90192
лу	-9.90289
▁серьезны	-9.90348
вая	-9.90361
▁беру	-9.90527
▁обеим	-9.90687
▁30	-9.90721
▁припомина	-9.90742
▁встава	-9.90762
▁кн	-9.91038
▁сади	-9.91112
▁переулк	-9.91139
лево	-9.91367
▁намек	-9.91425
тер	-9.91463
ливо	-9.91501
▁сестриц	-9.91513
▁кухн	-9.91571
▁убеждения	-9.91824
18	-9.91874
щих	-9.919
об	-9.91912
▁направ	-9.91917
▁прежн	-9.9194
▁появи	-9.92013
▁психологическ	-9.92024
▁собр	-9.92115
▁жела	-9.92186
▁страшн	-9.92242
▁будущем	-9.92265
▁мучительно	-9.92315
сел	-9.92405
▁разгляде	-9.92426
▁сорок	-9.92475
вшим	-9.92607
разу	-9.92681
▁смысл	-9.92734
▁люби	-9.92905
последстви	-9.93122
▁влияние	-9.9323
▁безобразно	-9.93476
▁тро	-9.93481
▁добро	-9.93853
▁стоят	-9.93957
▁петл	-9.9397
▁спа	-9.93973
▁сне	-9.94263
▁товарищ	-9.94314
есть	-9.94745
▁24	-9.94751
▁первом	-9.94781
▁случайно	-9.94819
▁тело	-9.94855
▁мельк	-9.94887
▁наполеона	-9.94953
▁отдал	-9.95151
▁горе	-9.9516
ист	-9.95166
▁сказали	-9.95201
▁упор	-9.95205
▁полны	-9.95212
▁поэт	-9.95213
▁лихорадк	-9.95281
▁эпизод	-9.95281
▁пенсион	-9.95285
▁советник	-9.95301
▁навек	-9.95324
▁десяти	-9.95336
верьте	-9.95339
мок	-9.95351
▁деловой	-9.95355
▁нумера	-9.95393
▁натур	-9.95418
▁чуд	-9.95446
▁уверяю	-9.95585
▁поставил	-9.95637
▁тогдашне	-9.9566
▁воскресени	-9.95667
▁черн	-9.95705
пустя	-9.95706
▁мнение	-9.9573
▁пришлось	-9.95748
▁угла	-9.95788
▁грустно	-9.95846
▁беспокоить	-9.95852
iv	-9.96006
▁стану	-9.96058
▁возвраща	-9.96063
йдет	-9.96136
▁встреч	-9.96171
▁поворотил	-9.96173
▁лохмотья	-9.96318
▁свидетельству	-9.96349
▁оказа	-9.96385
▁8	-9.96408
▁развити	-9.96426
▁вообразит	-9.96487
легка	-9.9651
нуть	-9.96543
▁неприлично	-9.96701
▁броса	-9.96712
ниц	-9.96736
▁ложк	-9.96778
▁двора	-9.96819
▁неожиданны	-9.96846
▁удивлени	-9.96877
▁17	-9.96908
▁чистот	-9.96953
▁улыба	-9.96955
▁современно	-9.96996
56	-9.97046
▁велик	-9.97109
ата	-9.9717
▁приезд	-9.97179
9	-9.97182
▁способствовал	-9.97256
▁показать	-9.9728
енный	-9.97332
▁годах	-9.97408
▁начинала	-9.97435
▁обои	-9.9747
▁справедливо	-9.97474
▁голоса	-9.97502
▁бед	-9.97544
▁важн	-9.97555
▁оглядел	-9.97599
▁удивля	-9.97692
▁чиновника	-9.97742
▁мал	-9.97797
право	-9.98097
▁задумчиво	-9.98117
▁ужасн	-9.98182
▁перенес	-9.9837
▁усилие	-9.98402
хать	-9.98463
▁запер	-9.98646
▁нравственны	-9.98708
▁нашей	-9.98766
▁оказал	-9.98832
▁хороши	-9.9894
▁гляде	-9.98954
▁улыбнул	-9.98955
▁войн	-9.99024
▁поздн	-9.99026
▁ран	-9.99041
▁твои	-9.99069
▁улыбну	-9.99157
жа	-9.99256
▁рассчитыва	-9.99315
прям	-9.99363
▁лу	-9.99399
▁угрюмо	-9.99403
▁необходимо	-9.99444
▁осмотрел	-9.99454
▁сообщи	-9.99512
идишь	-9.99577
▁кем	-9.99621
вают	-9.9963
так	-9.99637
▁мер	-9.9965
▁одн	-9.99667
▁охот	-9.99706
▁помолчал	-9.99761
ительно	-9.99808
▁прощени	-9.99841
▁подвиг	-9.99903
▁убийство	-9.9999
▁лестница	-9.9999
▁незнаком	-10.0002
▁надею	-10.0008
▁современник	-10.0014
▁обыкновенны	-10.0022
▁хлеб	-10.0026
▁зато	-10.0028
ойдя	-10.0038
▁умерл	-10.0071
казания	-10.0082
щу	-10.0089
ском	-10.01
прошу	-10.0102
on	-10.0105
▁пушкин	-10.0106
кончить	-10.0106
всегда	-10.0106
▁уход	-10.0107
▁ста	-10.0112
▁сомнени	-10.0112
▁вырвал	-10.0123
▁водк	-10.0125
▁натура	-10.013
эх	-10.013
▁начинал	-10.0135
щим	-10.0144
▁пошли	-10.0154
▁созна	-10.016
рд	-10.0207
▁подошл	-10.0208
▁лев	-10.0237
49	-10.025
▁начинает	-10.0255
▁пример	-10.0268
ила	-10.0271
▁бер	-10.0276
▁психологи	-10.028
▁мысля	-10.0282
▁существо	-10.0284
▁какому	-10.0294
▁митре	-10.0297
▁красильщик	-10.0297
▁любви	-10.0297
▁машин	-10.0297
▁противоположн	-10.0297
▁открыл	-10.0297
▁отозвал	-10.0297
▁английск	-10.0297
▁значени	-10.0298
удить	-10.0298
▁крошечн	-10.0298
▁рассмея	-10.0298
▁комод	-10.0298
▁целковы	-10.0298
▁постоял	-10.0298
▁прервал	-10.0298
▁помилуйте	-10.0298
▁меньше	-10.03
▁миллион	-10.03
▁поспешно	-10.03
▁границ	-10.0301
▁приготовил	-10.0301
▁1861	-10.0302
▁станет	-10.0303
▁близки	-10.0303
ско	-10.0304
ближе	-10.0305
▁извозчик	-10.0306
▁удивительно	-10.0306
▁заперта	-10.0307
▁ошиб	-10.0308
▁задрожал	-10.0313
▁умр	-10.0314
▁беспокоил	-10.0316
▁тварь	-10.0317
▁прощайте	-10.0318
▁россии	-10.032
▁мучить	-10.032
▁сорвал	-10.0321
▁спуская	-10.0324
▁лжет	-10.0326
▁понятно	-10.0326
▁просьб	-10.0329
▁воспоминания	-10.0332
▁демократическ	-10.0335
▁нагнул	-10.0337
▁суп	-10.0337
▁вдов	-10.0348
▁пью	-10.0349
▁поцеловал	-10.0351
▁возьму	-10.0351
▁прислал	-10.0353
▁черно	-10.0357
▁речи	-10.0363
▁усиленно	-10.0365
▁вспыхнул	-10.037
▁глупа	-10.0373
▁нашем	-10.0373
▁городово	-10.0377
▁скверно	-10.0388
▁кругл	-10.0392
▁молни	-10.04
▁зелен	-10.0401
▁подозрения	-10.041
▁выдержал	-10.0425
▁рассказывал	-10.0426
▁ос	-10.0428
▁поражен	-10.0434
▁передал	-10.044
овать	-10.0441
▁принима	-10.0455
прав	-10.0462
▁считаю	-10.0463
▁задума	-10.0485
▁пору	-10.0487
▁объясня	-10.0495
▁каждое	-10.0499
▁лен	-10.0523
▁считает	-10.0533
▁русск	-10.0561
ывать	-10.0576
▁бедно	-10.0579
▁жест	-10.0586
▁солнце	-10.0589
▁негодование	-10.059
влечь	-10.0604
▁схватила	-10.0605
▁имени	-10.0611
▁пил	-10.062
шу	-10.0623
▁ребенк	-10.0625
▁остроге	-10.0625
▁гост	-10.0635
▁счастье	-10.064
▁важно	-10.0642
▁слыш	-10.0651
▁тревожно	-10.0655
▁форма	-10.0657
▁петру	-10.0659
▁книга	-10.0663
енькая	-10.0671
▁недели	-10.0677
▁священник	-10.0693
стать	-10.0698
▁низко	-10.0729
▁способ	-10.0729
▁ноч	-10.0731
ьми	-10.0732
▁каждым	-10.0742
▁a	-10.0745
7	-10.0748
чер	-10.0752
▁последн	-10.0765
▁задумал	-10.0786
▁изд	-10.079
▁i	-10.0792
▁маленько	-10.0804
▁кончи	-10.0826
▁разум	-10.0826
▁кнут	-10.0834
рис	-10.0849
▁французско	-10.0855
оль	-10.0864
▁рассуди	-10.0867
▁газета	-10.087
▁сделаю	-10.0873
▁дорог	-10.0874
▁потеря	-10.0882
▁собственным	-10.0889
▁социальны	-10.0889
63	-10.0889
▁собира	-10.0894
▁предлага	-10.091
▁сей	-10.0917
▁заведени	-10.0917
▁ан	-10.0924
▁находи	-10.0927
vii	-10.0936
прежн	-10.0939
▁полици	-10.0945
▁ален	-10.0947
▁пал	-10.095
долго	-10.0967
илья	-10.0969
▁достал	-10.0971
▁остр	-10.0972
▁торжеств	-10.0974
енная	-10.0978
▁арестант	-10.0984
▁расп	-10.0984
▁опыт	-10.0988
▁зла	-10.0999
▁какою	-10.1011
▁поворот	-10.1027
▁новым	-10.1028
▁четверты	-10.1034
▁цвет	-10.1038
▁жен	-10.1064
▁подняла	-10.1089
▁выйд	-10.1093
▁останови	-10.1095
▁приговор	-10.1103
▁дошл	-10.1103
▁смотр	-10.1109
▁терпе	-10.111
▁вспомина	-10.1119
▁мат	-10.113
▁генерал	-10.113
▁мотив	-10.1131
▁тридцати	-10.1131
▁фантази	-10.1131
▁выразить	-10.1131
▁губерни	-10.1131
▁дрожь	-10.1131
▁захохотал	-10.1131
▁неофитов	-10.1131
▁слыхал	-10.1131
▁жажд	-10.1131
▁рассужда	-10.1131
▁серьг	-10.1131
▁просидел	-10.1131
▁деятельност	-10.1131
▁смущени	-10.1131
▁нервы	-10.1131
▁бессили	-10.1131
▁потребност	-10.1131
▁решимость	-10.1132
▁неудач	-10.1132
▁арми	-10.1132
▁заяви	-10.1132
▁представил	-10.1132
▁кротк	-10.1133
▁допрашива	-10.1136
▁верст	-10.1138
▁следовал	-10.1138
▁отлично	-10.1141
▁капитальн	-10.1144
▁интересует	-10.1144
▁поход	-10.1145
▁полицейски	-10.115
▁выбежал	-10.1152
▁близко	-10.1153
▁оборачивая	-10.1153
▁вопл	-10.1153
▁вечно	-10.1155
▁сумел	-10.1155
▁воротил	-10.116
▁прерыва	-10.1166
▁двадцати	-10.1167
▁искал	-10.1169
▁нашли	-10.1169
▁позор	-10.117
▁противоречи	-10.117
▁чист	-10.1173
▁развива	-10.1179
▁отношения	-10.1184
▁гг	-10.1184
▁сбежал	-10.1185
▁пуще	-10.1185
▁убежать	-10.119
▁больши	-10.1197
▁несчасти	-10.1198
▁сообща	-10.1198
▁понят	-10.1211
▁деревянн	-10.1211
▁такими	-10.1217
▁похороны	-10.1219
▁сидеть	-10.1229
▁заплакал	-10.1237
▁объясниться	-10.1239
ды	-10.124
▁устроить	-10.1242
▁верил	-10.1252
очки	-10.1255
▁статье	-10.1256
▁средств	-10.1263
▁туп	-10.1267
▁сер	-10.1273
▁общественны	-10.1278
▁верх	-10.1278
▁7	-10.129
жива	-10.1292
ушка	-10.1296
▁бедны	-10.1302
▁6	-10.131
▁закладчик	-10.1323
▁голод	-10.1326
▁значительно	-10.133
▁подозрени	-10.1357
▁образованн	-10.1361
▁цен	-10.1368
▁моих	-10.1369
▁дев	-10.1371
▁объяснение	-10.1373
▁оборван	-10.1378
▁11	-10.1379
▁глубоки	-10.1379
▁капит	-10.1382
▁вашем	-10.1382
▁молчани	-10.1385
▁надоел	-10.1397
▁встречал	-10.1403
▁ру	-10.1404
▁хорошенько	-10.1411
▁больна	-10.1414
чно	-10.1421
▁ошиба	-10.1424
▁спор	-10.1426
▁беда	-10.1435
▁сна	-10.1439
▁испуганно	-10.1447
▁уважение	-10.1452
▁пункта	-10.1462
ющим	-10.1467
▁сухо	-10.1468
▁наклон	-10.1468
▁герое	-10.1473
▁моим	-10.1477
▁главны	-10.148
▁написан	-10.1489
▁любопытств	-10.1491
▁лом	-10.1495
▁вздумал	-10.1505
▁становил	-10.151
▁ужаса	-10.1516
▁хозяйки	-10.1516
▁рассерди	-10.152
▁сходя	-10.1523
▁губам	-10.153
▁обещал	-10.1539
▁простить	-10.1549
▁мил	-10.1569
нова	-10.157
▁будущи	-10.1571
▁господ	-10.1575
▁пальце	-10.1587
▁кончить	-10.1589
пер	-10.1593
▁записк	-10.1595
8	-10.1626
▁32	-10.1629
▁протест	-10.164
мерно	-10.1642
▁прекрасн	-10.1652
вали	-10.1653
▁успоко	-10.1682
идят	-10.1693
▁сдела	-10.1694
▁узнав	-10.1704
▁ро	-10.1705
знача	-10.1705
▁счастливы	-10.1707
тельн	-10.1741
ню	-10.1742
▁предчувствовал	-10.1744
▁1864	-10.1767
▁крепост	-10.1777
▁остави	-10.1795
▁бел	-10.182
▁недоверчиво	-10.1827
▁раздавленн	-10.1828
▁сохрани	-10.1836
ложить	-10.1842
▁поведени	-10.1843
далеко	-10.1846
ство	-10.1865
▁видим	-10.1868
▁боли	-10.1874
ишься	-10.1882
▁развит	-10.1884
▁жили	-10.1898
▁приходила	-10.191
▁фатер	-10.1917
▁каторг	-10.1918
▁поднима	-10.1936
лил	-10.1944
▁учил	-10.1945
▁ощуща	-10.1949
▁тесн	-10.1956
▁плечо	-10.1958
▁софьи	-10.196
▁прост	-10.1968
▁карьер	-10.1969
▁большим	-10.198
▁реша	-10.1984
тянул	-10.199
▁волн	-10.2011
▁намерен	-10.2022
помнить	-10.2022
▁исполни	-10.2023
▁проклят	-10.2031
лих	-10.2032
▁опусти	-10.2039
▁федор	-10.2039
▁описан	-10.2039
▁ласков	-10.204
▁аршин	-10.204
▁микола	-10.204
▁наедине	-10.204
▁непосредственно	-10.204
▁перегородк	-10.204
▁переулок	-10.204
▁реформ	-10.204
▁секунд	-10.204
▁существует	-10.204
▁помощь	-10.204
▁провиантск	-10.204
▁ступай	-10.204
▁заторопи	-10.204
▁пышн	-10.204
▁момент	-10.204
▁исключительно	-10.204
▁обвинени	-10.204
▁смог	-10.204
▁провинци	-10.204
▁заключени	-10.204
ции	-10.2041
▁любя	-10.2041
падал	-10.2041
помал	-10.2041
▁постой	-10.2042
▁гнев	-10.2042
▁помощи	-10.2042
▁пива	-10.2044
▁прислушива	-10.2045
▁паче	-10.2045
▁покраснел	-10.2047
▁железн	-10.2047
▁зуб	-10.2048
▁отражени	-10.205
▁детя	-10.205
▁откровенно	-10.205
▁скамейк	-10.2051
▁пашеньк	-10.2051
▁мелоч	-10.2054
▁средне	-10.2058
▁следственн	-10.206
▁изумлени	-10.2063
перва	-10.2063
▁настойчиво	-10.2066
▁заключил	-10.2066
▁направлени	-10.2066
▁поступил	-10.2069
▁дыхани	-10.2069
▁напрасн	-10.2069
▁коля	-10.2072
▁двумя	-10.2074
▁порох	-10.2075
▁9	-10.2075
▁платья	-10.2078
▁оправдани	-10.2079
▁слух	-10.2081
▁духа	-10.2081
▁передать	-10.2084
тельны	-10.2088
смотреть	-10.2088
▁первое	-10.209
▁известн	-10.2091
▁задач	-10.2092
▁уйдет	-10.2093
▁плохо	-10.2095
▁повер	-10.2102
▁разузна	-10.2112
▁похож	-10.2117
▁наверх	-10.2117
пустить	-10.2123
читать	-10.2127
▁губа	-10.2127
ром	-10.2127
▁фактов	-10.2129
▁дурно	-10.2151
▁дунечки	-10.2155
▁печата	-10.2158
▁страдания	-10.2165
▁обраща	-10.2172
▁обидно	-10.2177
▁драм	-10.2178
▁замысл	-10.2184
▁пройти	-10.2187
▁бил	-10.2203
▁замечает	-10.2214
ивая	-10.2227
▁словам	-10.2236
▁жертву	-10.2262
▁сомнения	-10.2265
уж	-10.2269
▁обидел	-10.2271
▁имеют	-10.2272
▁мертво	-10.2283
▁общество	-10.2286
▁встретить	-10.2287
▁мол	-10.2288
▁разъясни	-10.2291
▁заведения	-10.2299
вшею	-10.2306
▁природ	-10.231
▁кор	-10.2311
23	-10.2314
▁жену	-10.2319
реш	-10.2338
▁плака	-10.2339
рут	-10.2355
▁некотор	-10.2377
▁журнала	-10.238
▁признак	-10.239
35	-10.2402
▁вос	-10.2415
▁припомни	-10.243
▁28	-10.2444
▁малы	-10.2453
▁хохота	-10.2455
альны	-10.2463
▁поко	-10.2466
▁прихож	-10.2476
▁настасью	-10.2481
стра	-10.2488
▁рассчитывал	-10.2495
▁уезд	-10.2497
дя	-10.2509
▁каждо	-10.2515
▁оде	-10.252
▁пис	-10.252
▁выговарива	-10.2524
▁подар	-10.2529
▁честн	-10.2541
▁защища	-10.2546
тый	-10.2549
▁размах	-10.2552
▁сделает	-10.2556
▁отн	-10.2563
▁ел	-10.2571
▁дама	-10.2574
▁13	-10.2587
▁особенн	-10.2589
▁называет	-10.2594
▁юридическо	-10.2627
▁веще	-10.2629
▁еже	-10.2633
▁пьяные	-10.264
▁испугал	-10.2651
▁распивочны	-10.2652
▁жду	-10.2658
77	-10.2665
▁отчаянно	-10.2691
щее	-10.2695
▁куч	-10.27
шей	-10.2701
▁написа	-10.2702
▁доста	-10.2709
ней	-10.2723
▁показыва	-10.2724
▁бело	-10.2731
рт	-10.2733
более	-10.2745
ному	-10.2747
▁спрятал	-10.2749
▁высоко	-10.275
40	-10.2759
▁зову	-10.276
▁успе	-10.2763
нные	-10.2764
▁капернаумов	-10.2772
▁предполага	-10.2774
стоя	-10.2804
▁изо	-10.2813
водя	-10.2816
▁замечани	-10.2822
ствовать	-10.2827
▁радост	-10.283
ере	-10.2831
леж	-10.2844
▁кат	-10.2844
▁помешанны	-10.285
ичь	-10.285
▁красны	-10.2855
▁значительн	-10.2857
▁отказать	-10.286
▁дерга	-10.2863
▁жилет	-10.2863
чам	-10.2864
▁сочинени	-10.288
▁продолжала	-10.2882
▁детско	-10.2884
бросить	-10.2885
▁вред	-10.29
ьев	-10.2929
▁болезненны	-10.2933
▁давешне	-10.2937
▁указыва	-10.2943
▁нетерпение	-10.2962
▁принадлеж	-10.2968
куда	-10.2973
▁подробн	-10.2979
▁груб	-10.2985
▁вывод	-10.2999
юдь	-10.3
▁жалова	-10.3018
▁обыск	-10.3019
▁числ	-10.302
▁имеете	-10.3024
▁рубл	-10.3035
греб	-10.3037
▁неприметн	-10.304
▁кашля	-10.304
▁людвиговн	-10.304
▁михайлович	-10.304
▁обыкновени	-10.304
▁преимуществ	-10.304
▁пригласил	-10.304
▁результат	-10.304
▁супруг	-10.304
▁америк	-10.304
▁бахром	-10.304
▁папеньк	-10.304
▁пестряков	-10.304
▁призрак	-10.304
▁солдат	-10.304
▁угроз	-10.304
▁отмечен	-10.304
▁повестк	-10.304
▁бульвар	-10.304
▁движение	-10.304
▁буль	-10.304
явления	-10.304
▁заплач	-10.304
▁произведения	-10.304
▁отчетливо	-10.304
▁сюжет	-10.304
▁отрывист	-10.304
▁выстрел	-10.3041
▁воспользова	-10.3041
▁глухо	-10.3041
▁гласн	-10.3041
▁мокры	-10.3041
▁утверждал	-10.3041
▁услови	-10.3041
▁родственник	-10.3041
воротн	-10.3041
▁похвальн	-10.3042
▁послал	-10.3042
▁гордость	-10.3042
▁бур	-10.3042
▁грош	-10.3042
эн	-10.3042
▁кивну	-10.3043
▁разреша	-10.3044
▁садитесь	-10.3045
▁возьмет	-10.3045
▁систем	-10.3048
ou	-10.3048
▁навз	-10.3049
▁шар	-10.305
▁милости	-10.305
помните	-10.3051
▁щелочк	-10.3051
▁пятна	-10.3051
▁комфорт	-10.3052
брови	-10.3052
▁шляпа	-10.3052
▁крюк	-10.3052
▁легки	-10.3053
▁стукнул	-10.3053
нье	-10.3054
▁человечески	-10.3055
▁клян	-10.3056
▁слабым	-10.3059
▁сказано	-10.3059
▁убежал	-10.306
▁отвернул	-10.3061
▁внушительн	-10.3064
▁заметно	-10.3064
▁сбил	-10.3064
▁интересовал	-10.3064
▁повинно	-10.3064
▁упорно	-10.3065
▁кровать	-10.3067
▁любовь	-10.3068
▁настаивал	-10.307
▁презрительно	-10.3075
еньки	-10.3078
▁опомнил	-10.3081
▁занимал	-10.3081
▁просит	-10.3087
▁совесть	-10.3091
вот	-10.3092
▁индивидуалист	-10.3094
▁смею	-10.3095
▁сообразил	-10.3095
▁развитие	-10.3096
▁свойств	-10.3101
▁способност	-10.3102
▁особенност	-10.3103
▁папироск	-10.3103
▁отвел	-10.3104
▁чуж	-10.3105
▁поколения	-10.3107
▁мари	-10.311
▁природы	-10.311
▁многом	-10.3111
▁хлопот	-10.3111
▁помеща	-10.3111
▁поля	-10.3115
рова	-10.3123
▁зайду	-10.3125
▁повалил	-10.3128
▁улики	-10.3132
вес	-10.3134
▁потащил	-10.314
▁привидени	-10.3141
▁замечательн	-10.3143
▁погиб	-10.3152
рывая	-10.3156
изм	-10.3161
▁хлопотал	-10.3162
▁издал	-10.3167
▁коробк	-10.3169
нимать	-10.317
▁форме	-10.3177
▁принимая	-10.3181
▁братц	-10.3183
▁драк	-10.3186
▁возможность	-10.3189
▁столе	-10.3192
▁мостов	-10.3194
▁носил	-10.3198
бывать	-10.3198
▁выражения	-10.3201
▁писа	-10.3208
▁даром	-10.3209
▁великодушн	-10.3217
▁лез	-10.3219
▁обороти	-10.3219
▁послуша	-10.322
▁рассматривать	-10.3222
▁штука	-10.3227
73	-10.3238
рвал	-10.324
▁требует	-10.3244
▁обязанност	-10.3249
▁смеете	-10.3251
▁теория	-10.3253
▁помога	-10.3253
▁мед	-10.3259
▁втором	-10.3262
▁перемен	-10.3272
▁займ	-10.3272
▁любим	-10.3274
чка	-10.3276
▁пришло	-10.3278
▁важны	-10.3282
▁прохожи	-10.3286
▁посадил	-10.3287
апель	-10.3292
▁числе	-10.3295
▁заплати	-10.3299
▁деньгам	-10.3302
▁нрави	-10.3309
▁объяви	-10.331
▁оставши	-10.3335
▁пусти	-10.3349
▁ужасе	-10.3355
крыть	-10.3356
кончив	-10.3359
▁душно	-10.3367
▁книги	-10.3377
▁теперешни	-10.3378
▁вздрагива	-10.3384
▁грязно	-10.3388
▁опасност	-10.3389
▁слышала	-10.3402
▁хорош	-10.3403
ент	-10.3403
▁ходит	-10.3407
▁шляпк	-10.3413
▁расспрашивал	-10.3421
▁собра	-10.3427
▁принесл	-10.344
▁зл	-10.3453
рос	-10.3459
▁необыкновенны	-10.3468
дом	-10.347
64	-10.3487
▁помолча	-10.3488
▁подума	-10.3494
▁велики	-10.3499
▁умны	-10.35
▁шагом	-10.3501
▁свидетеле	-10.3502
▁судьба	-10.3512
▁удал	-10.352
▁теря	-10.3521
▁отворила	-10.3523
▁перемени	-10.3529
▁обвини	-10.3532
▁приятн	-10.3537
▁куст	-10.354
▁перо	-10.3545
▁ус	-10.3549
▁показывал	-10.3555
▁отыскал	-10.3561
▁губк	-10.3568
▁литературно	-10.359
▁благо	-10.3592
10	-10.3599
▁бери	-10.361
▁переве	-10.3613
▁хороша	-10.3614
ничь	-10.3616
▁очну	-10.362
▁стиха	-10.3625
▁относи	-10.3627
▁улица	-10.3638
▁воротам	-10.3641
▁почт	-10.3649
▁сильны	-10.3655
▁счастлив	-10.3665
▁надел	-10.367
▁совершен	-10.3677
▁делам	-10.3678
▁з	-10.3693
▁ры	-10.3694
▁беспрерывны	-10.3698
▁участие	-10.3706
стан	-10.371
▁присутстви	-10.3718
валась	-10.372
▁теори	-10.3726
▁гроз	-10.3734
▁вопросительн	-10.3734
▁понрави	-10.3739
▁следит	-10.374
▁расспрашива	-10.3742
▁болта	-10.3745
▁каз	-10.3759
▁внутренн	-10.3764
▁взяли	-10.377
▁свидетельств	-10.3781
▁броси	-10.3796
▁новом	-10.3797
▁запира	-10.3806
▁выслуша	-10.3806
▁тесно	-10.3815
ющее	-10.383
▁бегу	-10.383
▁проблем	-10.3833
▁кон	-10.3837
▁сложн	-10.3845
▁рассудил	-10.385
▁действительност	-10.3852
▁конц	-10.3862
давал	-10.3864
▁явил	-10.3875
▁современн	-10.3885
44	-10.3887
пят	-10.3888
▁века	-10.3911
▁услыша	-10.3922
▁надея	-10.3927
▁прода	-10.393
ошли	-10.3934
▁убив	-10.3942
французски	-10.3946
▁нервн	-10.3962
▁сделала	-10.3966
▁снес	-10.3982
▁хитро	-10.3983
лез	-10.3984
▁всматрива	-10.4006
▁увида	-10.4013
▁сем	-10.4018
▁гн	-10.4019
ставил	-10.4034
▁забыв	-10.4045
▁вексел	-10.4045
▁дура	-10.4049
▁красно	-10.4051
лени	-10.4055
▁безобразны	-10.406
▁философ	-10.4068
▁причина	-10.4081
▁славн	-10.4086
▁соображени	-10.4093
▁мира	-10.4112
▁пара	-10.4112
80	-10.4114
двинул	-10.4117
▁служит	-10.4119
чит	-10.412
▁понима	-10.4136
▁кап	-10.4137
▁класс	-10.415
▁александр	-10.4151
▁юнош	-10.4151
▁остроумн	-10.4151
▁барышн	-10.4151
▁вдвое	-10.4151
▁вскачь	-10.4151
▁двенадцат	-10.4151
▁довольны	-10.4151
▁египетск	-10.4151
▁естественно	-10.4151
▁завещани	-10.4151
▁захарыч	-10.4151
▁ласенер	-10.4151
▁лошадь	-10.4151
▁озноб	-10.4151
▁панталон	-10.4151
▁позволю	-10.4151
▁позвонил	-10.4151
▁поссори	-10.4151
▁произвел	-10.4151
▁свадьб	-10.4151
▁скороговорк	-10.4151
▁тетрад	-10.4151
▁тюрьм	-10.4151
▁чахотк	-10.4151
▁экземпляр	-10.4151
скакива	-10.4151
▁гнусно	-10.4151
▁движения	-10.4151
▁документ	-10.4151
▁осужда	-10.4151
▁придержива	-10.4151
▁болтовн	-10.4151
▁зависи	-10.4151
▁огромны	-10.4151
▁поутру	-10.4151
▁напряженно	-10.4151
▁оценк	-10.4151
▁оттенк	-10.4151
▁слепо	-10.4151
▁sous	-10.4151
▁назначен	-10.4151
▁артельщик	-10.4151
▁постепенно	-10.4151
▁горько	-10.4151
▁душкин	-10.4151
▁глубин	-10.4151
▁талант	-10.4151
▁щегольск	-10.4151
▁свинь	-10.4151
▁поехал	-10.4151
▁павловн	-10.4151
▁судебны	-10.4151
▁тщательн	-10.4151
▁относительно	-10.4152
▁иоанн	-10.4152
▁нужны	-10.4152
канун	-10.4152
▁разрыв	-10.4152
▁рискнул	-10.4152
▁чин	-10.4152
▁представител	-10.4152
▁лишне	-10.4152
▁продолжение	-10.4152
▁отчет	-10.4152
▁бород	-10.4152
▁значил	-10.4153
▁постара	-10.4153
▁судорог	-10.4153
▁член	-10.4153
▁площадке	-10.4154
▁состоял	-10.4154
▁отперта	-10.4154
▁записка	-10.4154
одолжение	-10.4155
▁помощник	-10.4155
▁12	-10.4155
▁окружающе	-10.4155
▁кача	-10.4157
▁подумайте	-10.4157
▁жениться	-10.4157
▁существовани	-10.4157
▁родственниц	-10.4158
▁мерещи	-10.4158
▁кончен	-10.4158
▁защитит	-10.4158
▁излер	-10.4159
▁копейк	-10.4159
▁восторженно	-10.416
▁происходит	-10.4161
▁спасти	-10.4162
▁уйду	-10.4162
▁наступил	-10.4165
▁мебель	-10.4171
▁пронес	-10.4171
▁узк	-10.4176
▁сообрази	-10.4176
▁пожал	-10.4178
▁срок	-10.4179
▁кладбище	-10.4179
▁никуда	-10.4179
▁покажу	-10.418
▁умоля	-10.4182
жимая	-10.4183
▁глядит	-10.4184
▁исповедь	-10.4184
▁заметь	-10.4184
▁тщеслави	-10.4185
▁катерину	-10.4186
▁становитс	-10.4194
▁глупость	-10.4195
▁соглаша	-10.4195
▁светло	-10.4197
▁отставно	-10.4201
▁виднел	-10.4202
ица	-10.4203
▁ничем	-10.4204
▁защит	-10.4205
▁болтать	-10.4212
▁редко	-10.4216
▁полезно	-10.4216
▁заглянул	-10.4216
▁оскорблени	-10.4216
▁знакомств	-10.4218
▁укладк	-10.422
▁махнул	-10.4221
▁различны	-10.4221
▁вещ	-10.4221
▁осмели	-10.4229
▁притворил	-10.4237
▁угадал	-10.424
▁следил	-10.4242
▁глупости	-10.4244
ившего	-10.4246
очка	-10.4249
▁дворников	-10.425
▁высшей	-10.4257
▁мелькал	-10.4269
▁охватил	-10.4271
▁расположени	-10.4273
▁желч	-10.4274
▁насмешк	-10.4278
ман	-10.4278
▁разговарива	-10.428
▁щек	-10.4282
▁мамаше	-10.4286
▁иду	-10.4287
▁одева	-10.4289
▁песн	-10.429
▁тоненьк	-10.4295
s	-10.4296
▁ручк	-10.4296
▁служить	-10.43
▁увидишь	-10.4306
▁поклони	-10.4309
33	-10.4318
▁кинул	-10.4319
▁взглядыва	-10.432
▁шести	-10.432
▁нетерпеливо	-10.4322
▁жд	-10.4329
слов	-10.4333
▁страданием	-10.4337
▁детски	-10.4339
▁законно	-10.434
▁плотно	-10.4345
уши	-10.4348
▁дур	-10.4349
▁полнот	-10.4361
▁походил	-10.4375
▁проща	-10.4384
▁прекрасны	-10.4388
▁20	-10.4389
тельным	-10.4401
▁рез	-10.4401
▁сделай	-10.4403
хитр	-10.4408
▁платк	-10.4411
▁усел	-10.443
▁14	-10.4437
▁нена	-10.4439
▁точности	-10.4443
▁сострадание	-10.4445
ельство	-10.4454
станьте	-10.4456
▁приходит	-10.4466
енным	-10.4474
▁солидно	-10.4477
щую	-10.4481
▁случаи	-10.4486
▁издания	-10.4487
▁влияни	-10.4488
езде	-10.4491
▁глуп	-10.4491
вым	-10.4498
оч	-10.4502
▁служил	-10.4507
тир	-10.4507
▁зов	-10.4508
станем	-10.4515
▁следующе	-10.4517
▁посредство	-10.4524
вра	-10.4528
будут	-10.4529
▁сердц	-10.4532
▁звон	-10.4538
▁вглядыва	-10.4546
▁справедлив	-10.4557
▁сует	-10.4563
▁обошл	-10.4569
ивать	-10.4573
55	-10.4573
▁серебряны	-10.4574
гнал	-10.4581
чувствовать	-10.4594
▁вино	-10.4594
▁убеди	-10.4595
▁горло	-10.4597
▁плат	-10.4605
▁второ	-10.4618
▁эт	-10.4621
▁веру	-10.4631
▁спрята	-10.4633
▁натуральн	-10.4633
▁чтение	-10.464
▁печ	-10.4648
▁красным	-10.4662
▁примет	-10.4666
▁успокои	-10.4667
▁хохоч	-10.4667
57	-10.4685
▁стук	-10.4689
▁сло	-10.4691
▁квартальны	-10.4698
▁порыв	-10.4715
▁идее	-10.4719
арень	-10.4719
ун	-10.472
▁хозяйку	-10.4726
▁15	-10.4738
▁поздне	-10.4739
▁страдал	-10.4751
▁упомяну	-10.477
▁догадал	-10.4771
▁некотором	-10.4775
ставать	-10.4791
лег	-10.4795
образ	-10.4806
▁внутренне	-10.4818
зади	-10.4838
очно	-10.4841
▁переулка	-10.4846
▁пари	-10.4853
▁божи	-10.4856
▁поклонил	-10.4862
▁счасть	-10.4869
▁чтени	-10.4875
писал	-10.4876
▁чернышевск	-10.488
▁грез	-10.488
▁предложени	-10.4884
▁девице	-10.4889
▁сумасшедш	-10.4889
давил	-10.489
▁тайн	-10.4897
▁23	-10.4898
▁проходит	-10.4902
ением	-10.4909
▁пуга	-10.4911
писан	-10.4912
▁отказал	-10.4914
▁подозрева	-10.4917
69	-10.4928
▁неве	-10.4928
нки	-10.4931
▁рассматрива	-10.4933
▁мест	-10.4941
▁кричат	-10.4954
▁26	-10.4962
▁воображени	-10.4962
▁основн	-10.4971
▁серебрян	-10.4971
ием	-10.4972
зор	-10.4976
▁прости	-10.4987
▁жене	-10.4999
ивал	-10.5
▁родны	-10.5
48	-10.5006
чал	-10.5008
▁горячк	-10.5009
es	-10.501
▁бить	-10.5017
▁вообрази	-10.5027
▁приста	-10.5029
▁расстроен	-10.5049
▁жадно	-10.5051
▁содержа	-10.5052
водит	-10.5061
▁протянут	-10.5061
▁широк	-10.5066
▁кончит	-10.5072
▁убийц	-10.5077
▁очути	-10.5083
▁сбива	-10.509
▁следовател	-10.51
▁старухин	-10.5102
▁выпит	-10.5108
▁41	-10.5114
▁приписыва	-10.5116
▁польз	-10.5121
▁старш	-10.5139
▁раздражи	-10.5144
▁деть	-10.5149
▁единственн	-10.5159
▁бель	-10.5168
45	-10.5174
вязал	-10.5179
▁болезненн	-10.518
▁справ	-10.5181
▁занима	-10.5181
▁шест	-10.5183
▁подло	-10.5185
▁минута	-10.5188
▁труда	-10.5191
когда	-10.5192
▁духовн	-10.5202
▁смеет	-10.5203
просто	-10.521
▁дяд	-10.521
▁желани	-10.5216
▁оборот	-10.5221
▁издани	-10.5231
▁увиде	-10.5232
▁мнени	-10.5241
▁пит	-10.5243
▁здраво	-10.5243
▁плотн	-10.5247
59	-10.5267
▁22	-10.5275
▁преступн	-10.5279
шею	-10.528
▁называ	-10.5286
ически	-10.5288
▁окон	-10.5301
потом	-10.5305
▁молодеж	-10.5312
▁хорошеньк	-10.5316
▁пробу	-10.5317
селе	-10.5321
▁заметову	-10.5322
▁беспокой	-10.5331
54	-10.534
70	-10.5345
жига	-10.5357
бежит	-10.536
▁сильн	-10.5363
▁воспитан	-10.5367
▁излага	-10.537
▁приш	-10.5376
▁исполнени	-10.5379
двигая	-10.5381
▁сосед	-10.5385
▁отличи	-10.5387
наружи	-10.5388
▁сего	-10.5391
▁извини	-10.5392
▁усмех	-10.5393
▁скры	-10.5396
▁шиллер	-10.5401
▁отшатнул	-10.5401
▁хрустальн	-10.5401
▁реценз	-10.5401
▁стремлени	-10.5401
▁шевельну	-10.5401
▁бакалеев	-10.5401
▁бальзак	-10.5401
▁восклицал	-10.5401
▁декабр	-10.5401
▁дрогнул	-10.5401
▁искусств	-10.5401
▁кобыленк	-10.5401
▁неслышн	-10.5401
▁нехорошо	-10.5401
▁нигилист	-10.5401
▁остроуми	-10.5401
▁пансион	-10.5401
▁пространств	-10.5401
▁сбросил	-10.5401
▁филипп	-10.5401
▁посеща	-10.5401
▁разыскива	-10.5401
▁последовал	-10.5401
▁проведен	-10.5401
▁протягива	-10.5401
ошень	-10.5401
▁страниц	-10.5401
▁опира	-10.5401
▁раскрыл	-10.5401
▁столярн	-10.5401
▁разрешени	-10.5401
▁служанк	-10.5401
▁полемик	-10.5401
▁окошк	-10.5401
▁визит	-10.5401
▁раскаяни	-10.5401
▁пропил	-10.5401
пляса	-10.5401
▁особы	-10.5401
▁мешает	-10.5401
▁узел	-10.5401
▁теплы	-10.5401
▁закуск	-10.5401
▁поленьк	-10.5402
▁повесть	-10.5402
▁увлечени	-10.5402
▁развязк	-10.5402
▁кланя	-10.5402
as	-10.5402
▁веселы	-10.5402
▁помещик	-10.5402
▁гостиниц	-10.5402
▁отдельны	-10.5402
▁хлынул	-10.5402
▁самоубийств	-10.5402
▁самовар	-10.5402
▁детств	-10.5403
▁драдедамов	-10.5403
▁действу	-10.5403
▁рога	-10.5403
▁разглядыва	-10.5403
▁обнял	-10.5403
▁торопливо	-10.5403
▁предупрежда	-10.5403
▁восклицания	-10.5404
▁платьиц	-10.5404
▁посво	-10.5404
▁производи	-10.5404
тремя	-10.5404
▁духот	-10.5404
▁гордости	-10.5404
▁кофе	-10.5405
▁происходил	-10.5405
▁понятия	-10.5405
▁ослабел	-10.5405
▁разбил	-10.5405
▁пишут	-10.5405
▁царств	-10.5406
▁ссор	-10.5406
▁восста	-10.5407
▁обдума	-10.5407
ппе	-10.5408
▁нижн	-10.5408
▁стесня	-10.5409
▁спальн	-10.5409
▁огон	-10.541
▁струсил	-10.541
▁неосторожно	-10.5411
густ	-10.5412
▁жених	-10.5413
▁роков	-10.5414
▁упад	-10.5414
▁возбудил	-10.5414
▁явно	-10.5415
▁позволительн	-10.5416
▁устройств	-10.5416
▁вахрушин	-10.5417
▁пожалел	-10.5417
▁суждени	-10.5417
▁препятстви	-10.5418
▁протестовать	-10.5419
▁черновы	-10.5419
▁ступил	-10.542
▁бедняк	-10.5421
▁почтительно	-10.5422
▁смерть	-10.5422
▁сохраня	-10.5422
▁слышать	-10.5423
▁дрожащ	-10.5424
▁иронически	-10.5424
▁добива	-10.5426
▁казни	-10.5427
▁узнаю	-10.5428
▁необходимости	-10.5429
чаще	-10.5431
▁останет	-10.5431
цу	-10.5432
▁набережн	-10.5434
▁раск	-10.5435
нейшем	-10.5442
▁исполня	-10.5442
▁сядь	-10.5443
▁догоня	-10.5443
▁обхватил	-10.5445
▁скандал	-10.5447
▁высше	-10.5447
▁мгновенно	-10.545
▁нелепость	-10.545
▁неловко	-10.5451
▁общего	-10.5455
▁обойти	-10.5457
▁коляск	-10.5457
▁гадко	-10.5457
▁расход	-10.5458
▁стиснул	-10.5461
▁крича	-10.5462
▁занял	-10.5462
▁зарев	-10.5463
▁бредил	-10.5464
▁грязь	-10.5466
▁решить	-10.5466
▁философско	-10.5466
▁иван	-10.5474
▁теорию	-10.5475
▁сия	-10.5476
ирован	-10.5482
изма	-10.5482
▁осматривая	-10.5484
▁отправил	-10.5485
▁век	-10.5488
▁измени	-10.5493
▁подлы	-10.5494
▁посме	-10.5495
урье	-10.5495
▁купца	-10.5497
▁нетерпени	-10.5501
▁сознательн	-10.5504
рат	-10.5511
▁порядочны	-10.5511
▁выдав	-10.5514
▁складно	-10.5515
▁лавочк	-10.5517
▁пожела	-10.552
возврат	-10.5521
▁скорби	-10.5522
ящий	-10.5522
▁выдума	-10.5523
вех	-10.5523
ическо	-10.5525
▁др	-10.5529
▁двугривенны	-10.553
▁приговоренн	-10.553
▁основа	-10.5532
▁доходил	-10.5533
вой	-10.5535
▁вытащи	-10.5535
▁прида	-10.5541
▁ступенька	-10.5542
▁бью	-10.555
▁содержани	-10.5552
▁пройдет	-10.5561
▁широким	-10.5565
▁радость	-10.5567
▁глазк	-10.5569
▁заб	-10.5582
юро	-10.5583
получ	-10.559
▁бледна	-10.5595
пускать	-10.5596
▁выбрал	-10.5598
▁частию	-10.5605
▁блед	-10.5607
▁явк	-10.5608
▁грязны	-10.5614
▁молчит	-10.5617
▁замет	-10.562
▁целовал	-10.5626
▁росту	-10.5632
где	-10.5635
▁французски	-10.5638
▁бешенство	-10.5641
▁петров	-10.5648
▁старухой	-10.5652
▁умерше	-10.5654
or	-10.5655
▁опер	-10.5659
раф	-10.5666
▁следователя	-10.5671
шли	-10.5673
▁воров	-10.5683
▁прекрасно	-10.5693
▁полиции	-10.5695
чек	-10.5697
▁рассматривал	-10.5699
▁удержал	-10.571
▁последнем	-10.5716
▁насмешлив	-10.5724
76	-10.5731
▁реальн	-10.5736
нца	-10.5738
▁подожда	-10.574
рет	-10.5742
▁коло	-10.5744
▁предполагал	-10.5748
▁входя	-10.5749
▁вел	-10.575
▁всяким	-10.5754
▁капернаумова	-10.5754
▁пойма	-10.5764
▁вонь	-10.5769
▁сложны	-10.5773
▁безобразн	-10.5788
▁s	-10.579
▁лож	-10.5795
▁любезно	-10.5795
▁волосам	-10.5804
05	-10.5804
▁бега	-10.5807
▁медны	-10.5809
вшими	-10.5809
▁рек	-10.581
▁отчаяние	-10.5812
скую	-10.5814
▁обстоятельств	-10.5818
истов	-10.5818
▁выгнал	-10.5819
едь	-10.5823
▁подава	-10.5827
▁стой	-10.584
▁кип	-10.5841
78	-10.5844
▁плечи	-10.5853
▁пропустил	-10.586
шев	-10.5864
▁хлеба	-10.5869
▁художественно	-10.587
▁встревоженн	-10.5872
▁помеша	-10.5875
▁ножк	-10.5895
▁принимал	-10.5895
▁бледне	-10.5896
▁принадлежавше	-10.5899
▁представляет	-10.5902
▁глубок	-10.5926
▁следствие	-10.593
▁рассеянно	-10.5934
нном	-10.5935
▁вызвал	-10.594
▁шут	-10.5945
▁успокоить	-10.5949
▁сознава	-10.5959
▁подожди	-10.598
▁луч	-10.5989
▁противно	-10.5993
▁приподня	-10.5993
▁какими	-10.6004
▁сознал	-10.6009
re	-10.6012
строен	-10.6036
▁сделали	-10.6038
▁происшестви	-10.6046
▁нищи	-10.6064
▁нахмур	-10.6071
▁свечк	-10.6073
живая	-10.608
▁кус	-10.6086
▁старо	-10.6087
▁рука	-10.6105
▁священника	-10.6111
▁зада	-10.6114
чат	-10.6135
▁умне	-10.6136
▁славны	-10.6141
▁бок	-10.6145
▁закрыл	-10.6159
▁убеждение	-10.6169
▁карл	-10.6173
22	-10.6175
▁тяжелы	-10.6175
▁основ	-10.6179
▁раздражительны	-10.618
▁чувствую	-10.6184
▁поч	-10.6186
бле	-10.6188
▁доказательств	-10.619
станешь	-10.6197
ора	-10.6205
▁здешне	-10.6209
▁благородное	-10.6216
▁свободно	-10.622
▁подлост	-10.6221
▁дурн	-10.6227
▁чужи	-10.6227
▁верне	-10.6235
▁подозрение	-10.6236
кладыва	-10.6246
ложения	-10.6247
25	-10.6248
83	-10.6257
▁иде	-10.6258
▁ценит	-10.6261
▁интересно	-10.6265
телей	-10.6293
▁действи	-10.6309
чески	-10.6313
▁подыма	-10.6316
▁тверд	-10.6329
19	-10.6334
овала	-10.6337
▁участи	-10.6362
▁ча	-10.6367
▁принесу	-10.6369
▁определенн	-10.6375
▁масс	-10.6379
▁небо	-10.6382
▁дышал	-10.6385
▁дер	-10.6388
▁поправ	-10.6398
▁достоинства	-10.64
▁43	-10.6401
фе	-10.6406
▁контора	-10.6408
▁литературны	-10.6412
ставая	-10.642
▁дыша	-10.6423
▁истин	-10.644
▁имели	-10.6443
крас	-10.6445
держал	-10.6454
▁волос	-10.6454
▁страдани	-10.6455
▁уважа	-10.6458
помнивши	-10.6467
▁долги	-10.6471
нт	-10.6482
▁делаю	-10.6484
▁осматривал	-10.649
летел	-10.6492
▁внутренни	-10.6511
▁смути	-10.6511
▁выс	-10.6512
▁жес	-10.6526
▁мещан	-10.6528
▁мучительн	-10.6534
▁простит	-10.6552
▁21	-10.6555
▁отказа	-10.6557
▁туман	-10.6557
гулял	-10.6557
60	-10.6566
чиков	-10.6567
▁благодетель	-10.6579
высока	-10.6581
▁обстоятельствам	-10.6588
▁молчи	-10.6589
▁участ	-10.6594
▁обращает	-10.6609
▁приходи	-10.6611
▁штук	-10.6612
нок	-10.6621
шил	-10.6627
встреч	-10.6632
62	-10.6634
остановил	-10.6634
ывает	-10.6636
▁малейш	-10.6638
▁куп	-10.6638
▁замыс	-10.664
тащи	-10.6645
▁пойд	-10.6649
▁невинн	-10.665
вязан	-10.6651
пала	-10.6658
▁вошедш	-10.6666
▁судь	-10.6668
▁испыта	-10.6685
39	-10.6699
▁чахоточно	-10.671
рублев	-10.6716
держали	-10.6717
▁подходя	-10.6717
▁осмел	-10.672
▁многим	-10.6722
▁отыска	-10.6722
ред	-10.6729
▁вдове	-10.6729
цами	-10.673
нского	-10.6731
▁обращать	-10.6736
▁допрос	-10.6739
терять	-10.6739
ступить	-10.6754
▁хвата	-10.6759
▁обращал	-10.6766
▁жале	-10.6772
возможн	-10.6777
бран	-10.6783
▁приглашен	-10.6795
▁конфуз	-10.6796
▁внуш	-10.6799
▁экономи	-10.6807
▁вкус	-10.6808
влечен	-10.6808
падает	-10.6809
меня	-10.6817
▁убь	-10.6822
▁лошаде	-10.6822
рче	-10.6823
▁поверит	-10.6824
▁спросит	-10.6824
▁квартал	-10.6825
▁издател	-10.6826
▁грязн	-10.6827
решимост	-10.6828
▁давай	-10.6828
▁зол	-10.6829
▁магомет	-10.6829
▁отворя	-10.6829
90	-10.6829
▁ахиллес	-10.6829
▁взыскани	-10.6829
▁возбужденно	-10.6829
▁друзья	-10.6829
▁зарницын	-10.6829
▁иерусалим	-10.6829
▁изнеможени	-10.6829
▁источник	-10.6829
▁кабинет	-10.6829
▁кхикхи	-10.6829
▁лошадк	-10.6829
▁многократно	-10.6829
▁монастыр	-10.6829
▁ненависть	-10.6829
▁неотразимо	-10.6829
▁ограбить	-10.6829
▁оскорбля	-10.6829
▁отвратительн	-10.6829
▁поджидал	-10.6829
▁полюбил	-10.6829
▁помешательств	-10.6829
▁появление	-10.6829
▁предчувству	-10.6829
▁проводил	-10.6829
▁происхождени	-10.6829
▁разбойник	-10.6829
▁середин	-10.6829
▁схватив	-10.6829
▁таинственны	-10.6829
▁творчеств	-10.6829
▁тургенев	-10.6829
▁футляр	-10.6829
▁цыпочк	-10.6829
▁чебаров	-10.6829
▁благоразумн	-10.6829
▁графин	-10.6829
▁ноябр	-10.6829
▁покушени	-10.6829
▁пропаганд	-10.6829
▁таинственно	-10.6829
▁папочк	-10.6829
▁повыше	-10.6829
▁предварительн	-10.6829
▁раздраженн	-10.6829
▁сопротивля	-10.6829
▁барин	-10.6829
▁немнож	-10.6829
▁парти	-10.6829
▁судебно	-10.6829
▁шарманк	-10.6829
▁озира	-10.6829
▁проблематик	-10.6829
▁творческ	-10.6829
▁удержива	-10.6829
▁халат	-10.6829
▁казнь	-10.6829
▁напряжение	-10.6829
▁напечатан	-10.683
▁огар	-10.683
▁редакци	-10.683
▁четырнадцат	-10.683
▁мономан	-10.683
▁барын	-10.683
▁ощутил	-10.683
▁мешать	-10.683
▁полюбить	-10.683
▁изверг	-10.683
▁энергически	-10.683
▁обычно	-10.683
▁ведомост	-10.683
▁вагоне	-10.683
▁румян	-10.683
▁особа	-10.683
▁лгу	-10.683
▁предстоял	-10.683
▁язвительно	-10.683
▁франт	-10.683
▁красот	-10.683
▁сочинител	-10.683
▁хвост	-10.683
▁подействовал	-10.683
▁высокомерно	-10.683
▁буквально	-10.683
▁углублен	-10.683
▁усажива	-10.683
▁мещанской	-10.683
▁доверя	-10.683
▁прибил	-10.683
▁сторублев	-10.683
▁скрывать	-10.6831
▁заносчив	-10.6831
▁колыха	-10.6831
▁нагло	-10.6831
▁исторически	-10.6831
▁проект	-10.6831
▁мгновения	-10.6831
▁размер	-10.6831
▁эффект	-10.6832
▁периодическ	-10.6832
▁уголовно	-10.6832
▁лукав	-10.6832
▁седьм	-10.6832
▁черточку	-10.6833
▁протеснил	-10.6833
▁благодари	-10.6833
▁немецки	-10.6833
▁пролежал	-10.6833
иска	-10.6834
▁бесполезн	-10.6834
▁родьк	-10.6834
▁купить	-10.6835
ического	-10.6835
▁свежи	-10.6835
▁вершк	-10.6835
▁тиши	-10.6836
▁идеал	-10.6836
▁возвращени	-10.6838
▁шля	-10.6838
▁пане	-10.6839
▁враг	-10.684
▁невыносимо	-10.684
▁отделыва	-10.6842
▁гре	-10.6842
▁всемирн	-10.6843
▁насилие	-10.6843
▁щел	-10.6844
▁старик	-10.6844
▁чаем	-10.6845
▁ночева	-10.6846
учился	-10.6847
▁шарманщик	-10.6847
▁известие	-10.6847
▁гувернантк	-10.6848
▁бессильно	-10.6848
▁букв	-10.6849
▁брякнул	-10.685
▁выдал	-10.6851
▁покойниц	-10.6851
ставлять	-10.6852
▁здоровье	-10.6852
▁блин	-10.6853
▁десятк	-10.6854
▁билетик	-10.6854
▁палат	-10.6855
▁бедность	-10.6857
▁мыслями	-10.686
▁обещани	-10.6861
▁объяснил	-10.6862
▁подозревает	-10.6862
▁крестьянск	-10.6863
▁вслушива	-10.6864
▁решение	-10.6865
▁вскину	-10.6866
чести	-10.6866
▁желто	-10.6866
▁восьмом	-10.6869
▁согласна	-10.6869
▁толстый	-10.6869
▁чул	-10.6869
▁провел	-10.6873
▁этажа	-10.6877
▁ангел	-10.6878
▁дружески	-10.6878
▁обдумывал	-10.688
▁тревожил	-10.6881
▁известен	-10.6882
▁молож	-10.6883
сок	-10.6883
▁припадк	-10.6884
▁промелькнул	-10.6884
▁доск	-10.6886
▁жид	-10.6887
▁склонил	-10.6889
▁надзирателя	-10.6889
▁ярост	-10.689
▁жалеть	-10.689
▁найд	-10.6891
▁попов	-10.6891
▁понимани	-10.6892
▁показание	-10.6894
▁желает	-10.6894
▁мад	-10.6894
▁параша	-10.6894
▁плюну	-10.6895
▁очи	-10.6895
пить	-10.6896
▁таков	-10.69
▁бывали	-10.6902
едни	-10.6903
дногот	-10.6905
▁останавливая	-10.6906
▁заболел	-10.6906
▁дальнейши	-10.6907
▁справедливость	-10.6908
▁приятель	-10.6912
▁плачет	-10.6913
▁настроения	-10.6916
▁обозначен	-10.6916
▁злов	-10.6919
▁надежда	-10.6919
268	-10.692
▁кружк	-10.692
▁ничто	-10.692
▁придавил	-10.6921
▁усилия	-10.6921
▁герой	-10.6921
▁успех	-10.6923
▁ложь	-10.6924
▁тонки	-10.6924
▁бьет	-10.6926
▁гам	-10.693
▁вспоминал	-10.6934
▁струн	-10.6934
▁пробовал	-10.6937
▁фраз	-10.6942
▁счасти	-10.6945
▁бос	-10.6957
▁удержать	-10.6959
▁тайны	-10.6959
▁госпожи	-10.6962
▁вихр	-10.6963
▁тонко	-10.6967
▁доказал	-10.6968
149	-10.6969
▁сестрицы	-10.6973
нья	-10.6975
▁нахмури	-10.6976
ойдет	-10.6976
выгодно	-10.6977
▁выскочил	-10.6978
вид	-10.6982
▁дернул	-10.6996
▁понимать	-10.6997
▁придавал	-10.6997
▁беспрерывн	-10.6998
▁теперешн	-10.7001
▁пустынн	-10.7001
▁поднимая	-10.7003
▁действия	-10.7006
нимали	-10.7006
▁стихи	-10.7008
▁черные	-10.7011
▁надоело	-10.7017
▁посещения	-10.7017
▁сообразит	-10.702
▁общее	-10.7022
▁гуля	-10.7028
▁зеркало	-10.7032
▁сбега	-10.7037
▁60	-10.704
▁заняти	-10.7041
▁жестоко	-10.7043
▁почем	-10.7046
▁бросая	-10.7047
▁мамаши	-10.7047
етле	-10.7056
▁треть	-10.7057
временно	-10.7057
▁сошли	-10.7062
нных	-10.7065
▁побо	-10.7071
▁темноте	-10.7083
▁зайд	-10.7084
▁ред	-10.7093
▁беспокойно	-10.7095
▁пьяница	-10.7099
▁карт	-10.7113
66	-10.7115
▁игра	-10.7118
▁оставлен	-10.7122
▁раскрыт	-10.7123
▁верует	-10.7123
▁череп	-10.7124
▁замк	-10.7127
▁гна	-10.7132
▁насил	-10.7135
▁40	-10.714
▁51	-10.7141
▁билеты	-10.7145
нимают	-10.7145
32	-10.7146
ованн	-10.7149
▁пусты	-10.7153
вернул	-10.7158
рь	-10.7166
шель	-10.7168
▁принимает	-10.7169
▁жесток	-10.7179
вание	-10.7179
▁обнимал	-10.7181
▁рассчитал	-10.7186
▁искриви	-10.7186
88	-10.7188
▁поклон	-10.7189
нуты	-10.7189
▁остально	-10.7192
▁верхне	-10.7192
▁порядк	-10.7194
▁связал	-10.7197
▁лечить	-10.7203
▁имен	-10.7212
▁таковы	-10.7214
влен	-10.7216
▁девица	-10.7217
▁каторжны	-10.7233
▁тяжел	-10.7234
мор	-10.7235
▁распространи	-10.7237
люсь	-10.7239
▁худенько	-10.7242
▁длинно	-10.7243
▁расчета	-10.7243
▁поступк	-10.7245
▁госте	-10.7253
▁вру	-10.7256
▁научн	-10.7256
▁сложил	-10.7261
кажет	-10.7265
айте	-10.7269
93	-10.727
ноги	-10.7277
вились	-10.7277
знайте	-10.7277
жег	-10.7281
97	-10.7283
▁неясно	-10.7283
46	-10.729
▁получа	-10.7291
▁родител	-10.7293
▁господа	-10.7296
▁создани	-10.7308
▁сум	-10.731
▁белым	-10.7312
▁разодета	-10.7314
▁лома	-10.732
▁мосту	-10.7325
▁алена	-10.7328
щ	-10.7332
ждал	-10.7336
▁плачу	-10.7342
нявши	-10.7348
▁широки	-10.7361
▁подозрительно	-10.7361
ческо	-10.7373
▁черным	-10.7376
▁пошло	-10.7383
▁работал	-10.7391
▁подда	-10.7394
▁название	-10.7395
▁совет	-10.7395
▁понравил	-10.7395
▁луж	-10.7398
▁дерев	-10.7406
словно	-10.7413
▁способны	-10.7418
▁московски	-10.7431
▁осмотре	-10.7434
▁лес	-10.7434
бывал	-10.7435
▁поднимать	-10.7436
▁стих	-10.7436
▁великолепн	-10.744
▁посещение	-10.7443
▁понадоби	-10.7445
▁озабоченн	-10.7449
▁радостно	-10.7449
соль	-10.7452
▁привык	-10.7471
платить	-10.7474
▁счастие	-10.7477
▁семи	-10.7478
▁пройд	-10.749
▁предложит	-10.749
чку	-10.7508
▁доказательство	-10.7513
▁вырыва	-10.7524
▁передо	-10.7533
▁искренне	-10.7537
▁рассуд	-10.7546
▁лево	-10.7552
▁предложение	-10.7576
▁иско	-10.7583
▁кружи	-10.7593
▁помешанн	-10.7595
зова	-10.7597
▁отдел	-10.7599
▁хороше	-10.7601
▁обнима	-10.7608
замен	-10.7608
▁удовольстви	-10.7621
▁кредит	-10.7623
верх	-10.7626
▁любопытны	-10.763
▁почувствова	-10.7641
церемонн	-10.7649
▁вежливо	-10.7651
▁поста	-10.7658
▁небольш	-10.7659
▁сознаю	-10.7665
тал	-10.7668
▁дамам	-10.7672
31	-10.7687
▁разно	-10.7688
▁товарище	-10.7688
▁нравственн	-10.769
▁порыва	-10.7692
17	-10.7693
85	-10.7695
▁сходил	-10.7695
▁требую	-10.7703
▁нитк	-10.7704
▁живущ	-10.7707
дер	-10.7711
▁качеств	-10.7714
▁предчувствовала	-10.7722
▁рассердил	-10.773
▁выноси	-10.774
▁вес	-10.7746
▁теперешне	-10.7751
▁недоумение	-10.7754
кри	-10.7757
▁фантастическо	-10.7773
▁камне	-10.7777
▁возник	-10.7783
91	-10.7783
▁била	-10.7788
▁разговаривал	-10.7791
▁пропусти	-10.7795
▁отпер	-10.7796
ймите	-10.7806
▁привыкл	-10.7808
▁великолепно	-10.782
▁положить	-10.7822
▁бросив	-10.7823
▁приметн	-10.7827
▁дво	-10.7828
▁поспеш	-10.7833
▁останавливал	-10.7839
▁ужасны	-10.7842
▁убедить	-10.7847
▁нож	-10.7848
имся	-10.7852
▁переноси	-10.7855
▁негодовани	-10.7863
▁солнц	-10.7866
▁каждом	-10.7874
ющими	-10.7878
вол	-10.7882
▁городско	-10.7885
▁году	-10.7895
▁стуча	-10.7897
▁занимает	-10.7897
▁устрои	-10.7905
▁сообщал	-10.7906
▁бросает	-10.7912
крывает	-10.7913
▁вза	-10.7916
▁любили	-10.7917
▁любите	-10.7924
стре	-10.7938
▁презрение	-10.7944
▁хлоп	-10.7947
▁следователь	-10.7949
рил	-10.7949
▁золот	-10.7953
ущу	-10.7953
▁сознавал	-10.7966
нько	-10.7967
▁спокойн	-10.7969
▁соответствую	-10.7976
▁впечатления	-10.7986
ющую	-10.7986
говорил	-10.7989
▁ищи	-10.7992
▁женски	-10.7997
теля	-10.7997
▁предмета	-10.8
▁дол	-10.801
▁уплат	-10.8013
▁выражени	-10.802
нным	-10.8022
▁силам	-10.8032
▁оправдыва	-10.8035
▁разъяснил	-10.8035
▁протяну	-10.8036
жно	-10.8036
▁большею	-10.8037
▁нравит	-10.8048
▁неприятност	-10.8049
▁наполн	-10.8049
▁перестань	-10.8057
▁приход	-10.8063
▁звер	-10.8064
▁хохот	-10.8071
28	-10.8079
▁названи	-10.8079
▁превосход	-10.8083
▁золоты	-10.8087
▁хлопота	-10.8102
▁разрешит	-10.8103
▁покор	-10.8112
пишу	-10.8117
▁обоя	-10.8129
недель	-10.813
желал	-10.8144
▁способствова	-10.8161
щем	-10.8169
▁сравни	-10.8169
хот	-10.8173
▁книж	-10.8182
▁мелки	-10.8188
▁почтенн	-10.8194
▁выражен	-10.8199
▁личны	-10.8209
▁дальнейше	-10.8213
▁свято	-10.8218
▁земле	-10.8219
ден	-10.8233
э	-10.8239
▁нын	-10.8243
▁приготовлен	-10.8251
▁отыскива	-10.8253
▁доноси	-10.8256
▁29	-10.8265
покой	-10.8268
24	-10.8269
ция	-10.8271
▁нелепо	-10.8272
▁приезжа	-10.8272
▁военно	-10.8277
▁действительн	-10.829
▁стреми	-10.8291
психологическ	-10.83
половин	-10.8301
крепко	-10.8305
▁прибавл	-10.8306
▁число	-10.8306
▁расположен	-10.8311
▁лихорадочно	-10.8314
▁ожидани	-10.8315
иновен	-10.8317
▁марфу	-10.8317
▁лакей	-10.8318
▁канал	-10.8322
▁зелены	-10.8322
скочи	-10.8325
▁vi	-10.8327
▁трус	-10.8329
▁идеям	-10.8331
▁184	-10.8336
▁ул	-10.8344
▁выпуск	-10.8347
нской	-10.8349
▁нестерпимо	-10.8353
движ	-10.8365
▁поняли	-10.8367
▁стыдлив	-10.8375
▁созда	-10.8377
▁заходит	-10.8393
▁47	-10.8399
▁пристальн	-10.8399
▁насмешливо	-10.8404
▁владе	-10.8405
едает	-10.841
▁низ	-10.8419
▁загляну	-10.8428
▁лини	-10.8438
перек	-10.844
▁упомина	-10.8443
▁спрос	-10.8449
▁изумление	-10.8453
▁куманин	-10.8461
▁повин	-10.847
▁благогове	-10.8471
▁застрели	-10.8474
26	-10.8476
▁цеп	-10.848
ожидать	-10.8481
▁восьм	-10.8481
▁укор	-10.8483
▁достиг	-10.8483
▁стрел	-10.8484
▁оборв	-10.8485
стик	-10.8487
жав	-10.8489
махнув	-10.849
гнувши	-10.8491
▁кур	-10.8493
▁искр	-10.8495
▁орган	-10.8495
▁парн	-10.8496
▁практик	-10.8496
▁разъяснени	-10.8496
дневны	-10.8496
ъехал	-10.8496
▁аккуратн	-10.8496
▁аппетит	-10.8496
▁аристократическ	-10.8496
▁биографи	-10.8496
▁блеснул	-10.8496
▁вдумчиво	-10.8496
▁взвешива	-10.8496
▁возбужда	-10.8496
▁вокзал	-10.8496
▁всплесну	-10.8496
▁выступа	-10.8496
▁групп	-10.8496
▁дрожит	-10.8496
▁загадочно	-10.8496
▁заключает	-10.8496
▁законфузи	-10.8496
▁здешни	-10.8496
▁здравствуй	-10.8496
▁имуществ	-10.8496
▁кафтан	-10.8496
▁койкаки	-10.8496
▁крыльц	-10.8496
▁лавиз	-10.8496
▁лектор	-10.8496
▁литератор	-10.8496
▁милосерд	-10.8496
▁мошенник	-10.8496
▁неравенств	-10.8496
▁неуклюж	-10.8496
▁обругал	-10.8496
▁ограбил	-10.8496
▁панихид	-10.8496
▁посреди	-10.8496
▁предислови	-10.8496
▁привстал	-10.8496
▁пригласит	-10.8496
▁расторопн	-10.8496
▁расхохотал	-10.8496
▁ресниц	-10.8496
▁собственноручно	-10.8496
▁сюртук	-10.8496
▁тряпье	-10.8496
▁употреби	-10.8496
▁услуг	-10.8496
▁физиономи	-10.8496
▁харламов	-10.8496
▁хуторок	-10.8496
▁цезар	-10.8496
▁целомудренн	-10.8496
▁церков	-10.8496
▁цифр	-10.8496
округ	-10.8496
▁бродил	-10.8496
▁клевет	-10.8496
▁обязательств	-10.8496
▁оживля	-10.8496
▁озадачен	-10.8496
▁переехал	-10.8496
▁портрет	-10.8496
▁ворочу	-10.8496
▁евангельск	-10.8496
▁закружи	-10.8496
▁коекак	-10.8496
▁оратор	-10.8496
▁популярн	-10.8496
▁провидение	-10.8496
▁отправля	-10.8496
▁бутылк	-10.8496
▁завопил	-10.8496
▁сумерк	-10.8496
▁характеристик	-10.8496
▁молитв	-10.8496
▁гимна	-10.8496
▁дворницк	-10.8496
▁ответственност	-10.8496
▁рюмк	-10.8496
▁упира	-10.8496
▁событи	-10.8496
▁тарелк	-10.8496
▁эдак	-10.8496
▁мужчин	-10.8496
▁бунт	-10.8496
▁козел	-10.8496
▁замерл	-10.8496
▁утеша	-10.8496
▁звен	-10.8496
▁страсть	-10.8496
▁дощечк	-10.8496
▁починк	-10.8496
▁август	-10.8496
▁извинени	-10.8496
▁проституци	-10.8496
▁встревожи	-10.8496
▁сегодняшни	-10.8496
▁разрешил	-10.8496
▁мозг	-10.8496
▁течени	-10.8496
▁пути	-10.8496
▁гоголя	-10.8496
▁январ	-10.8497
носил	-10.8497
▁раздавили	-10.8497
▁христ	-10.8497
▁взбира	-10.8497
▁переступил	-10.8497
▁утеши	-10.8497
▁снисходительн	-10.8497
▁папаш	-10.8497
▁изменен	-10.8497
▁перешагнуть	-10.8497
збил	-10.8497
▁масл	-10.8497
▁шкаф	-10.8497
▁коротко	-10.8497
▁лишни	-10.8497
▁нужна	-10.8497
▁ярки	-10.8497
▁участвова	-10.8497
▁секретар	-10.8497
▁утопи	-10.8497
▁милостын	-10.8498
▁разлук	-10.8498
▁ездил	-10.8498
▁пуф	-10.8498
▁вызывающим	-10.8498
▁существовать	-10.8498
▁158	-10.8498
▁гражданин	-10.8498
▁отдельно	-10.8498
▁напира	-10.8499
невол	-10.8499
▁излишн	-10.8499
▁вытерпел	-10.8499
▁коротки	-10.8499
▁шелково	-10.8499
▁175	-10.8499
▁155	-10.85
▁брать	-10.85
▁возле	-10.85
▁утверди	-10.85
вертыва	-10.8501
▁151	-10.8501
▁позвал	-10.8501
▁164	-10.8501
▁див	-10.8501
▁обманул	-10.8501
▁призыва	-10.8501
▁рассудительн	-10.8502
▁большинств	-10.8502
▁1869	-10.8502
▁схорон	-10.8502
▁подиви	-10.8502
▁выступил	-10.8502
▁решения	-10.8502
▁конвойн	-10.8503
▁умолк	-10.8503
тупивши	-10.8503
▁произой	-10.8504
▁круто	-10.8504
▁всегдашн	-10.8504
▁пересел	-10.8505
▁вплот	-10.8505
▁предложил	-10.8505
▁состоит	-10.8507
▁наблюдения	-10.8507
▁приседа	-10.8508
смеива	-10.8508
▁предрассудков	-10.8508
изуст	-10.8508
▁облик	-10.8509
▁столь	-10.8509
▁риск	-10.8509
▁задуши	-10.851
▁допустил	-10.851
▁забор	-10.851
▁громки	-10.851
▁брит	-10.851
▁светлы	-10.8511
▁отмахива	-10.8512
▁оттуд	-10.8512
▁морал	-10.8512
▁попа	-10.8513
▁благородств	-10.8513
▁выказыва	-10.8513
▁углов	-10.8514
пьяну	-10.8515
▁помести	-10.8515
▁лежи	-10.8515
▁шампанского	-10.8515
руши	-10.8516
▁тянуло	-10.8516
▁уважаю	-10.8516
▁надменн	-10.8516
▁развернул	-10.8517
▁солом	-10.8517
▁существа	-10.8517
▁фельетон	-10.8517
▁нормально	-10.8518
▁вымыл	-10.8519
анда	-10.8519
▁мираж	-10.8519
▁посетител	-10.8519
▁обманыва	-10.8521
▁сенат	-10.8521
▁механически	-10.8521
кхи	-10.8522
▁путешестви	-10.8522
▁иуде	-10.8522
▁зарайск	-10.8522
▁расслышал	-10.8523
▁передума	-10.8525
▁смертн	-10.8526
▁портно	-10.8526
▁пищ	-10.8526
▁отд	-10.8528
▁бойк	-10.8528
▁мечты	-10.8529
личают	-10.8529
▁игру	-10.853
▁запах	-10.853
▁возражени	-10.8531
▁смиренн	-10.8533
▁жаловань	-10.8534
▁подумает	-10.8534
▁торжественно	-10.8534
▁роз	-10.8535
▁застал	-10.8535
▁осен	-10.8537
▁одежд	-10.8537
▁высот	-10.8538
▁истинно	-10.8538
▁пятак	-10.8538
историческо	-10.8539
▁вояж	-10.8539
▁апрел	-10.854
▁страдань	-10.8543
▁колод	-10.8544
▁афанасия	-10.8546
▁взяв	-10.8547
ейше	-10.8548
▁показывает	-10.8548
▁лидочк	-10.8551
▁терпит	-10.8551
▁угадать	-10.8552
▁действовать	-10.8554
▁губернатор	-10.8554
▁перил	-10.8555
▁ростовщиц	-10.8556
▁философски	-10.8556
▁дальн	-10.8557
▁заела	-10.856
▁зев	-10.8561
▁слог	-10.8562
▁двести	-10.8562
▁чисты	-10.8563
мизи	-10.8563
▁морск	-10.8568
▁немецко	-10.8569
▁присяг	-10.8571
▁заставил	-10.8571
▁благородне	-10.8572
▁воображал	-10.8572
▁спустил	-10.8574
▁открыть	-10.8579
▁карет	-10.858
становились	-10.8584
▁шее	-10.8584
▁чашк	-10.8585
▁выигра	-10.8585
хотя	-10.8586
▁владел	-10.8591
▁38	-10.8591
▁слове	-10.8592
▁достаточно	-10.8592
▁сообщения	-10.8599
меешь	-10.8601
▁довел	-10.8602
▁тихим	-10.8602
град	-10.8603
▁отрыв	-10.8608
▁официально	-10.8609
▁слушает	-10.8609
▁назвал	-10.861
▁доказывает	-10.861
▁убийцы	-10.8611
▁тягост	-10.8611
▁выглядывал	-10.8611
▁благодарю	-10.8612
▁оказыва	-10.8616
▁сведения	-10.8616
▁трубк	-10.8616
▁коленк	-10.862
▁остановились	-10.8621
считал	-10.8624
▁поддерживал	-10.8625
отни	-10.8628
▁упомянул	-10.8628
▁молодежь	-10.8629
▁вытерпл	-10.863
▁хитрость	-10.8635
▁почитаю	-10.8636
▁поговори	-10.8637
вертел	-10.8637
▁чахоточн	-10.8639
▁выдать	-10.8642
▁психологию	-10.8644
▁сунул	-10.8644
▁желтым	-10.8644
▁золото	-10.8648
ством	-10.8649
144	-10.8651
▁порок	-10.8651
▁стоил	-10.8652
▁юридически	-10.8653
▁приближа	-10.8654
▁помогал	-10.8654
▁выдержит	-10.8654
▁лежавши	-10.8655
▁безнадежно	-10.8657
▁всеобще	-10.8658
▁сменя	-10.866
▁наполеоном	-10.8661
▁изну	-10.8662
▁векселя	-10.8664
▁белы	-10.8666
▁цвета	-10.8667
ишки	-10.8671
▁вывел	-10.8671
▁бежал	-10.8672
▁ощущал	-10.8672
▁ударила	-10.8673
▁куска	-10.8674
▁мерзост	-10.8675
▁садов	-10.8681
▁настроение	-10.8684
▁разным	-10.8685
▁символ	-10.8687
▁критически	-10.8695
▁захватил	-10.8698
▁повел	-10.87
▁сыро	-10.8702
▁укра	-10.8703
▁сурово	-10.8707
▁существующе	-10.8707
▁учить	-10.8708
▁чрезвычайны	-10.8709
▁всяки	-10.8712
▁полячк	-10.8713
▁здрав	-10.8714
152	-10.8717
▁донес	-10.8717
▁художественном	-10.8719
▁рассуждения	-10.8722
▁узнает	-10.8723
▁печк	-10.8724
▁вообразил	-10.8725
▁темнот	-10.8726
▁хозяйкин	-10.8728
▁смешны	-10.8728
▁дым	-10.8731
▁забывал	-10.8734
лки	-10.8738
▁объяснения	-10.8739
▁лихорадочн	-10.874
▁собрани	-10.8741
▁отыскивал	-10.8745
▁приготовлени	-10.8747
▁пальца	-10.875
▁торжество	-10.8752
▁грабежа	-10.8752
▁мышь	-10.8758
▁заснул	-10.8759
▁веду	-10.8765
▁разорва	-10.8771
▁верую	-10.8772
▁жалоб	-10.8773
▁колечко	-10.8774
▁сочинения	-10.8778
боку	-10.8781
▁локтя	-10.8788
▁маз	-10.8789
▁личность	-10.8791
▁допускает	-10.8799
ведать	-10.88
▁ругательства	-10.8805
серд	-10.8807
▁облокотил	-10.881
▁упрашивал	-10.881
95	-10.8811
▁нервны	-10.8811
▁объявляю	-10.8812
казывал	-10.8813
четно	-10.8826
хлестал	-10.8826
▁мечтал	-10.8827
▁приятеля	-10.8829
74	-10.8831
▁социальн	-10.8835
▁выдерж	-10.8838
▁простите	-10.8842
▁прилично	-10.8843
▁называл	-10.8844
▁залит	-10.8847
▁отрывк	-10.886
тки	-10.8866
▁убивал	-10.8871
▁мерк	-10.8872
▁совершени	-10.8873
▁шутк	-10.8877
▁уважал	-10.888
▁глупе	-10.8889
94	-10.8897
▁песня	-10.8901
▁сердит	-10.8903
▁связям	-10.8908
▁гал	-10.891
▁большими	-10.891
▁залив	-10.8914
▁посторонни	-10.8917
▁кредитны	-10.8917
▁пыль	-10.8924
▁хозяйкино	-10.8926
▁низост	-10.893
▁обратить	-10.8935
▁честна	-10.8939
▁превосходит	-10.8942
▁очутил	-10.8945
▁внешни	-10.8951
▁наивно	-10.8954
▁нахмурил	-10.8954
ическим	-10.8963
пом	-10.8964
▁вызва	-10.8965
▁заглядыва	-10.8965
▁31	-10.8969
▁врет	-10.8969
▁быстр	-10.897
▁предлагал	-10.8972
▁встретили	-10.8974
89	-10.8977
▁впи	-10.8981
▁надворны	-10.8982
▁печатани	-10.8983
▁требу	-10.8984
▁молить	-10.8986
▁встрече	-10.8986
▁внезапны	-10.8988
▁петли	-10.8989
▁стука	-10.8992
▁тоску	-10.8994
ждения	-10.9
▁беспокойств	-10.9007
▁раздражительн	-10.9009
человеческ	-10.9014
▁признал	-10.9016
▁заметк	-10.9019
▁бредит	-10.9019
▁подал	-10.9023
▁ман	-10.9023
▁голодны	-10.9025
дернул	-10.9033
▁распорядил	-10.9038
84	-10.9041
▁осматривать	-10.9045
валил	-10.9046
▁задумыва	-10.9054
▁влево	-10.9057
сматривая	-10.9068
следовательно	-10.9069
▁проспекту	-10.9074
▁сходи	-10.9087
▁справедливост	-10.9088
▁обвиня	-10.9097
иста	-10.9098
58	-10.9101
▁заемно	-10.9103
▁наблюдал	-10.9103
бивают	-10.9106
тку	-10.9113
▁итого	-10.9113
▁злост	-10.912
нский	-10.9125
79	-10.9128
▁напи	-10.9131
▁холоде	-10.9135
▁форм	-10.9136
▁посмел	-10.914
▁соф	-10.9149
▁дра	-10.9149
▁надела	-10.916
▁перевернул	-10.9176
▁вчерашн	-10.9179
▁учен	-10.9181
▁va	-10.9182
▁одеты	-10.9187
▁разумно	-10.9188
▁невы	-10.9189
▁удави	-10.9192
етер	-10.9193
▁похожи	-10.9196
▁незнакомы	-10.9201
дол	-10.9201
▁революционно	-10.9205
▁ненавистно	-10.9207
лин	-10.9211
▁миколки	-10.9216
▁удивленн	-10.9218
▁мучени	-10.9219
▁общем	-10.922
▁25	-10.9223
▁презрени	-10.9224
▁париж	-10.9224
▁надеял	-10.9232
▁легкомысленн	-10.9239
▁разглядел	-10.9241
▁опомни	-10.925
летни	-10.9251
▁деликатн	-10.9256
давала	-10.9259
▁фигура	-10.9266
▁брала	-10.9271
▁личном	-10.9275
▁отвращени	-10.9276
▁раздева	-10.9287
▁стоявш	-10.9288
▁камн	-10.9292
▁тайну	-10.9296
▁миколк	-10.9297
▁глава	-10.9298
▁зако	-10.9298
▁уп	-10.9299
▁читател	-10.9302
▁медно	-10.9308
▁отдали	-10.931
▁листа	-10.9316
▁приехала	-10.9316
▁тесни	-10.9327
▁откаж	-10.933
▁дразн	-10.9333
▁приноси	-10.9342
▁качества	-10.9345
девать	-10.9378
катил	-10.9379
ница	-10.9387
произведен	-10.9391
▁коле	-10.9405
▁помешал	-10.9405
▁старше	-10.9407
65	-10.9413
▁ничтожн	-10.9415
щения	-10.9416
▁пристав	-10.9418
шки	-10.9427
▁посещени	-10.943
▁благодар	-10.9432
▁ильи	-10.9436
▁критика	-10.9438
▁пес	-10.9442
▁цепочка	-10.9455
▁оп	-10.947
пульс	-10.947
▁сходить	-10.9473
▁дик	-10.9476
▁запи	-10.9477
▁сопровожда	-10.9477
▁кухне	-10.9479
▁ничтожны	-10.9481
▁взгляды	-10.9486
тише	-10.9489
▁прощ	-10.9494
▁волнение	-10.9498
анта	-10.9511
▁перенест	-10.9513
▁44	-10.9515
▁пад	-10.9518
глуб	-10.9533
▁несправедлив	-10.9534
▁целым	-10.9534
чей	-10.9538
▁квартальн	-10.9546
няя	-10.9551
▁указани	-10.956
дразни	-10.9561
▁попо	-10.9576
▁ед	-10.9576
▁евангелие	-10.9578
резал	-10.9583
▁учены	-10.9585
шит	-10.9597
▁столкнул	-10.9604
▁определ	-10.9605
▁неподвижн	-10.9606
▁48	-10.9617
▁пораженны	-10.9618
жен	-10.962
▁занят	-10.9623
▁пьянств	-10.9624
▁чувствительн	-10.9625
▁неза	-10.9631
▁объяснени	-10.964
▁порядка	-10.9645
▁собственном	-10.9648
▁лежат	-10.9652
▁понадоб	-10.9671
урок	-10.9681
▁счастлива	-10.9681
▁туч	-10.9682
▁сор	-10.9682
▁московск	-10.9689
▁знак	-10.9689
▁осад	-10.969
▁мел	-10.9693
▁революционн	-10.9694
▁исключен	-10.9696
▁оскорбленны	-10.9707
кончил	-10.971
▁уважени	-10.9722
кан	-10.9724
68	-10.9726
▁вынесл	-10.9734
▁опубликован	-10.9751
▁средство	-10.9751
перед	-10.9757
▁вед	-10.9764
спокоен	-10.9769
▁пережда	-10.9769
▁припоминал	-10.9779
юго	-10.978
▁кирпич	-10.978
судя	-10.9786
▁прислуша	-10.9788
▁служ	-10.9789
▁добродетель	-10.979
▁запек	-10.979
▁уставил	-10.9793
▁верит	-10.9799
au	-10.98
▁пустяка	-10.98
▁удивлять	-10.9809
вари	-10.982
▁сговори	-10.9822
▁расста	-10.9835
▁мучение	-10.9836
▁драть	-10.9849
овой	-10.9853
▁надобност	-10.9854
▁скорб	-10.9854
▁начн	-10.9854
▁возраста	-10.9856
▁гени	-10.9859
▁отыскала	-10.986
▁грустны	-10.9861
очку	-10.9869
▁отвод	-10.9881
стану	-10.9882
▁подумаю	-10.9889
▁горда	-10.9891
▁объясняет	-10.9893
▁принимаю	-10.9896
очк	-10.9911
кнуть	-10.9916
61	-10.9921
▁притвор	-10.9921
▁нежн	-10.9922
нку	-10.9923
▁равн	-10.9932
рош	-10.9943
▁характерны	-10.995
ствовал	-10.9951
▁курс	-10.9952
▁подавал	-10.9971
▁известия	-10.9971
▁внешн	-10.9972
▁пальц	-10.9974
▁реальны	-10.9983
▁обижа	-10.9984
▁беспоко	-10.9988
бежал	-10.9992
▁бре	-11
▁опасно	-11.0001
▁образованны	-11.0002
▁смут	-11.0023
▁красне	-11.0026
▁равнодуш	-11.0035
▁наружно	-11.0038
роче	-11.004
начал	-11.0044
▁опис	-11.0056
▁соверша	-11.0057
▁политическ	-11.0063
истым	-11.0063
▁рассеян	-11.0065
▁бого	-11.0065
▁улик	-11.0069
▁оглядыва	-11.0071
▁держа	-11.0073
лаг	-11.0075
▁сообразив	-11.0078
плачут	-11.0079
жить	-11.008
▁оскорбленн	-11.0084
▁приподнять	-11.0085
▁неправильно	-11.0091
▁слышалс	-11.0095
▁точны	-11.0098
▁совест	-11.012
рел	-11.0158
анц	-11.0163
вшем	-11.0171
кого	-11.0172
▁мерз	-11.0177
учить	-11.018
▁задумчив	-11.0183
▁кол	-11.0186
▁посл	-11.0191
▁лохмоть	-11.0192
▁грубы	-11.0197
▁перекрест	-11.0201
▁простил	-11.0203
▁будущ	-11.021
▁угрюм	-11.0216
▁пыт	-11.022
▁рассуждени	-11.0227
▁короб	-11.023
▁подбород	-11.0231
▁побледне	-11.0239
▁ругал	-11.0239
▁процентщиц	-11.024
▁держит	-11.0246
▁совершенн	-11.0247
▁суров	-11.0254
▁потряс	-11.0264
читай	-11.0268
▁понимает	-11.0276
жала	-11.0288
▁щека	-11.029
▁словечк	-11.0293
служить	-11.0295
▁начинали	-11.0295
сидеть	-11.0298
▁собирает	-11.0301
1866	-11.0304
матери	-11.0305
вашем	-11.0305
▁госпож	-11.0308
крест	-11.0308
▁вероятн	-11.0308
▁слабост	-11.0312
▁гад	-11.0314
▁отклик	-11.0314
▁клуб	-11.0314
▁свидан	-11.0317
оврал	-11.0317
зрения	-11.0317
▁грустн	-11.0318
ойдем	-11.032
▁направлен	-11.032
▁забега	-11.0321
▁предположени	-11.0324
▁руч	-11.0331
▁помин	-11.034
▁васильевск	-11.0343
ведь	-11.0344
▁приглаша	-11.0345
плен	-11.0345
▁сиди	-11.0345
▁поцелова	-11.0349
служил	-11.0352
▁рус	-11.0352
бал	-11.0355
▁стру	-11.0359
▁сожале	-11.0364
▁готовит	-11.0364
▁погляде	-11.0367
▁иванов	-11.0368
оставляет	-11.0371
▁пошевелил	-11.0376
▁исследова	-11.0379
▁огне	-11.0392
▁доход	-11.0397
▁беспре	-11.0399
▁обоим	-11.0401
▁подпол	-11.0405
шком	-11.0406
▁входит	-11.0407
▁изображ	-11.0415
▁увидим	-11.0417
щут	-11.042
▁ростовщи	-11.0423
▁оправда	-11.043
▁настаива	-11.0432
▁заключи	-11.0436
роп	-11.0437
пот	-11.0443
▁жильца	-11.0449
▁прогресс	-11.045
чество	-11.0451
будет	-11.0452
▁необыкновенн	-11.0453
▁помер	-11.0454
▁гражданск	-11.0457
87	-11.0457
▁мебел	-11.0459
дре	-11.0466
остро	-11.0468
▁мастер	-11.0469
▁влюблен	-11.0475
▁ловк	-11.0477
▁умел	-11.0479
▁провож	-11.0481
▁говор	-11.0482
цепил	-11.0482
▁позволь	-11.0487
виду	-11.0491
▁период	-11.0493
▁гуманн	-11.0494
▁облегч	-11.0494
▁сюрприз	-11.0495
достоин	-11.0496
▁центр	-11.0496
▁праздн	-11.0496
▁припухш	-11.0496
▁тенденци	-11.0496
тябр	-11.0496
▁бакенбард	-11.0496
▁идеологическ	-11.0496
▁инстинкт	-11.0496
▁отворот	-11.0496
▁переклика	-11.0496
▁услыши	-11.0496
uerre	-11.0496
умышленно	-11.0496
▁1850	-11.0496
▁ахшарумов	-11.0496
▁библи	-11.0496
▁биллиард	-11.0496
▁благодеяни	-11.0496
▁вздыха	-11.0496
▁восторженны	-11.0496
▁германн	-11.0496
▁говядин	-11.0496
▁господствую	-11.0496
▁денежно	-11.0496
▁елисеев	-11.0496
▁затруднени	-11.0496
▁захарович	-11.0496
▁индивидуализм	-11.0496
▁катастроф	-11.0496
▁комедии	-11.0496
▁корпораци	-11.0496
▁кринолине	-11.0496
▁наследств	-11.0496
▁ненависти	-11.0496
▁несомненно	-11.0496
▁неудержим	-11.0496
▁нигилизм	-11.0496
▁овладел	-11.0496
▁оглобл	-11.0496
▁отъезд	-11.0496
▁панорам	-11.0496
▁параллель	-11.0496
▁повторяю	-11.0496
▁подготовлен	-11.0496
▁помертвевш	-11.0496
▁прекрати	-11.0496
▁преследова	-11.0496
▁прототип	-11.0496
▁рафаэл	-11.0496
▁редактор	-11.0496
▁самолюбие	-11.0496
▁спокойстви	-11.0496
▁стелловск	-11.0496
▁студенчеств	-11.0496
▁увеличива	-11.0496
▁утешени	-11.0496
▁утопленниц	-11.0496
▁харчевн	-11.0496
▁хроник	-11.0496
▁художник	-11.0496
▁цензур	-11.0496
▁церкв	-11.0496
▁щекотлив	-11.0496
▁юсупов	-11.0496
стрепанн	-11.0496
штейн	-11.0496
▁350	-11.0496
▁дарвин	-11.0496
▁дерзко	-11.0496
▁евгени	-11.0496
▁инвалид	-11.0496
▁красиво	-11.0496
▁младш	-11.0496
▁муравейник	-11.0496
▁осведоми	-11.0496
▁осуществ	-11.0496
▁подверга	-11.0496
▁подчеркива	-11.0496
▁преврати	-11.0496
▁совершил	-11.0496
▁содержит	-11.0496
▁соедини	-11.0496
▁восприимчив	-11.0496
▁избегну	-11.0496
▁оскорбительн	-11.0496
▁похмель	-11.0496
▁приветлив	-11.0496
▁телятин	-11.0496
▁юродив	-11.0496
▁гнусны	-11.0496
▁законодател	-11.0496
▁лениво	-11.0496
▁сокращен	-11.0496
▁сомнева	-11.0496
▁накрыл	-11.0496
▁насущн	-11.0496
▁удобн	-11.0496
▁освежа	-11.0496
▁песенник	-11.0496
▁расшир	-11.0496
▁сбавк	-11.0496
ссыльны	-11.0496
▁апати	-11.0496
▁ссылк	-11.0496
▁деспот	-11.0496
▁извиня	-11.0496
▁измучил	-11.0496
▁поставленн	-11.0496
▁бедстви	-11.0496
▁отразил	-11.0496
▁стыжу	-11.0496
▁нарушен	-11.0496
▁поцелу	-11.0496
▁труп	-11.0496
▁королев	-11.0496
▁множество	-11.0496
▁разделяю	-11.0496
▁слушателя	-11.0496
▁шепнул	-11.0496
▁хмур	-11.0496
▁позову	-11.0496
▁старичо	-11.0496
▁явление	-11.0496
▁втягива	-11.0496
▁опаса	-11.0496
▁англ	-11.0496
our	-11.0496
▁район	-11.0496
▁песенк	-11.0496
▁составлял	-11.0496
▁бесценн	-11.0496
▁лотере	-11.0496
▁цит	-11.0496
▁получше	-11.0496
▁гениальны	-11.0497
▁искупит	-11.0497
▁тогдашни	-11.0497
▁трихин	-11.0497
▁контракт	-11.0497
▁тошно	-11.0497
▁пострада	-11.0497
западноевропейск	-11.0497
▁искажен	-11.0497
▁подтвержда	-11.0497
▁простоват	-11.0497
▁одума	-11.0497
▁зарождени	-11.0497
▁пропаду	-11.0497
▁идиот	-11.0497
▁генералишк	-11.0497
▁организм	-11.0497
▁хозяев	-11.0497
▁стукнув	-11.0497
▁замира	-11.0497
▁женитьб	-11.0497
ar	-11.0497
▁пророк	-11.0497
▁любовниц	-11.0497
▁подписыва	-11.0497
▁видывал	-11.0498
▁набит	-11.0498
▁дельц	-11.0498
▁публикаци	-11.0498
▁пиво	-11.0498
▁фрак	-11.0498
▁куплен	-11.0498
▁приотворил	-11.0498
▁тепло	-11.0498
▁свеже	-11.0499
▁куша	-11.0499
▁скучн	-11.0499
▁пробил	-11.0499
▁горох	-11.0499
▁позволени	-11.0499
▁отмети	-11.0499
▁душевно	-11.0499
▁закрыты	-11.0499
▁явным	-11.05
▁тратит	-11.05
▁нахально	-11.05
▁вывеск	-11.05
▁катков	-11.05
▁очерк	-11.05
▁ненавидел	-11.05
▁свежесть	-11.05
▁игрив	-11.0501
▁собор	-11.0501
▁лучши	-11.0501
▁кредитор	-11.0501
▁янв	-11.0501
▁справля	-11.0501
▁детал	-11.0501
▁трав	-11.0501
▁домашни	-11.0501
▁примечани	-11.0502
▁отступил	-11.0502
▁выкупи	-11.0502
▁брош	-11.0502
▁переступить	-11.0502
▁паук	-11.0502
▁австрийск	-11.0502
▁прожива	-11.0502
▁1840	-11.0503
▁населени	-11.0503
▁подмигну	-11.0503
▁злюсь	-11.0504
▁пуглив	-11.0504
▁кирпичик	-11.0504
▁коран	-11.0504
▁немало	-11.0505
▁метод	-11.0505
▁деятелей	-11.0505
ткнул	-11.0505
▁завет	-11.0506
▁поручен	-11.0506
▁норм	-11.0507
▁смеш	-11.0507
▁платил	-11.0507
▁медик	-11.0507
▁кратк	-11.0507
▁форму	-11.0508
моз	-11.0509
▁приблизи	-11.0509
▁фанфарон	-11.0509
▁окружающи	-11.051
▁унизительн	-11.051
▁полезнее	-11.0511
▁земно	-11.0511
ien	-11.0511
▁прицепи	-11.0511
▁поровня	-11.0512
▁неожиданная	-11.0513
▁полоск	-11.0513
▁блюд	-11.0513
▁прибежал	-11.0513
▁обрисов	-11.0514
▁заперты	-11.0514
▁позна	-11.0515
днем	-11.0516
▁обеспокоил	-11.0516
▁немец	-11.0516
▁омерзени	-11.0517
ставляют	-11.0518
▁первоначально	-11.0518
манчив	-11.0518
▁ловя	-11.0518
▁зимни	-11.052
▁закл	-11.052
▁принадлежал	-11.0521
▁развязн	-11.0522
▁язв	-11.0522
▁гвозд	-11.0523
▁возлюби	-11.0523
▁буржуазно	-11.0523
▁специально	-11.0523
▁прусск	-11.0523
▁отводил	-11.0524
▁чиновниц	-11.0525
▁товар	-11.0525
▁хмель	-11.0525
▁номер	-11.0526
▁схватить	-11.0527
▁бесед	-11.0527
▁основание	-11.0527
▁высвободи	-11.0528
▁впал	-11.0528
▁колеб	-11.0528
▁поднес	-11.053
▁обита	-11.053
▁убивать	-11.0531
▁небрежно	-11.0532
▁подверну	-11.0532
▁интересовать	-11.0533
▁уважает	-11.0533
▁рыда	-11.0533
▁ипохондрик	-11.0534
▁изображени	-11.0534
▁позднейш	-11.0536
▁мучь	-11.0537
▁прах	-11.0537
▁хар	-11.0537
▁колес	-11.0537
▁преувеличил	-11.0538
▁воззрени	-11.054
▁прокляты	-11.0542
падают	-11.0542
▁путе	-11.0545
180	-11.0545
▁мастерск	-11.0545
▁зарезал	-11.0546
▁статски	-11.0547
▁переходил	-11.0548
▁физически	-11.055
уголовны	-11.055
▁брани	-11.0551
▁остану	-11.0551
▁ощуп	-11.0551
▁заика	-11.0551
▁густо	-11.0553
▁мух	-11.0553
▁муч	-11.0554
▁бесчувственн	-11.0555
▁воле	-11.0555
▁родственн	-11.0555
▁запереть	-11.0555
▁скрепил	-11.0558
твердил	-11.0559
муж	-11.0559
▁малин	-11.0559
▁описание	-11.0561
ощ	-11.0561
▁кружить	-11.0564
▁пьяненьки	-11.0564
топта	-11.0564
▁увидя	-11.0565
▁прибыл	-11.0565
▁приятны	-11.0565
▁умирающи	-11.0565
▁этакие	-11.0567
▁омрач	-11.0569
искива	-11.057
▁получив	-11.0571
▁этакое	-11.0574
▁увидимся	-11.0576
▁разыска	-11.0576
▁приведет	-11.0577
▁поправить	-11.0577
▁вознесенском	-11.0578
▁чьи	-11.0581
озь	-11.0583
▁прежними	-11.0585
▁строгим	-11.0587
▁завяза	-11.0587
▁пришедши	-11.0588
▁писателей	-11.0588
▁записан	-11.0589
▁полетел	-11.059
▁освещал	-11.0595
▁вздохнул	-11.0595
▁осел	-11.0595
▁неудачно	-11.0596
▁желтый	-11.0597
▁ладонь	-11.0598
▁159	-11.0601
▁гражданском	-11.0601
ников	-11.0604
▁чувствует	-11.0604
▁размышления	-11.0605
▁уда	-11.0605
▁притворя	-11.0607
▁умная	-11.0607
▁трагически	-11.0608
▁крупны	-11.0613
▁пыли	-11.0614
▁изобрази	-11.0614
▁кир	-11.0615
▁судейски	-11.0617
▁длинн	-11.0617
▁погод	-11.0618
217	-11.0619
▁лежа	-11.062
▁мак	-11.062
▁робе	-11.062
▁формул	-11.062
▁толкнул	-11.0621
▁учени	-11.0625
▁поднять	-11.0625
▁случайност	-11.0626
▁огненн	-11.0626
▁осторожность	-11.0628
▁приобрета	-11.0628
▁просыпал	-11.063
▁больном	-11.0631
▁беспри	-11.0631
▁аналогичны	-11.0634
▁миколку	-11.0635
▁признание	-11.0638
▁поняв	-11.0639
▁отдаст	-11.0639
▁описыва	-11.0639
▁урод	-11.064
▁смейте	-11.0641
зис	-11.0648
140	-11.065
▁пропал	-11.0653
▁хватая	-11.0653
арис	-11.0655
▁вагнера	-11.0657
▁пожалова	-11.0657
▁настроении	-11.0658
▁неизбежны	-11.0658
▁многочисленны	-11.0663
▁грубости	-11.0666
▁улично	-11.0668
▁шата	-11.067
стил	-11.0673
▁защитить	-11.0673
▁нестерпим	-11.0674
▁представлени	-11.0677
▁шаль	-11.0679
▁исполнения	-11.0681
▁пожат	-11.0685
▁седо	-11.0687
▁мирово	-11.0692
▁нелепост	-11.0693
▁прочти	-11.0694
▁жирны	-11.0696
▁изуча	-11.0696
▁показания	-11.0697
▁стыдливост	-11.0703
▁похоронил	-11.0703
▁дружб	-11.0707
мочил	-11.071
▁отнял	-11.071
▁обращение	-11.0711
▁кри	-11.0711
▁кро	-11.0712
▁интересую	-11.0713
▁немку	-11.0714
▁униженны	-11.0715
▁удививши	-11.0718
▁государственны	-11.0721
▁восьми	-11.0723
кладывал	-11.0724
▁приглядыва	-11.0725
▁принимают	-11.0728
▁ручку	-11.0731
▁презрительны	-11.0731
▁прич	-11.0733
▁подходил	-11.0736
▁подслушивал	-11.0736
▁спрашивает	-11.0738
▁стро	-11.074
▁переговорил	-11.0741
▁шевелить	-11.0744
▁мучаю	-11.0748
ище	-11.0749
▁отрекомендовать	-11.0751
▁горди	-11.0751
ррр	-11.0752
▁сконфузил	-11.0753
▁точка	-11.0757
ругались	-11.076
▁скаже	-11.0765
▁умеет	-11.0772
▁цени	-11.0772
▁дворц	-11.0773
▁привед	-11.0775
▁указывал	-11.0776
▁уве	-11.0777
при	-11.0781
▁завел	-11.0781
бирать	-11.0782
▁дорож	-11.0783
▁образование	-11.0784
▁словечка	-11.0784
▁каторгу	-11.0785
▁процентщица	-11.0786
ведения	-11.0787
▁фатеру	-11.0789
▁улика	-11.0795
▁прием	-11.0795
▁наклонност	-11.0797
▁осматрива	-11.0799
▁бегал	-11.08
питал	-11.0812
▁враждебно	-11.0812
▁чей	-11.0813
пьяны	-11.0814
▁обеспечен	-11.0814
третьи	-11.0817
▁спори	-11.0819
▁скверны	-11.0819
▁дяди	-11.0829
▁романов	-11.0829
▁неприятности	-11.0832
▁признакам	-11.0833
▁необыкновенных	-11.0836
▁свят	-11.0837
▁последстви	-11.0847
употребля	-11.0848
▁помог	-11.0848
▁поту	-11.0853
▁остальны	-11.0853
▁жарко	-11.0859
▁останавлива	-11.0868
▁этаким	-11.087
▁бодро	-11.0875
одно	-11.0879
▁стучал	-11.0883
▁задуманн	-11.0884
▁порядке	-11.0887
▁засверкал	-11.0887
▁несправедливост	-11.089
▁заняты	-11.0891
▁простоволос	-11.0901
▁тумане	-11.0908
▁солидны	-11.091
▁пустит	-11.0922
▁сплетни	-11.0922
▁илье	-11.0924
▁рассмотре	-11.0924
леня	-11.093
▁верова	-11.0933
▁учения	-11.0935
▁надува	-11.094
▁натуру	-11.0947
▁стекл	-11.095
▁заинтересовал	-11.095
▁пушкинско	-11.0957
▁закладыва	-11.096
▁счастливо	-11.0977
▁било	-11.0985
▁кошк	-11.0989
▁устроил	-11.0999
▁прыгал	-11.0999
▁дурач	-11.1002
ении	-11.1005
▁e	-11.1007
▁привлека	-11.1008
▁зверск	-11.101
▁высоки	-11.101
▁раздражение	-11.1013
▁сильным	-11.1014
▁раздавлен	-11.1016
крыт	-11.1017
▁кусоч	-11.102
▁политически	-11.103
▁горел	-11.1032
▁разниц	-11.1036
▁прощаю	-11.1038
▁длинны	-11.1039
торговал	-11.1045
▁крести	-11.1051
▁свидетеля	-11.1053
▁пациента	-11.1057
▁заря	-11.1061
печатал	-11.1071
шом	-11.1077
▁устр	-11.1081
▁безум	-11.1087
▁пье	-11.1089
▁ломал	-11.1092
▁умные	-11.1093
▁скрыт	-11.1101
зер	-11.111
▁полага	-11.1111
▁курса	-11.1114
▁песк	-11.1114
34	-11.1117
▁рассвете	-11.1117
▁признавал	-11.1123
▁наброси	-11.1125
▁воспаленны	-11.113
▁света	-11.1135
▁замечания	-11.114
▁подозревал	-11.1142
▁коленя	-11.1151
▁уст	-11.1154
▁стукал	-11.1154
▁начну	-11.1161
волен	-11.1167
▁поколение	-11.1169
▁соответств	-11.1169
дят	-11.1173
▁смягч	-11.1184
▁обед	-11.1185
▁устраивает	-11.1185
▁истинны	-11.1192
▁свидетел	-11.1204
▁нравственным	-11.122
▁отчаянны	-11.1231
▁французском	-11.1235
47	-11.1245
▁войду	-11.1251
мое	-11.1256
▁леса	-11.1261
брать	-11.1267
▁резки	-11.1269
▁правос	-11.1274
▁жалк	-11.1277
▁голубы	-11.1279
▁терзал	-11.1287
лишком	-11.129
▁мелким	-11.1293
▁необходим	-11.131
▁выезжа	-11.1323
▁определенно	-11.1347
бивши	-11.1349
▁скор	-11.1352
▁брал	-11.1356
ственно	-11.1358
▁плачущ	-11.1363
▁посмотр	-11.137
щет	-11.1375
▁бледным	-11.1376
▁выговорил	-11.1377
▁подарк	-11.138
делен	-11.1384
▁сорока	-11.1395
▁потерянн	-11.1396
ахло	-11.1412
▁чернышевски	-11.1427
▁черны	-11.144
▁открыва	-11.1441
▁загладит	-11.145
стить	-11.1451
веду	-11.1454
▁грези	-11.1458
глядывал	-11.147
▁придут	-11.1471
енько	-11.1476
▁божие	-11.148
▁судорожно	-11.1495
извести	-11.1496
▁поляк	-11.1497
подоб	-11.15
▁деревь	-11.1507
▁персонаже	-11.1507
▁довед	-11.1508
▁листк	-11.1515
▁небольшо	-11.1516
ломать	-11.1516
▁приводил	-11.1524
овали	-11.1527
▁присутствие	-11.1529
▁благодетеле	-11.1529
▁дрожаще	-11.1546
▁золотым	-11.1558
▁имевш	-11.1561
жила	-11.1563
▁приезж	-11.1563
▁завернут	-11.1566
хнул	-11.1573
▁столкну	-11.1576
▁гряз	-11.159
▁правильно	-11.1595
▁приглашал	-11.16
ставив	-11.1605
▁лучшего	-11.1609
▁шептал	-11.1614
▁опасны	-11.1619
чных	-11.162
▁общественн	-11.1625
▁лондон	-11.1628
▁являю	-11.1635
▁боит	-11.1635
86	-11.1639
кинул	-11.1639
▁смутил	-11.1644
думывал	-11.165
щено	-11.165
смея	-11.166
▁горя	-11.166
веж	-11.1662
▁найдет	-11.1669
▁потребовал	-11.1694
▁умным	-11.1697
игры	-11.1713
▁вырва	-11.1719
дею	-11.1736
давить	-11.1738
▁обиженн	-11.1738
▁уходит	-11.1748
▁двига	-11.175
▁кост	-11.1765
▁устави	-11.1765
▁крепостн	-11.1776
▁обще	-11.1779
▁живы	-11.18
заперт	-11.181
▁высл	-11.1818
▁благ	-11.1823
ra	-11.1824
41	-11.1825
▁маленьким	-11.1828
горел	-11.1828
▁сестрице	-11.183
▁письм	-11.1831
речь	-11.1831
▁персонаж	-11.1832
▁погл	-11.1841
▁сильней	-11.1847
▁читателе	-11.1852
берег	-11.1861
▁пожара	-11.1863
▁следов	-11.1864
даром	-11.1867
▁волнова	-11.1873
▁угрюмы	-11.1877
▁играл	-11.1879
▁фамильярност	-11.1879
слушала	-11.1883
обыкновенных	-11.1899
▁геро	-11.1904
ернуло	-11.1937
▁немк	-11.1937
здания	-11.1938
▁определил	-11.1944
▁следующи	-11.195
▁мод	-11.1954
говаривать	-11.1955
сот	-11.1962
▁мучительны	-11.1963
езжал	-11.197
▁высказыва	-11.1972
▁сидя	-11.198
ртом	-11.1981
▁запися	-11.1986
▁197	-11.199
1865	-11.1998
▁ненавистн	-11.2004
▁решительн	-11.2005
свет	-11.2017
колотил	-11.2018
мар	-11.2022
▁лга	-11.2027
вост	-11.2029
▁поколени	-11.203
секу	-11.2032
▁загор	-11.2045
▁совета	-11.2053
▁терза	-11.2062
онки	-11.2062
▁несу	-11.2063
▁посади	-11.2067
▁обсуди	-11.2082
▁подозрительн	-11.2083
▁жизненно	-11.2087
▁еду	-11.2107
▁избега	-11.211
▁ант	-11.2131
пору	-11.2142
летит	-11.2143
▁выбра	-11.2145
лева	-11.2145
шек	-11.2155
мягче	-11.2178
▁сиде	-11.2186
летал	-11.2194
▁грешни	-11.2219
злом	-11.2231
▁донос	-11.2241
▁прогул	-11.2259
▁пригодит	-11.2259
▁выгна	-11.2268
▁подходи	-11.2274
▁распростран	-11.2283
▁раздумыва	-11.2287
шт	-11.2308
делить	-11.2315
▁сострадани	-11.232
▁составит	-11.2329
знать	-11.2342
▁сойде	-11.2344
▁откланял	-11.2359
▁деньга	-11.2362
народно	-11.2366
▁настроени	-11.2369
▁рассчита	-11.2371
доставало	-11.2371
▁посторонн	-11.2371
▁выража	-11.2377
оватым	-11.2377
▁правдоподобн	-11.2385
▁прочита	-11.239
▁назва	-11.2406
▁траурн	-11.2409
▁осужден	-11.2424
▁хвали	-11.2425
▁клад	-11.243
▁лечи	-11.2435
▁молила	-11.2436
сматривал	-11.244
▁деятел	-11.2441
▁верны	-11.2445
рак	-11.245
▁приятел	-11.246
▁склад	-11.2461
▁давешн	-11.2471
несен	-11.2477
▁сплетн	-11.2478
ошедших	-11.2484
▁хохотал	-11.2489
▁уведоми	-11.2493
▁носк	-11.2497
▁мучила	-11.2512
▁сосчита	-11.2514
ечность	-11.2519
v	-11.2523
▁рож	-11.2524
▁облокот	-11.2524
▁обнаружи	-11.2527
▁худ	-11.2531
▁великодушны	-11.2532
лично	-11.2544
▁встрети	-11.2547
▁упрашива	-11.2555
▁локт	-11.2557
дарь	-11.2567
▁безумн	-11.2568
▁медицин	-11.2571
▁получал	-11.2571
▁тр	-11.2576
азали	-11.2577
▁распоряди	-11.2581
▁средин	-11.2585
▁забит	-11.2585
▁исчез	-11.2613
▁научи	-11.2614
капли	-11.2618
▁сообража	-11.2623
▁друж	-11.2623
▁потол	-11.2624
▁молил	-11.2635
▁противореч	-11.2635
едова	-11.2647
▁желты	-11.2647
▁доходя	-11.2652
818	-11.2654
▁перчатк	-11.2655
▁сенн	-11.2656
▁проговори	-11.2657
▁сух	-11.2659
▁проход	-11.2663
▁засну	-11.2669
▁независим	-11.2674
вение	-11.2676
▁июн	-11.2687
печат	-11.2689
гнул	-11.2689
▁спрятать	-11.2691
беле	-11.2692
▁заговарива	-11.2694
▁вступи	-11.27
▁подслушива	-11.2703
▁подай	-11.2714
дра	-11.2718
▁помещен	-11.2719
▁женщинам	-11.2722
▁адвокат	-11.2735
▁уста	-11.2738
благо	-11.2743
щика	-11.2744
скоре	-11.2748
▁проскользну	-11.2751
▁попали	-11.2752
▁лавоч	-11.2754
рты	-11.2763
▁покой	-11.2764
▁выдумала	-11.2777
сунул	-11.2779
фраз	-11.2791
правда	-11.2792
ронил	-11.2801
▁присутств	-11.2802
дурно	-11.2802
четыре	-11.2802
▁пьяниц	-11.2804
время	-11.2806
хотите	-11.2806
кнут	-11.281
▁психолог	-11.2817
▁объясн	-11.2817
▁известным	-11.282
▁поддержива	-11.282
▁переста	-11.282
▁застав	-11.2822
езжа	-11.2827
▁держи	-11.2832
▁взволнова	-11.2832
▁приняв	-11.2839
буду	-11.284
▁исполнен	-11.2844
ейшей	-11.2845
▁умира	-11.2846
▁изобразил	-11.2848
очкам	-11.2861
▁стоявше	-11.2862
▁обыкновенн	-11.2868
▁стисну	-11.287
▁смирит	-11.2874
▁плюн	-11.2877
▁накинул	-11.2882
▁снур	-11.2886
▁сознает	-11.2888
▁вознесенск	-11.2892
▁двум	-11.2894
▁находя	-11.2897
▁уничтож	-11.29
▁внимательн	-11.29
шата	-11.2901
ставляла	-11.2905
▁нездоров	-11.2909
▁очн	-11.2911
▁тревож	-11.292
▁каме	-11.2925
▁ухо	-11.2927
▁кроват	-11.2927
▁апр	-11.2928
щупа	-11.2929
▁серебр	-11.2932
▁разменя	-11.2932
следствия	-11.2934
ечко	-11.2936
достало	-11.2936
ческая	-11.2937
▁оттолкн	-11.294
▁отдава	-11.2941
▁возраж	-11.2942
▁русс	-11.2944
▁подво	-11.2944
▁став	-11.2946
▁военны	-11.2948
37	-11.2956
гадыва	-11.2961
▁прусс	-11.2962
кажу	-11.2969
▁свидетель	-11.2971
▁мар	-11.2973
огн	-11.2974
крестив	-11.2975
▁соблазн	-11.2978
▁предрассудк	-11.2978
близи	-11.298
скольз	-11.298
гадать	-11.2985
может	-11.2985
алек	-11.2985
▁подпи	-11.2987
▁попрек	-11.2987
▁физиолог	-11.2989
▁восклицан	-11.299
вах	-11.299
▁раскол	-11.2991
▁мучител	-11.2991
▁безбожн	-11.2992
▁потуп	-11.2993
▁взвизг	-11.2994
▁последовател	-11.2994
восходит	-11.2995
▁внутр	-11.2995
▁обстоятель	-11.2995
▁шестнадцат	-11.2995
▁крючо	-11.2995
▁гармони	-11.2996
▁энерги	-11.2996
▁субъект	-11.2996
ro	-11.2996
▁убирай	-11.2996
250	-11.2996
трое	-11.2996
▁блужда	-11.2996
▁мешают	-11.2996
▁пальмерстон	-11.2996
▁преследу	-11.2996
▁сочувстви	-11.2996
130	-11.2996
150	-11.2996
джентльмен	-11.2996
звучал	-11.2996
мейстер	-11.2996
▁арифметик	-11.2996
▁барках	-11.2996
▁безграничн	-11.2996
▁бессмыслиц	-11.2996
▁бессознательн	-11.2996
▁бланбек	-11.2996
▁ближни	-11.2996
▁бугорк	-11.2996
▁взбес	-11.2996
▁виноградов	-11.2996
▁восемнадцат	-11.2996
▁вразумихин	-11.2996
▁вскрикива	-11.2996
▁вывороти	-11.2996
▁вынужден	-11.2996
▁выхлопота	-11.2996
▁глубочайше	-11.2996
▁гроссман	-11.2996
▁двусмысленн	-11.2996
▁добровольно	-11.2996
▁добролюбов	-11.2996
▁египт	-11.2996
▁заглавие	-11.2996
▁занавеск	-11.2996
▁запрыгал	-11.2996
▁злодейств	-11.2996
▁зонтик	-11.2996
▁каланч	-11.2996
▁комисси	-11.2996
▁комментари	-11.2996
▁красивы	-11.2996
▁кхекхекхе	-11.2996
▁логик	-11.2996
▁логичн	-11.2996
▁мандарин	-11.2996
▁математик	-11.2996
▁мичман	-11.2996
▁монолог	-11.2996
▁неблагородны	-11.2996
▁неестественно	-11.2996
▁немыслим	-11.2996
▁неопределенны	-11.2996
▁неумолим	-11.2996
▁объявлен	-11.2996
▁огурц	-11.2996
▁орудие	-11.2996
▁освещен	-11.2996
▁осмысли	-11.2996
▁отсутстви	-11.2996
▁папиросочниц	-11.2996
▁племянниц	-11.2996
▁побудил	-11.2996
▁подошедш	-11.2996
▁подхватыва	-11.2996
▁позволил	-11.2996
▁практическ	-11.2996
▁предчувстви	-11.2996
▁пренебрега	-11.2996
▁пренебрежени	-11.2996
▁претензи	-11.2996
▁привилеги	-11.2996
▁промышленник	-11.2996
▁разъясня	-11.2996
▁расспрос	-11.2996
▁растиньяк	-11.2996
▁сдерживал	-11.2996
▁севастопол	-11.2996
▁семинарист	-11.2996
▁скорлуп	-11.2996
▁сладострасти	-11.2996
▁совершить	-11.2996
▁созвуч	-11.2996
▁студенческо	-11.2996
▁съест	-11.2996
▁террас	-11.2996
▁учреждени	-11.2996
▁фонтан	-11.2996
▁шлезвиг	-11.2996
▁экипаж	-11.2996
▁экспедици	-11.2996
▁эстетик	-11.2996
▁блудниц	-11.2996
▁величин	-11.2996
▁вяземск	-11.2996
▁затряс	-11.2996
▁звяк	-11.2996
▁кавалер	-11.2996
▁лошади	-11.2996
▁неопытн	-11.2996
▁непростительн	-11.2996
▁ньютон	-11.2996
▁обращенн	-11.2996
▁оживленн	-11.2996
▁посторони	-11.2996
▁пускай	-11.2996
▁размягчило	-11.2996
▁сектант	-11.2996
▁статистическ	-11.2996
▁съезж	-11.2996
▁восстановил	-11.2996
▁застойк	-11.2996
▁лебез	-11.2996
▁насыщен	-11.2996
▁отметки	-11.2996
▁поклаж	-11.2996
▁прикосну	-11.2996
▁теоретическ	-11.2996
▁шевеля	-11.2996
▁зейн	-11.2996
▁кресл	-11.2996
▁померещил	-11.2996
▁хлыст	-11.2996
▁шапк	-11.2996
глиссе	-11.2996
▁анатоми	-11.2996
▁возвыша	-11.2996
▁замешкал	-11.2996
▁знаменательн	-11.2996
▁летопис	-11.2996
▁малодуши	-11.2996
▁отличает	-11.2996
▁реляци	-11.2996
▁савраск	-11.2996
▁огороши	-11.2996
▁удвоенн	-11.2996
▁упрек	-11.2996
▁грибо	-11.2996
▁нничего	-11.2996
▁свезу	-11.2996
восхити	-11.2996
▁властелин	-11.2996
▁выпейте	-11.2996
▁высокомери	-11.2996
▁сопоставлени	-11.2996
▁статистик	-11.2996
▁театр	-11.2996
▁помолитесь	-11.2996
▁предыдущ	-11.2996
▁проповед	-11.2996
▁смочен	-11.2996
▁лодк	-11.2996
▁пятидесяти	-11.2996
▁болван	-11.2996
▁мольб	-11.2996
▁затмени	-11.2996
▁обязательны	-11.2996
▁пресек	-11.2996
▁словцо	-11.2996
▁краевск	-11.2996
▁фонд	-11.2996
▁покупа	-11.2996
▁кошельк	-11.2996
▁довез	-11.2996
▁трактовк	-11.2996
▁вмешал	-11.2996
▁покровительств	-11.2996
▁рабск	-11.2996
▁ламп	-11.2996
▁сказк	-11.2996
▁ефто	-11.2996
▁неведомо	-11.2996
▁подрост	-11.2996
▁разгадк	-11.2996
▁загадк	-11.2996
▁разобрать	-11.2996
▁расстроил	-11.2996
▁октябр	-11.2996
▁ручонк	-11.2996
▁выжида	-11.2996
▁переходя	-11.2996
▁обухом	-11.2996
▁салоп	-11.2996
▁жгуч	-11.2996
▁повидатьс	-11.2996
ожжен	-11.2996
▁переворот	-11.2996
▁паническ	-11.2996
▁приключени	-11.2996
треснут	-11.2997
▁очерт	-11.2997
▁полуштоф	-11.2997
sse	-11.2997
▁изломан	-11.2997
▁особу	-11.2997
▁становя	-11.2997
▁отстраняя	-11.2997
▁острота	-11.2997
▁своеобразны	-11.2997
▁эгоизм	-11.2997
▁косну	-11.2997
▁францевн	-11.2997
ествовани	-11.2997
▁двойник	-11.2997
▁неразрешим	-11.2997
▁подоконник	-11.2997
▁сравнени	-11.2997
▁амаль	-11.2997
▁прелестн	-11.2997
▁одушевление	-11.2997
▁математическ	-11.2997
▁профессор	-11.2997
▁визг	-11.2997
▁порешил	-11.2997
▁мемуар	-11.2997
▁вековечн	-11.2997
▁привстав	-11.2997
▁веревк	-11.2997
▁юбк	-11.2997
▁предстоящ	-11.2997
▁семейны	-11.2997
▁пиков	-11.2997
▁затихл	-11.2997
▁десятирублев	-11.2997
▁плод	-11.2997
▁тулон	-11.2997
▁покля	-11.2997
▁угоди	-11.2997
▁тузил	-11.2997
ais	-11.2997
▁благодарности	-11.2997
▁миленьки	-11.2997
▁сюрпризик	-11.2997
▁ревнив	-11.2997
▁клоак	-11.2997
▁взаимн	-11.2997
▁переставал	-11.2997
▁рабочи	-11.2997
социа	-11.2998
▁лимон	-11.2998
▁проясн	-11.2998
▁вышедш	-11.2998
▁григорьевич	-11.2998
▁измученн	-11.2998
▁присутствующи	-11.2998
▁заверш	-11.2998
▁высуну	-11.2998
▁скамь	-11.2998
▁наруша	-11.2998
▁женском	-11.2998
▁удостовери	-11.2998
▁начальник	-11.2998
стенька	-11.2998
▁избранны	-11.2998
▁сообщени	-11.2998
▁мокро	-11.2999
▁своя	-11.2999
▁избавлен	-11.2999
▁мешал	-11.2999
▁согре	-11.2999
▁торговку	-11.2999
▁называемы	-11.2999
▁построени	-11.2999
▁различи	-11.2999
▁кляч	-11.2999
▁заботливо	-11.2999
▁отдыха	-11.2999
▁бездн	-11.3
▁весенн	-11.3
▁достигну	-11.3
▁мнительно	-11.3
▁хром	-11.3
▁начальств	-11.3
▁пошари	-11.3
▁расплати	-11.3
▁хозяйск	-11.3
▁основания	-11.3
▁опр	-11.3001
▁убивает	-11.3001
▁полученны	-11.3001
кураж	-11.3001
▁перешагн	-11.3001
▁танцевала	-11.3001
▁озлил	-11.3001
▁искорен	-11.3001
▁наполеоновск	-11.3002
▁символическ	-11.3002
▁крестьянин	-11.3002
▁мрак	-11.3002
▁закури	-11.3002
▁заката	-11.3002
▁деревенск	-11.3002
▁эво	-11.3002
▁врань	-11.3002
тасканн	-11.3003
▁почел	-11.3003
ловить	-11.3003
▁1870	-11.3003
нимало	-11.3003
▁умереть	-11.3003
▁душевны	-11.3003
▁перебива	-11.3003
▁тетки	-11.3003
▁воск	-11.3003
▁нарас	-11.3003
▁белокуры	-11.3003
▁собак	-11.3003
▁достанет	-11.3003
▁давнишн	-11.3003
▁усып	-11.3004
▁социалистов	-11.3004
▁боязн	-11.3004
▁гоф	-11.3004
▁неохот	-11.3004
▁чистосердечно	-11.3004
▁укорял	-11.3004
▁последующ	-11.3004
▁намекает	-11.3004
▁зароди	-11.3005
▁127	-11.3005
▁стаканчик	-11.3005
▁эксцентрическ	-11.3005
▁мышк	-11.3005
▁простын	-11.3006
▁зачита	-11.3006
▁бессмысленно	-11.3006
▁косыночк	-11.3006
нюха	-11.3006
▁питейн	-11.3006
▁проникну	-11.3006
▁приснил	-11.3007
▁молчалив	-11.3007
▁сипл	-11.3008
▁феврал	-11.3008
дурман	-11.3008
▁произведение	-11.3008
▁побор	-11.3009
▁веселе	-11.3009
▁голы	-11.301
▁фаланстер	-11.301
▁узеньк	-11.301
паш	-11.301
▁бабушкин	-11.301
▁сонечкин	-11.3011
▁покоси	-11.3011
▁уступил	-11.3012
▁убор	-11.3012
▁пирог	-11.3012
▁клочк	-11.3013
▁воротнич	-11.3013
▁дворянин	-11.3013
▁ходьб	-11.3013
▁криво	-11.3014
▁надзиратель	-11.3014
▁прочту	-11.3014
▁подписк	-11.3014
▁ставит	-11.3015
хвалить	-11.3015
▁перестанет	-11.3015
▁истязани	-11.3015
▁крепки	-11.3016
▁проглядывал	-11.3017
▁отрицательн	-11.3017
▁шулером	-11.3017
99	-11.3017
разительно	-11.3019
▁скот	-11.3019
▁распоряжени	-11.302
▁бара	-11.302
чиво	-11.3022
▁презирает	-11.3022
▁изумил	-11.3023
▁выздоровлени	-11.3023
прикаса	-11.3023
▁основыва	-11.3023
▁существовал	-11.3024
▁сниз	-11.3024
▁мучает	-11.3026
▁закрич	-11.3026
▁уважаем	-11.3027
▁древне	-11.3027
▁ацтеки	-11.3028
▁последующим	-11.3029
▁приятнос	-11.3029
▁труслив	-11.3031
▁возбуждени	-11.3031
▁визжал	-11.3031
▁мета	-11.3031
▁существенн	-11.3032
▁курин	-11.3032
▁укоряю	-11.3032
▁сложив	-11.3032
▁скал	-11.3032
▁грабежом	-11.3033
▁рассудите	-11.3033
▁проводит	-11.3034
▁различа	-11.3035
▁простоял	-11.3035
▁понесл	-11.3035
▁владимирк	-11.3036
▁возразил	-11.3036
щите	-11.3037
▁подтвердил	-11.3038
▁загоревш	-11.3038
▁истерически	-11.3038
▁мантильк	-11.3038
▁уклон	-11.3039
▁погубил	-11.304
кально	-11.3041
гулять	-11.3041
▁лот	-11.3042
▁украд	-11.3042
▁докажет	-11.3043
▁ободрил	-11.3043
▁засунул	-11.3044
▁проговарива	-11.3044
▁кладбища	-11.3045
▁отчаянн	-11.3046
▁птичк	-11.3046
▁циник	-11.3046
тылк	-11.3047
▁посидит	-11.3047
▁изменя	-11.3047
ехоньк	-11.3047
▁укрепи	-11.3047
▁конв	-11.3051
429	-11.3051
▁прогрессист	-11.3055
▁выпустил	-11.3056
▁ступен	-11.3057
▁ободрить	-11.3057
▁порядочно	-11.3057
▁начальны	-11.3057
▁догнал	-11.3058
▁лента	-11.3058
▁приглашение	-11.3059
солиднее	-11.306
▁спасительн	-11.306
▁умирать	-11.306
▁понятие	-11.3061
▁обидеть	-11.3064
▁ранен	-11.3065
▁формой	-11.3066
ьян	-11.3068
▁допуска	-11.3068
▁закати	-11.3068
▁испытыва	-11.3068
▁воспитание	-11.3069
▁огород	-11.3071
▁требовани	-11.3072
▁дрожащим	-11.3072
▁экономическ	-11.3072
▁оборванц	-11.3073
▁едко	-11.3075
▁кита	-11.3075
▁усилива	-11.3077
▁прасковья	-11.3078
▁хитри	-11.3078
▁отцов	-11.3078
▁обидела	-11.3079
▁убьет	-11.308
108	-11.308
чище	-11.308
▁обознача	-11.3081
▁лизаветин	-11.3082
▁пропада	-11.3082
▁стихотворения	-11.3083
▁возмущени	-11.3084
▁издержк	-11.3084
▁статейку	-11.3088
правды	-11.3088
▁предел	-11.309
▁интересов	-11.3091
▁последовательно	-11.3091
109	-11.3092
отенц	-11.3092
▁приемы	-11.3093
▁чувствуем	-11.3094
▁представлен	-11.3094
▁устроен	-11.3095
▁67	-11.3095
▁спасение	-11.3095
▁боков	-11.3097
▁велит	-11.3097
▁сжало	-11.3097
▁треклят	-11.3098
▁проснувши	-11.3099
меньш	-11.3099
▁отдаленно	-11.3102
115	-11.3104
273	-11.3105
▁пушкински	-11.3106
▁колокольни	-11.3107
▁чрезмерн	-11.3109
▁обличат	-11.3113
▁принято	-11.3114
▁бит	-11.3115
цве	-11.3116
▁лесть	-11.3116
▁удостоил	-11.3117
▁частный	-11.3118
▁верхн	-11.3118
▁брюзгливо	-11.3123
▁девчонка	-11.3124
▁погибну	-11.3124
▁найден	-11.3125
красить	-11.3125
▁уша	-11.3126
▁раствори	-11.3128
▁манкировал	-11.3129
▁самоуверенност	-11.3129
▁фактическ	-11.3131
r	-11.3132
▁узнавал	-11.3133
145	-11.3136
▁соблазнительно	-11.3137
ицу	-11.3137
▁упер	-11.3138
нело	-11.3139
▁сарая	-11.314
▁чье	-11.3142
▁склоня	-11.3145
▁обещает	-11.3145
▁издавать	-11.3146
▁истерзал	-11.3151
▁потребует	-11.3151
▁пошевели	-11.3152
▁столб	-11.3153
▁пожертвова	-11.3155
▁логически	-11.3156
▁гибель	-11.3158
сочини	-11.3158
218	-11.3158
▁странност	-11.3161
▁церемони	-11.3161
▁отним	-11.3163
▁берг	-11.3165
ревн	-11.3172
▁пустяки	-11.3175
▁жали	-11.3175
▁лишил	-11.3175
путал	-11.3176
▁переведен	-11.3176
▁прибавля	-11.3176
▁смотревш	-11.3179
▁богач	-11.318
139	-11.3183
▁открыти	-11.319
▁бра	-11.3196
▁поклоня	-11.3197
▁хитрост	-11.3199
▁ветр	-11.3199
▁подымая	-11.32
▁перебира	-11.3201
▁страстно	-11.3201
▁подозреваю	-11.3201
спор	-11.3205
▁гадк	-11.3206
▁указанн	-11.3207
▁назван	-11.3208
▁магазина	-11.3208
▁карьеры	-11.3209
▁необходимы	-11.321
▁презира	-11.3213
▁пробежал	-11.3216
▁любова	-11.3217
▁недоверчивость	-11.3218
▁первоначальны	-11.3219
▁упоминал	-11.322
▁пятипроцентны	-11.3225
▁целова	-11.3225
▁разбудил	-11.3226
▁умерши	-11.3226
▁завод	-11.3229
смерт	-11.323
▁примут	-11.3232
▁уверял	-11.3232
кликнул	-11.3237
▁смеешь	-11.3237
ложенным	-11.3238
девши	-11.3238
▁преступ	-11.3239
▁основательн	-11.324
▁помян	-11.3241
▁фантастически	-11.3241
▁зайдет	-11.3243
▁пропали	-11.325
▁предположения	-11.3253
▁случился	-11.3257
▁проскользнул	-11.3258
▁тревожить	-11.3258
▁окончательны	-11.3258
▁величайшем	-11.3258
▁юли	-11.3262
▁мерзк	-11.3263
▁надрыва	-11.3271
▁открыто	-11.3271
▁обдумыва	-11.3272
166	-11.3273
▁мам	-11.3275
рту	-11.3275
▁каналь	-11.3276
хихикал	-11.3282
▁спер	-11.3283
▁старухины	-11.3289
▁заступи	-11.3293
▁кончик	-11.3293
▁случивше	-11.3295
войственно	-11.3295
ченны	-11.3299
▁бесс	-11.3303
▁улич	-11.3304
▁хмел	-11.3305
▁помещени	-11.3305
▁длин	-11.3306
▁требова	-11.3307
▁сорт	-11.3312
спит	-11.3315
▁правила	-11.332
118	-11.3322
▁подумай	-11.3325
▁теорий	-11.3326
▁стремил	-11.3327
детски	-11.333
▁перекрестк	-11.3339
▁невинност	-11.3346
▁пьет	-11.3348
наем	-11.3351
233	-11.3352
▁подделывал	-11.3357
▁поправил	-11.3358
▁казенн	-11.3362
▁сверкающим	-11.3363
▁выложил	-11.3366
▁156	-11.3369
▁морд	-11.3371
▁пытк	-11.3372
▁роя	-11.3374
пробовал	-11.3374
▁беспокою	-11.3378
▁связан	-11.338
▁замечаю	-11.3381
▁соображал	-11.3384
нерв	-11.3392
▁дарь	-11.3393
▁имение	-11.3396
▁мелко	-11.3397
▁слабости	-11.3411
▁оберн	-11.3418
▁переменил	-11.3427
▁слышу	-11.343
▁покорно	-11.3437
▁беспомощност	-11.3449
▁пет	-11.3451
▁полми	-11.3453
▁приятнейш	-11.3453
креп	-11.3455
▁предприятие	-11.3455
▁пустила	-11.3459
▁служивш	-11.3466
▁обедал	-11.347
охватывал	-11.3471
▁беднейш	-11.3472
иван	-11.3477
▁конног	-11.3478
▁духовны	-11.3484
▁молоденьк	-11.3487
драл	-11.349
▁прищурил	-11.3499
▁потолк	-11.35
вич	-11.3507
▁обвиняет	-11.3508
▁достави	-11.3511
▁оч	-11.3514
▁устран	-11.3516
▁пугал	-11.3518
▁закры	-11.3518
▁глянул	-11.3519
▁беги	-11.3523
пуля	-11.3524
▁посо	-11.353
▁чужом	-11.3532
▁обнаружить	-11.3533
▁раздражил	-11.3534
горячил	-11.3537
давн	-11.3553
страстно	-11.3555
▁глотк	-11.3559
▁сыграл	-11.3567
▁сент	-11.3571
▁мещанк	-11.3572
▁общ	-11.3582
▁приму	-11.3583
▁направления	-11.3589
свидетельствова	-11.3589
вините	-11.3595
▁недоверчивы	-11.3595
гс	-11.3598
делял	-11.3605
▁траур	-11.3619
полож	-11.3619
▁предоставля	-11.362
▁куск	-11.362
▁целом	-11.362
равнодушно	-11.3621
▁чудовищн	-11.3626
▁состо	-11.363
▁приличны	-11.3635
▁добродетельно	-11.3636
▁материнско	-11.3638
▁принципа	-11.3643
▁явивши	-11.3647
полковни	-11.3648
▁стучали	-11.366
▁арестова	-11.366
▁спасенны	-11.3663
▁мину	-11.3674
▁жилетк	-11.3694
▁обижает	-11.3694
▁открыт	-11.3696
▁распя	-11.3711
▁такова	-11.3712
▁материальны	-11.3713
▁захвати	-11.3716
▁идейно	-11.3717
▁известиям	-11.3724
▁груст	-11.3725
▁почтеннейш	-11.3728
казала	-11.3729
▁произнесен	-11.3733
▁задыхающ	-11.3733
▁передово	-11.3738
▁оригинально	-11.3749
▁отнес	-11.3762
нимая	-11.3766
▁оправдывать	-11.3783
▁главнейши	-11.3791
олюбивы	-11.3792
▁беспредельно	-11.3793
▁пролив	-11.3796
▁бесчест	-11.3797
▁кредитк	-11.3803
▁братья	-11.3805
▁изъясн	-11.3806
трог	-11.3807
▁заговаривал	-11.3809
▁сверкал	-11.3809
▁каж	-11.3812
▁притаи	-11.3816
▁жадност	-11.3816
▁продолжает	-11.3818
мейте	-11.3825
▁выходивши	-11.3828
▁несправедливо	-11.383
▁отходил	-11.3832
▁звонил	-11.3835
▁дальнейшем	-11.3835
▁презирал	-11.3852
▁закута	-11.3857
▁дошедш	-11.3861
▁допустит	-11.3866
▁вещиц	-11.3879
▁давешни	-11.3885
▁нравственност	-11.3885
▁масси	-11.3885
▁последствия	-11.3889
▁уединенн	-11.3892
удовлетворительн	-11.3904
ходила	-11.3922
▁налива	-11.3937
▁сообщает	-11.3939
▁осторожн	-11.3941
▁мужск	-11.3941
▁белом	-11.3958
▁сконфузивш	-11.396
▁целям	-11.396
▁толкуч	-11.3968
▁откровенн	-11.3978
▁многоуважаемо	-11.3981
▁неслыханно	-11.3988
▁избегал	-11.3992
▁воображения	-11.4001
рожу	-11.4038
▁упоминает	-11.4044
▁шинел	-11.4044
▁фальшивы	-11.4045
▁оглядывал	-11.4051
▁оставит	-11.4061
▁поспеши	-11.4065
▁низк	-11.4074
▁подожд	-11.4075
лгал	-11.4077
▁бег	-11.4078
▁мин	-11.4082
▁сыр	-11.4091
▁умен	-11.4094
▁смелос	-11.4095
▁огляде	-11.4103
▁приняты	-11.4108
▁поступкам	-11.4118
▁несчаст	-11.4119
глу	-11.4127
зывали	-11.4131
▁высказывать	-11.4138
▁доброт	-11.4152
▁играю	-11.4155
▁пустяк	-11.4163
▁звони	-11.4167
▁держала	-11.4169
▁кухарк	-11.4175
▁дрожавши	-11.4179
чивать	-11.4188
▁бал	-11.4191
▁удали	-11.421
▁воскресн	-11.4211
▁родным	-11.4211
▁прекращ	-11.4223
брел	-11.4226
▁мяс	-11.4226
пор	-11.4237
веренность	-11.4239
▁кис	-11.424
▁чувствительны	-11.424
▁возникш	-11.4252
▁фамильярно	-11.4252
▁страш	-11.4257
▁обрадованн	-11.4258
колотить	-11.4259
справить	-11.4264
▁уйди	-11.4269
▁полезны	-11.429
▁вечны	-11.4292
▁придано	-11.4304
▁испуганны	-11.4311
▁бегун	-11.4324
▁отворенно	-11.4326
▁хриплы	-11.433
▁взволнованн	-11.4342
▁историк	-11.4347
влекл	-11.4352
▁ногт	-11.4354
▁пота	-11.4369
▁идуще	-11.438
▁усталост	-11.4382
▁молодом	-11.4393
▁фактам	-11.4394
▁авторско	-11.4397
▁края	-11.4404
рожден	-11.4412
садить	-11.4422
▁постоянн	-11.4424
▁спинк	-11.4438
▁поставит	-11.445
▁защищал	-11.4463
стоявший	-11.447
▁случивши	-11.4472
▁вызыва	-11.4481
▁заслуж	-11.4482
▁рожа	-11.4487
▁объяснять	-11.4488
141	-11.4504
▁голодно	-11.4506
▁останавливает	-11.4508
тофел	-11.4528
▁усили	-11.4533
▁обвинял	-11.4535
▁виноваты	-11.4536
лух	-11.4537
▁уклад	-11.4542
▁цепочк	-11.4543
▁серьезн	-11.4558
бивали	-11.4574
вернуть	-11.4577
▁помири	-11.4588
▁произвед	-11.4603
▁написанны	-11.4608
▁кот	-11.4616
▁опасн	-11.4621
▁происшествие	-11.4627
▁сиял	-11.463
▁дешев	-11.4647
▁возить	-11.4654
ловил	-11.4658
▁благодетел	-11.4675
▁невыразимо	-11.4683
▁хлопоч	-11.4692
▁вызов	-11.4706
бивать	-11.4735
▁помогл	-11.4749
92	-11.476
▁видна	-11.4783
▁глазкам	-11.4798
▁собираю	-11.4801
махнул	-11.481
▁прикрыт	-11.4825
чаты	-11.4825
▁принят	-11.483
▁179	-11.4844
▁товарищам	-11.4847
▁деликат	-11.4849
▁приглашаю	-11.485
▁хрипл	-11.4851
рез	-11.4851
▁беспокойны	-11.4854
▁ненавид	-11.4854
листов	-11.4862
▁смеют	-11.4864
▁носит	-11.4866
▁откровен	-11.4872
тельниц	-11.4874
▁высоком	-11.488
▁деловитост	-11.4885
▁кухарка	-11.4889
▁появил	-11.4894
▁устав	-11.491
▁удивленны	-11.4917
▁беспокоит	-11.4917
пустил	-11.4917
слышан	-11.4919
досадова	-11.4919
▁обеща	-11.4936
▁бей	-11.4942
▁178	-11.4943
▁соб	-11.4972
▁доказыва	-11.4995
▁перевернуло	-11.4999
▁негод	-11.5
▁развлеч	-11.5004
▁человече	-11.5004
▁фальшив	-11.5031
шинель	-11.5031
горяч	-11.5051
▁спуска	-11.5073
▁пугать	-11.5087
▁следующ	-11.5125
▁вздрагивал	-11.5131
▁пустили	-11.5144
▁набросил	-11.5151
▁любопыт	-11.5158
▁недостойн	-11.5162
держа	-11.5165
▁принадлежавш	-11.5166
▁пыльн	-11.5167
▁дунечкино	-11.5168
▁нотк	-11.5171
▁устраива	-11.5208
▁твоим	-11.5216
▁уединенно	-11.522
няк	-11.5226
▁мелк	-11.523
▁прохож	-11.5232
▁любезн	-11.5234
▁удачн	-11.524
▁закутал	-11.5242
▁пид	-11.525
▁погибл	-11.5262
▁сверка	-11.5263
▁злы	-11.5268
▁откладыва	-11.5273
бны	-11.528
▁рол	-11.5284
▁вырвать	-11.5294
▁благород	-11.5303
▁беспредельн	-11.5316
несла	-11.5317
▁мор	-11.5326
▁торгов	-11.533
▁уезжа	-11.5331
точку	-11.5336
▁сквер	-11.5348
▁выходивш	-11.5349
▁определи	-11.5349
▁бесчестн	-11.5351
▁пряч	-11.5352
▁каторжн	-11.5353
перво	-11.5353
отворите	-11.5363
▁оригинальн	-11.5367
творен	-11.5376
▁милы	-11.5386
довлетворительно	-11.5391
чинит	-11.541
хитрейш	-11.5412
▁запрещен	-11.5414
▁закр	-11.5415
▁смешлив	-11.5417
судите	-11.5434
▁красн	-11.5437
▁передн	-11.5438
▁возьм	-11.5465
готовил	-11.547
▁прогна	-11.5477
▁прыга	-11.549
▁материальн	-11.5495
▁слуша	-11.5497
▁оставл	-11.5501
бегал	-11.5507
▁изложени	-11.5508
▁дрожат	-11.5511
▁залож	-11.5512
▁чудовищно	-11.5513
платит	-11.5519
▁проговор	-11.5527
двига	-11.5542
▁наивн	-11.5549
вар	-11.555
▁вперв	-11.5563
▁попробова	-11.5566
▁требовал	-11.5573
больн	-11.5595
▁лоскут	-11.5603
▁глот	-11.5607
▁твар	-11.5608
черкнут	-11.5657
▁морщи	-11.566
зыв	-11.5668
▁прищури	-11.5668
учения	-11.5671
▁наруж	-11.5673
▁поддакива	-11.5677
▁существую	-11.5683
▁созре	-11.5688
ненько	-11.571
щин	-11.5722
▁предприяти	-11.5724
добродушно	-11.5725
▁главнейш	-11.5729
▁грабеж	-11.5745
▁жалобн	-11.5753
лагодетельствова	-11.5765
▁отчеканил	-11.5769
▁пыл	-11.5778
▁обеспеч	-11.5785
▁удив	-11.5785
▁мечт	-11.5789
отно	-11.5795
▁смир	-11.5841
▁перст	-11.5853
▁успокоили	-11.5854
▁истощ	-11.5857
хихика	-11.5862
▁преувеличен	-11.5864
рождает	-11.5869
▁заплака	-11.5884
дочка	-11.5898
▁вежлив	-11.5902
▁шевели	-11.5905
▁любов	-11.5907
▁испуган	-11.591
▁угл	-11.5917
▁отношени	-11.5919
▁приеха	-11.592
▁поляч	-11.5933
▁зале	-11.5936
▁насмеш	-11.5944
розил	-11.5953
▁скуп	-11.5957
змахнул	-11.5972
▁se	-11.5973
▁деревянны	-11.5974
▁проговорив	-11.5975
▁величайше	-11.5976
▁трагическ	-11.598
нравственн	-11.598
рку	-11.5984
▁попыт	-11.5993
▁горл	-11.5994
▁добыва	-11.5995
▁угада	-11.6004
дски	-11.6007
хлопну	-11.601
живе	-11.6017
▁статей	-11.6018
лова	-11.6023
▁пошлост	-11.6028
▁глупост	-11.6033
очтите	-11.6034
махива	-11.6037
глядел	-11.6041
▁магазин	-11.6041
давленно	-11.6044
слышал	-11.6045
сказал	-11.6046
▁вагнер	-11.6049
▁прибави	-11.6051
толкнул	-11.6059
этаж	-11.6063
▁изменил	-11.6063
числен	-11.6066
▁нанят	-11.6071
прашива	-11.608
бьет	-11.6083
▁поддерж	-11.61
▁засаленно	-11.6106
добр	-11.6108
▁гибел	-11.6109
езон	-11.6113
стучал	-11.6118
судейски	-11.6119
охватил	-11.6124
▁застан	-11.6125
▁круп	-11.6125
▁выскочи	-11.6127
индивидуалист	-11.613
мечта	-11.6133
удовольствие	-11.6134
значительн	-11.6135
▁удовлетвори	-11.6135
трех	-11.6137
дальше	-11.6138
▁высказа	-11.6138
принять	-11.6139
счастлив	-11.6139
достаточно	-11.6142
редко	-11.6143
перерыв	-11.6148
▁извест	-11.6148
▁самоуверенн	-11.6148
▁плот	-11.6149
▁решивш	-11.615
▁ладон	-11.615
▁отъявленн	-11.6152
▁приступи	-11.6152
речи	-11.6152
▁убежд	-11.6154
опат	-11.6155
стрижен	-11.6155
▁размышлени	-11.6156
ульс	-11.6159
▁удосто	-11.6161
кандал	-11.6162
▁уступ	-11.6165
▁вообража	-11.6165
разверну	-11.6166
▁смер	-11.6166
спрашива	-11.617
▁жизне	-11.6172
▁мгновен	-11.6174
▁довод	-11.618
▁прилож	-11.6182
подло	-11.6185
помнят	-11.6187
▁выставл	-11.6189
▁иностран	-11.6189
▁припад	-11.6191
▁приехав	-11.6194
▁читаю	-11.6198
мрачен	-11.62
▁исповед	-11.62
четвер	-11.6202
способны	-11.6208
просыпа	-11.6209
▁подмигива	-11.6212
▁искривлен	-11.6216
▁взглян	-11.6217
▁прасковь	-11.6217
▁гер	-11.6218
кольник	-11.6219
рука	-11.6222
▁афанаси	-11.6222
▁сара	-11.6226
▁оборачива	-11.6228
▁гусар	-11.6233
▁рабо	-11.6233
▁запуга	-11.6234
▁воскресен	-11.6234
▁размен	-11.6235
надежны	-11.6236
▁крестьян	-11.6238
▁сонечк	-11.6241
▁преданн	-11.6243
▁собирали	-11.6244
▁оцени	-11.6244
▁дворян	-11.6252
зачем	-11.6252
▁ремесл	-11.6255
▁умол	-11.6257
▁ипохондри	-11.6263
▁размышля	-11.6269
льск	-11.6269
▁канцеляр	-11.627
ражало	-11.6271
▁бряк	-11.6273
▁музык	-11.6275
рюк	-11.6277
▁сгор	-11.6278
кнув	-11.6279
▁посети	-11.6282
тупени	-11.6284
▁фантаст	-11.6286
▁учител	-11.6291
▁хвалил	-11.6291
▁обхват	-11.6293
▁неблагодар	-11.6294
▁возбуд	-11.6295
рекомендовать	-11.6295
шон	-11.6297
▁шал	-11.6298
странен	-11.6301
▁поддак	-11.6304
▁демократ	-11.6305
▁разви	-11.6306
слав	-11.6307
▁обнаружил	-11.6308
▁недостат	-11.631
▁бабушк	-11.6311
мышления	-11.6312
▁смертно	-11.6312
отню	-11.6312
рыд	-11.6313
жима	-11.6313
▁умна	-11.6314
▁буян	-11.6314
бавил	-11.6315
▁прибег	-11.6315
▁эксцентрич	-11.6317
▁посуд	-11.6317
▁цар	-11.6317
белокур	-11.6318
▁тихи	-11.632
свечн	-11.6322
▁обман	-11.6323
средоточи	-11.6324
▁погуля	-11.6324
▁сумасшеств	-11.6324
трагеди	-11.6325
ольше	-11.6326
▁пенси	-11.6327
ключен	-11.6327
▁священн	-11.6327
▁заработ	-11.6327
фран	-11.6328
европейск	-11.6328
одушевлен	-11.6329
винен	-11.6329
отступ	-11.6329
ё	-11.6329
пременно	-11.6329
▁беспоряд	-11.6329
траги	-11.6329
▁позволите	-11.6329
▁мошенничес	-11.6329
▁прокатим	-11.6329
ause	-11.6329
▁башмак	-11.6329
▁каламбур	-11.6329
▁лекар	-11.6329
▁остзейск	-11.6329
▁рубашеч	-11.6329
▁чухон	-11.6329
501	-11.6329
авенантненькая	-11.6329
зготовля	-11.6329
командировал	-11.6329
лепетал	-11.6329
послушны	-11.6329
словоохотлив	-11.6329
эстетическ	-11.6329
▁академи	-11.6329
▁амбици	-11.6329
▁апельсинничаешь	-11.6329
▁апокалипсис	-11.6329
▁безвыходн	-11.6329
▁безответн	-11.6329
▁бесконечны	-11.6329
▁бескорыст	-11.6329
▁беспамятств	-11.6329
▁бессвязны	-11.6329
▁бесчеловеч	-11.6329
▁блестел	-11.6329
▁бочаров	-11.6329
▁брызг	-11.6329
▁виртуоз	-11.6329
▁вицмундир	-11.6329
▁возглагол	-11.6329
▁воробуш	-11.6329
▁всевышне	-11.6329
▁вспоможени	-11.6329
▁выполни	-11.6329
▁выпрыгну	-11.6329
▁выпытыва	-11.6329
▁вытаскива	-11.6329
▁депутат	-11.6329
▁диалектик	-11.6329
▁дневник	-11.6329
▁доставлял	-11.6329
▁дружественны	-11.6329
▁естественны	-11.6329
▁жреби	-11.6329
▁загадочны	-11.6329
▁заговорщик	-11.6329
▁загрязни	-11.6329
▁заключало	-11.6329
▁замешательство	-11.6329
▁застенчив	-11.6329
▁затвори	-11.6329
▁злорад	-11.6329
▁изголовь	-11.6329
▁институт	-11.6329
▁интриг	-11.6329
▁исковеркан	-11.6329
▁исправлени	-11.6329
▁иссохши	-11.6329
▁казуистик	-11.6329
▁компаньон	-11.6329
▁кордегарди	-11.6329
▁кувырк	-11.6329
▁легкомысли	-11.6329
▁лермонтов	-11.6329
▁ливингстон	-11.6329
▁малявочк	-11.6329
▁мансард	-11.6329
▁мертвобледн	-11.6329
▁митрофаниевско	-11.6329
▁молокосос	-11.6329
▁монументальн	-11.6329
▁наведыва	-11.6329
▁наклепал	-11.6329
▁напряга	-11.6329
▁напутстви	-11.6329
▁наследнико	-11.6329
▁невиданно	-11.6329
▁немолод	-11.6329
▁необъяснимо	-11.6329
▁необычайн	-11.6329
▁непоколебим	-11.6329
▁несогласи	-11.6329
▁неспешны	-11.6329
▁обусловлен	-11.6329
▁объедин	-11.6329
▁оклеветал	-11.6329
▁окостенел	-11.6329
▁опоздал	-11.6329
▁опуская	-11.6329
▁оробе	-11.6329
▁остолбенел	-11.6329
▁отбира	-11.6329
▁отвернувш	-11.6329
▁отговорк	-11.6329
▁откланива	-11.6329
▁откудова	-11.6329
▁отпихнул	-11.6329
▁отрицани	-11.6329
▁паспорт	-11.6329
▁пейзаж	-11.6329
▁переосмыслен	-11.6329
▁перешедш	-11.6329
▁печальна	-11.6329
▁племянник	-11.6329
▁плутовск	-11.6329
▁поворачива	-11.6329
▁подготовк	-11.6329
▁подсказыва	-11.6329
▁подслеп	-11.6329
▁подсудим	-11.6329
▁пореформенн	-11.6329
▁посвященны	-11.6329
▁послушно	-11.6329
▁похолоде	-11.6329
▁предвосхища	-11.6329
▁предпоче	-11.6329
▁предубеждени	-11.6329
▁претерпе	-11.6329
▁примолк	-11.6329
▁прислуг	-11.6329
▁продукт	-11.6329
▁прозрачн	-11.6329
▁происшедш	-11.6329
▁промежутк	-11.6329
▁просвещен	-11.6329
▁прохладн	-11.6329
▁прошедш	-11.6329
▁прынцесс	-11.6329
▁психически	-11.6329
▁равенств	-11.6329
▁развращенн	-11.6329
▁разгляди	-11.6329
▁рассержен	-11.6329
▁растерявш	-11.6329
▁рациональн	-11.6329
▁рекомендаци	-11.6329
▁рекоменду	-11.6329
▁репутаци	-11.6329
▁санктпетербург	-11.6329
▁семнадцат	-11.6329
▁сказывать	-11.6329
▁скатерть	-11.6329
▁сковород	-11.6329
▁скромно	-11.6329
▁слесар	-11.6329
▁содрога	-11.6329
▁состряпал	-11.6329
▁страдальчески	-11.6329
▁страстны	-11.6329
▁студенчески	-11.6329
▁схватыва	-11.6329
▁съел	-11.6329
▁толмачев	-11.6329
▁тряпк	-11.6329
▁турецки	-11.6329
▁тускло	-11.6329
▁уведомлял	-11.6329
▁увеличил	-11.6329
▁угрызени	-11.6329
▁удвои	-11.6329
▁удрученн	-11.6329
▁умонастроени	-11.6329
▁услыха	-11.6329
▁установлен	-11.6329
▁утилитар	-11.6329
▁уцелел	-11.6329
▁фантастичност	-11.6329
▁флигел	-11.6329
▁фыркнул	-11.6329
▁херувимов	-11.6329
▁целомудри	-11.6329
▁шкатулк	-11.6329
▁шлепохвост	-11.6329
▁штаб	-11.6329
▁энтузиазм	-11.6329
красавиц	-11.6329
остерег	-11.6329
персидско	-11.6329
▁армяк	-11.6329
▁атласн	-11.6329
▁беззащитн	-11.6329
▁безмолвн	-11.6329
▁беспощадн	-11.6329
▁бесчинств	-11.6329
▁благословени	-11.6329
▁болтлив	-11.6329
▁взрыв	-11.6329
▁восстановлен	-11.6329
▁вспыльчив	-11.6329
▁вспыхива	-11.6329
▁дагестана	-11.6329
▁екатерининско	-11.6329
▁заграничн	-11.6329
▁закипел	-11.6329
▁замучил	-11.6329
▁консервативн	-11.6329
▁крючк	-11.6329
▁неразрывн	-11.6329
▁ограблен	-11.6329
▁ожидает	-11.6329
▁отдыхну	-11.6329
▁оторва	-11.6329
▁отрицаю	-11.6329
▁перемеша	-11.6329
▁покупк	-11.6329
▁пообеда	-11.6329
▁предуведом	-11.6329
▁предшественник	-11.6329
▁промысл	-11.6329
▁протесня	-11.6329
▁расслабленн	-11.6329
▁реализм	-11.6329
▁сверкнув	-11.6329
▁слепы	-11.6329
▁торгу	-11.6329
▁уговарива	-11.6329
▁установител	-11.6329
▁утерпе	-11.6329
▁цикл	-11.6329
личнейш	-11.6329
малчива	-11.6329
хлебну	-11.6329
▁базаров	-11.6329
▁барабан	-11.6329
▁бартол	-11.6329
▁доказан	-11.6329
▁жительств	-11.6329
▁зависел	-11.6329
▁загнанн	-11.6329
▁запачканн	-11.6329
▁изоблич	-11.6329
▁инстинктивно	-11.6329
▁канкан	-11.6329
▁князь	-11.6329
▁коллежск	-11.6329
▁напускн	-11.6329
▁неприязн	-11.6329
▁обращу	-11.6329
▁объяти	-11.6329
▁освобод	-11.6329
▁оскорбил	-11.6329
▁очарова	-11.6329
▁переспросил	-11.6329
▁плантатор	-11.6329
▁полемически	-11.6329
▁последовавше	-11.6329
▁прерывист	-11.6329
▁сдерживая	-11.6329
▁скрываем	-11.6329
▁терпим	-11.6329
таратор	-11.6329
▁дерзки	-11.6329
▁дряхл	-11.6329
▁заношенн	-11.6329
▁непреодолим	-11.6329
▁обширн	-11.6329
▁побуждени	-11.6329
▁покоробил	-11.6329
▁порусски	-11.6329
▁похудел	-11.6329
▁претенду	-11.6329
▁чудесне	-11.6329
шмыга	-11.6329
▁задержива	-11.6329
▁индивидуальн	-11.6329
▁купечески	-11.6329
▁мачех	-11.6329
▁многоразличны	-11.6329
▁неутолим	-11.6329
▁одолел	-11.6329
▁пивц	-11.6329
▁подавленны	-11.6329
▁полковничь	-11.6329
▁посильн	-11.6329
▁смугл	-11.6329
▁смущает	-11.6329
▁тенденциозн	-11.6329
▁шепч	-11.6329
▁эгоист	-11.6329
▁вкопанн	-11.6329
▁влюбил	-11.6329
▁захочет	-11.6329
▁посажу	-11.6329
▁пускала	-11.6329
▁смущал	-11.6329
читывал	-11.6329
▁каске	-11.6329
▁косвенн	-11.6329
▁озарил	-11.6329
▁расстояни	-11.6329
▁рубах	-11.6329
▁вступа	-11.6329
▁вытаращ	-11.6329
▁раскуси	-11.6329
▁ядовит	-11.6329
просветите	-11.633
▁замеша	-11.633
▁искази	-11.633
▁накопи	-11.633
▁причитал	-11.633
▁скаредн	-11.633
▁сладострастн	-11.633
▁торчал	-11.633
▁уладит	-11.633
▁хлещ	-11.633
▁выпуч	-11.633
▁зрител	-11.633
▁неглуп	-11.633
▁хныч	-11.633
▁злодея	-11.633
▁невнима	-11.633
▁отмечал	-11.633
▁павлыч	-11.633
▁помечен	-11.633
▁сувор	-11.633
▁искусн	-11.633
▁отрави	-11.633
▁смазан	-11.633
▁шармер	-11.633
▁переживани	-11.633
▁пословиц	-11.633
▁притягива	-11.633
▁расписки	-11.633
▁реалист	-11.633
▁ругая	-11.633
▁слушательниц	-11.633
▁выделанн	-11.633
▁незаметн	-11.633
▁онегин	-11.633
▁расстройств	-11.633
▁совмеща	-11.633
▁достойн	-11.633
▁соберу	-11.633
▁юрист	-11.633
▁разбито	-11.633
▁грядущи	-11.633
▁задира	-11.633
▁ненужн	-11.633
▁медаль	-11.633
благонамеренн	-11.633
ничаешь	-11.633
▁бесчисленн	-11.633
▁анализиру	-11.633
▁малолетним	-11.633
▁приобрел	-11.633
левывал	-11.633
▁орден	-11.633
▁замуча	-11.633
▁авторитет	-11.633
▁клеен	-11.633
▁развязать	-11.633
▁новенько	-11.633
утопист	-11.633
▁расстановк	-11.633
▁мизерн	-11.633
▁разукрашенны	-11.633
▁прослезил	-11.633
▁бродяг	-11.633
▁присуще	-11.633
▁праздничны	-11.633
инаци	-11.633
▁беспорядочн	-11.633
▁останьтесь	-11.633
▁клетушк	-11.633
▁проспал	-11.633
▁пощадит	-11.633
▁владычествова	-11.633
▁майор	-11.633
▁осветил	-11.633
▁признавай	-11.633
▁суевер	-11.633
▁напомнил	-11.633
▁возненавидел	-11.633
▁древни	-11.633
▁браво	-11.633
▁повез	-11.633
▁поднаду	-11.633
▁ничтожеств	-11.633
▁осрам	-11.633
▁догадк	-11.633
▁рисует	-11.633
▁трехлетн	-11.633
хленьки	-11.633
▁щедр	-11.633
▁прысн	-11.633
▁навеян	-11.633
▁ругать	-11.633
▁гармонирова	-11.633
▁позици	-11.633
▁комическая	-11.633
▁подчеркнуты	-11.633
▁врача	-11.633
▁сосредоточить	-11.633
▁ляга	-11.633
▁утихл	-11.633
▁безобрази	-11.633
▁неописанн	-11.633
▁плачевны	-11.633
▁потемне	-11.633
▁дрыхне	-11.633
▁рухнул	-11.633
38	-11.633
▁бумажник	-11.633
▁щечк	-11.633
▁блаж	-11.633
капиталистическо	-11.633
▁чеп	-11.633
▁щетин	-11.633
анонимн	-11.633
чивость	-11.633
▁засад	-11.633
▁буха	-11.6331
ous	-11.6331
▁прикажете	-11.6331
▁напряженны	-11.6331
▁сказанно	-11.6331
кидыва	-11.6331
▁приподнима	-11.6331
▁семеныч	-11.6331
▁зрел	-11.6331
▁чепчик	-11.6331
▁пустыню	-11.6331
▁сокров	-11.6331
▁сумлени	-11.6331
▁407	-11.6331
▁тесем	-11.6331
▁придумал	-11.6331
▁неосуществим	-11.6331
▁раскаива	-11.6331
▁сахар	-11.6331
▁ремесленник	-11.6331
▁прилеплива	-11.6331
▁прямым	-11.6331
рапорт	-11.6331
▁отвлеченны	-11.6331
▁проезд	-11.6331
▁центрально	-11.6331
аблю	-11.6331
▁желтоват	-11.6331
▁упоение	-11.6331
▁некрасов	-11.6331
▁стараниям	-11.6331
▁козл	-11.6331
▁набор	-11.6331
▁полтин	-11.6331
▁слуг	-11.6331
▁шайк	-11.6331
ons	-11.6331
▁слад	-11.6331
▁разливал	-11.6331
▁рогов	-11.6331
▁пересла	-11.6331
▁соврать	-11.6331
ru	-11.6331
▁хождение	-11.6331
▁взвел	-11.6331
▁солон	-11.6332
▁перстня	-11.6332
▁сборн	-11.6332
▁кожан	-11.6332
▁крестовско	-11.6332
▁почетны	-11.6332
▁ободривши	-11.6332
▁покончен	-11.6332
▁скомка	-11.6332
▁новичк	-11.6332
▁мещанинишк	-11.6332
▁юношеств	-11.6332
латыш	-11.6332
чайши	-11.6332
▁розовы	-11.6332
▁сухар	-11.6332
▁могилк	-11.6332
▁возлюбленн	-11.6332
▁утиха	-11.6332
▁взвизгнул	-11.6332
▁высказывания	-11.6332
▁сатир	-11.6332
▁зубчат	-11.6332
▁изорвал	-11.6332
▁польсти	-11.6332
павшими	-11.6332
▁решившего	-11.6332
▁непомерн	-11.6332
▁казарм	-11.6333
▁первона	-11.6333
▁мужичк	-11.6333
▁сдержанн	-11.6333
▁гуманности	-11.6333
▁желоб	-11.6333
▁глуха	-11.6333
▁жадным	-11.6333
▁робки	-11.6333
▁подпева	-11.6333
▁погубит	-11.6333
▁федоровн	-11.6333
▁посылал	-11.6333
▁трепетал	-11.6333
▁клячон	-11.6333
▁максим	-11.6333
▁мель	-11.6333
▁социалистическ	-11.6333
▁совпадени	-11.6333
▁слезинк	-11.6333
▁болезня	-11.6333
▁споем	-11.6333
▁благотворител	-11.6333
▁промышляют	-11.6334
▁горделив	-11.6334
▁весель	-11.6334
▁пересказыва	-11.6334
▁ver	-11.6334
▁повстреча	-11.6334
▁трагедия	-11.6334
▁пробор	-11.6334
▁напоил	-11.6334
▁маляр	-11.6334
▁благороднейши	-11.6334
▁конур	-11.6334
▁рван	-11.6334
▁сумасшествие	-11.6335
▁удивить	-11.6335
▁конси	-11.6335
▁переглянул	-11.6335
▁гладк	-11.6335
▁возвратить	-11.6335
▁корреспонденци	-11.6335
▁усач	-11.6335
бья	-11.6335
▁усталы	-11.6335
▁скандально	-11.6335
▁1847	-11.6335
▁робка	-11.6335
▁спичк	-11.6335
▁избит	-11.6335
▁завтрашн	-11.6336
▁подарите	-11.6336
▁безбожник	-11.6336
▁венец	-11.6336
▁перин	-11.6336
▁выпье	-11.6336
▁примерчик	-11.6336
▁огромнейши	-11.6336
▁водоп	-11.6336
▁закоп	-11.6336
▁бесстыдн	-11.6337
▁слоня	-11.6337
▁наврал	-11.6337
▁сжимал	-11.6337
▁пронзил	-11.6337
▁ревност	-11.6337
▁поезд	-11.6337
▁кормить	-11.6337
▁уверил	-11.6337
▁выдает	-11.6337
▁испорти	-11.6337
▁новейших	-11.6338
▁поручить	-11.6338
▁шиля	-11.6338
▁присутствова	-11.6338
▁северн	-11.6338
▁единичн	-11.6338
▁обидчик	-11.6338
98	-11.6339
▁физиологическ	-11.6339
▁174	-11.6339
▁высокомерны	-11.6339
▁руковод	-11.6339
▁пользова	-11.6339
▁пропитан	-11.634
▁полюс	-11.634
▁манишк	-11.634
▁покажите	-11.634
▁издательск	-11.634
is	-11.634
▁раздвину	-11.634
▁резать	-11.634
▁пребыва	-11.634
▁плюю	-11.634
▁ударяя	-11.634
▁сердо	-11.634
ентам	-11.634
▁путилк	-11.6341
▁украшени	-11.6341
▁зашептал	-11.6341
нциально	-11.6341
▁бабьи	-11.6341
▁пропаст	-11.6341
▁пьяненькой	-11.6341
▁обожа	-11.6341
▁отказываете	-11.6342
▁пальчик	-11.6342
▁уединени	-11.6342
▁бессмысленны	-11.6342
▁шиш	-11.6342
фыр	-11.6343
цари	-11.6343
пухов	-11.6343
стегну	-11.6343
▁жестяно	-11.6344
▁восторженность	-11.6344
▁цитированно	-11.6344
▁перелом	-11.6344
▁нынешне	-11.6344
▁чудак	-11.6344
▁разбогатеть	-11.6344
читаем	-11.6345
▁зим	-11.6345
▁яснее	-11.6345
▁71	-11.6345
▁запута	-11.6345
▁покрыты	-11.6345
▁кноп	-11.6345
▁капля	-11.6345
▁солгал	-11.6345
▁смирение	-11.6345
нарядить	-11.6345
опил	-11.6345
▁приказание	-11.6346
▁шампанско	-11.6346
▁отеч	-11.6346
▁звонки	-11.6346
страсти	-11.6347
▁погасал	-11.6347
▁налага	-11.6347
▁каменно	-11.6347
▁скользи	-11.6348
кция	-11.6348
▁блюдечк	-11.6348
▁любовник	-11.6348
альского	-11.6348
новения	-11.6348
▁лошаденк	-11.6348
▁обнови	-11.6349
чивая	-11.6349
▁заражен	-11.6349
▁журнально	-11.6349
▁лоб	-11.6349
▁покажи	-11.6349
▁мощ	-11.635
▁обыденно	-11.635
▁осек	-11.635
▁промах	-11.635
▁важнейши	-11.635
▁откровенность	-11.635
▁висел	-11.635
▁деба	-11.635
▁морг	-11.6351
▁уныл	-11.6351
▁напева	-11.6351
приемле	-11.6352
▁макушк	-11.6352
▁поспешность	-11.6353
▁стройн	-11.6354
▁бабье	-11.6354
▁встряхнул	-11.6354
▁увез	-11.6355
▁толчк	-11.6355
▁пригнул	-11.6355
▁стеснило	-11.6355
▁неоднократно	-11.6355
▁благословля	-11.6356
▁выпив	-11.6356
силил	-11.6356
▁прята	-11.6356
▁чернил	-11.6357
▁отмахну	-11.6357
▁городке	-11.6357
208	-11.6357
▁провожал	-11.6357
▁изображал	-11.6357
▁определение	-11.6357
▁давайте	-11.6357
приказчик	-11.6357
▁безучаст	-11.6357
▁продолжавший	-11.6358
▁откровенный	-11.6358
▁святым	-11.6358
▁трогательн	-11.6359
▁допросах	-11.636
уфл	-11.6362
▁остервенени	-11.6362
▁истолковани	-11.6362
▁одобр	-11.6362
кусил	-11.6362
▁потира	-11.6363
жалост	-11.6363
▁обыденн	-11.6363
▁прибегал	-11.6364
129	-11.6364
▁дожида	-11.6364
▁теряется	-11.6364
▁неблагодарност	-11.6365
▁заработать	-11.6365
▁основано	-11.6365
▁раскрыва	-11.6366
▁просроченн	-11.6366
▁прикину	-11.6366
▁приметил	-11.6366
▁проница	-11.6367
▁отскочил	-11.6368
▁улизн	-11.6368
▁неизбежно	-11.6368
кандаль	-11.6368
▁проболта	-11.6369
▁делишк	-11.637
▁шельм	-11.6371
▁фри	-11.6371
▁римского	-11.6371
▁дорожит	-11.6372
▁монет	-11.6373
▁полунищ	-11.6373
▁соседне	-11.6374
▁мадонны	-11.6374
лечь	-11.6374
▁тревожн	-11.6374
▁сторож	-11.6375
▁чайку	-11.6375
253	-11.6375
▁укусил	-11.6376
▁застрелился	-11.6377
▁городишк	-11.6378
▁гулянь	-11.6379
музыкальн	-11.6379
▁процед	-11.638
▁зимой	-11.6381
тонут	-11.6381
▁дворянски	-11.6382
▁казенная	-11.6382
une	-11.6383
▁успеем	-11.6384
няйте	-11.6384
▁строчк	-11.6384
▁служащ	-11.6385
ировк	-11.6386
▁цветочк	-11.6387
▁проживает	-11.6387
разлуч	-11.6387
▁отправлени	-11.6388
207	-11.6388
▁развязал	-11.6388
214	-11.6389
▁канцелярист	-11.6389
▁женихов	-11.6389
▁отказыва	-11.6391
важн	-11.6391
▁сутк	-11.6392
▁пьес	-11.6392
ург	-11.6393
▁облит	-11.6393
▁мешк	-11.6393
▁повреди	-11.6394
▁верти	-11.6394
▁банк	-11.6396
▁прибудут	-11.6396
▁радова	-11.6396
▁исполнил	-11.6396
бруг	-11.6396
▁новейш	-11.6397
201	-11.6397
▁обеспоко	-11.6398
корса	-11.6398
▁сходство	-11.6398
▁сдач	-11.6398
рита	-11.6399
▁мучая	-11.64
ыкая	-11.6401
▁ободря	-11.6402
▁столицы	-11.6402
▁фат	-11.6403
▁рок	-11.6404
▁зверин	-11.6404
▁составил	-11.6404
▁успев	-11.6406
▁возможны	-11.6407
▁получает	-11.6407
▁голь	-11.6407
▁передовы	-11.6407
▁закинул	-11.6407
▁представляют	-11.6409
216	-11.6409
▁отобра	-11.641
туру	-11.6411
▁учитель	-11.6412
иссо	-11.6412
рина	-11.6412
▁невежливо	-11.6412
рошил	-11.6414
скочил	-11.6415
мирно	-11.6417
▁послушани	-11.6417
▁обыскива	-11.6419
▁прочие	-11.6419
▁окро	-11.6422
▁терпелив	-11.6422
▁выведу	-11.6423
▁повернувши	-11.6424
▁фортеп	-11.6424
▁оценива	-11.6424
▁ставят	-11.6425
▁столиц	-11.6425
▁мечтательн	-11.6426
▁излагает	-11.6426
▁гусарско	-11.6427
▁выпукло	-11.6427
▁контр	-11.6428
236	-11.6429
разуме	-11.6431
▁перекрестила	-11.6433
137	-11.6433
▁разруш	-11.6435
▁способству	-11.6435
▁завертел	-11.6435
▁прижав	-11.6435
▁попадало	-11.6436
▁накинут	-11.6436
▁уговорил	-11.6437
▁пустот	-11.6438
▁каба	-11.6439
тверже	-11.644
▁зараз	-11.6441
▁искривленно	-11.6444
нимала	-11.6448
баз	-11.6449
▁мнител	-11.6451
▁основанны	-11.6451
▁дерзост	-11.6451
267	-11.6451
▁подвел	-11.6452
▁расстр	-11.6453
▁сыз	-11.6455
▁порошо	-11.646
▁умственн	-11.6462
▁читающе	-11.6462
▁уничтожить	-11.6464
▁учит	-11.6465
езь	-11.6466
едаю	-11.6466
▁совершенств	-11.6466
▁очистит	-11.6468
▁сайк	-11.647
▁отвяза	-11.6471
▁иностранц	-11.6471
136	-11.6473
▁зажига	-11.6475
▁помойны	-11.6476
▁толкал	-11.6476
147	-11.6479
▁невыносимы	-11.648
▁разорванно	-11.6481
тяг	-11.6482
▁премудры	-11.6482
▁неотлагательны	-11.6483
▁провалил	-11.6483
▁хлопотлив	-11.6483
▁звани	-11.6485
▁писц	-11.6485
▁учат	-11.6486
▁гостин	-11.6487
▁трагическом	-11.6488
▁позволял	-11.6488
▁входящи	-11.6488
▁парижско	-11.6491
▁ведущи	-11.6491
▁поношенны	-11.6491
▁увеселительны	-11.6491
▁оглянул	-11.6494
▁одаренны	-11.6497
▁разнообразны	-11.6497
▁признаете	-11.6497
губил	-11.6497
вавшие	-11.6497
▁низше	-11.6498
▁зва	-11.65
212	-11.65
▁правительственн	-11.6502
▁скверне	-11.6503
▁откровенности	-11.6503
▁пронзенн	-11.6507
нейше	-11.651
▁отъявленно	-11.651
мути	-11.6511
▁заболе	-11.6511
▁простона	-11.6511
▁приступил	-11.6515
▁стесненно	-11.652
еяло	-11.6521
▁статейк	-11.6521
▁продаж	-11.6526
зив	-11.6528
▁проре	-11.653
128	-11.653
▁сталкива	-11.6531
▁иди	-11.6533
▁табачно	-11.6539
▁грусть	-11.6542
▁каменн	-11.6542
лер	-11.6543
▁доложил	-11.6545
▁управ	-11.6546
▁пачк	-11.6549
меющей	-11.655
▁связать	-11.6553
▁тесьм	-11.6555
▁пояс	-11.6555
▁ветх	-11.6557
124	-11.6558
▁количеств	-11.6558
▁преданност	-11.656
ляют	-11.656
есанны	-11.6561
▁ослаб	-11.6561
▁просн	-11.6568
▁сожалени	-11.657
▁писаришк	-11.6571
блеск	-11.6573
▁подув	-11.6573
▁отделени	-11.6579
▁нанимал	-11.658
▁конт	-11.658
119	-11.6581
▁известк	-11.6584
▁детск	-11.6587
▁стойко	-11.6587
▁связыва	-11.6589
146	-11.6589
▁предал	-11.6591
▁желаем	-11.6599
103	-11.6599
▁васильевском	-11.6608
125	-11.6612
▁благодарна	-11.6618
▁ломов	-11.6619
▁получени	-11.662
▁отодвину	-11.6622
▁сыпал	-11.6625
1830	-11.6626
▁подходяще	-11.6626
дававшая	-11.6632
вызывающе	-11.6636
▁пылк	-11.6641
▁очевидны	-11.6644
131	-11.6645
169	-11.665
262	-11.6655
▁полуш	-11.6655
121	-11.6657
▁жан	-11.6657
клонны	-11.6658
▁осторожности	-11.666
239	-11.666
▁объявляет	-11.6661
▁критиков	-11.6665
▁оттер	-11.6675
▁нетерпеливы	-11.6675
▁попытк	-11.6677
198	-11.6683
▁казанско	-11.6685
▁слабеньк	-11.6686
крым	-11.6699
готовивши	-11.6699
▁важности	-11.6699
▁адвокатск	-11.6704
▁забегал	-11.6705
держите	-11.6706
▁посоветовать	-11.6707
▁мрачн	-11.6708
преклон	-11.671
▁испытани	-11.6711
112	-11.6719
▁лакейск	-11.6729
глядывая	-11.673
милетн	-11.674
дарила	-11.6742
▁раздава	-11.6747
▁драгоценно	-11.675
▁павл	-11.675
202	-11.6751
атыва	-11.6752
▁полоумны	-11.6759
▁потряса	-11.6759
▁титулярны	-11.676
142	-11.676
▁пыльны	-11.6762
▁таскал	-11.6764
▁передава	-11.6765
▁плать	-11.6765
▁спускал	-11.6771
вечным	-11.6771
▁восходя	-11.6783
▁складк	-11.6792
▁публичны	-11.6793
▁полотн	-11.6793
▁пир	-11.6795
▁частны	-11.6797
▁нагиба	-11.6812
▁преувеличенно	-11.6817
▁сбивш	-11.6817
▁отдаленны	-11.6818
162	-11.682
▁рассеянны	-11.682
▁подбородк	-11.6821
▁заученн	-11.6829
▁задал	-11.6829
▁дек	-11.6847
▁обстр	-11.6853
▁тверды	-11.6858
▁старц	-11.6867
▁местност	-11.6868
смотрел	-11.6872
автобиографическ	-11.6888
осторожность	-11.6893
▁дров	-11.6894
▁пущ	-11.6904
▁слушавш	-11.6907
сообраз	-11.6914
читает	-11.6921
▁разъединен	-11.6922
лепленны	-11.6927
медицинск	-11.6927
▁полон	-11.693
▁попол	-11.696
▁овладевал	-11.6967
▁медл	-11.6977
▁чужд	-11.6984
озрева	-11.7001
готовительн	-11.7009
171	-11.701
▁арестантск	-11.7025
сохранени	-11.7029
▁полагает	-11.703
▁свободны	-11.7033
▁истощил	-11.7045
▁морщин	-11.7049
▁поддакивал	-11.707
решить	-11.707
▁уведомил	-11.7075
тика	-11.7077
▁припрята	-11.7079
▁сравнива	-11.7081
зывают	-11.7086
263	-11.7091
▁сосредоточенн	-11.7095
внич	-11.7109
▁приведенн	-11.7111
▁осужденны	-11.7121
▁недоверчивост	-11.713
▁либеральны	-11.7132
▁бат	-11.7147
241	-11.7153
▁порядо	-11.7154
поминает	-11.7157
беспокоен	-11.7163
▁совершает	-11.7165
▁честност	-11.7165
комическ	-11.7171
▁винны	-11.7174
▁задержал	-11.7193
▁благословил	-11.7204
▁похвал	-11.7209
▁сохранивши	-11.7223
▁физическо	-11.7228
▁вывернул	-11.7234
▁приличи	-11.7255
▁пош	-11.7255
▁жалка	-11.7263
▁припомнит	-11.7264
▁превосходны	-11.7284
▁доставал	-11.7285
▁жирно	-11.7286
▁откланя	-11.7289
ошибочно	-11.729
пускаю	-11.7293
▁светила	-11.7294
▁неподвиж	-11.7312
▁напиш	-11.7317
▁курит	-11.7331
▁скорбно	-11.7337
▁промолви	-11.7347
▁развратни	-11.7351
ватым	-11.7359
▁наполнен	-11.736
▁беднот	-11.7362
пугали	-11.7362
▁публично	-11.7367
▁ложно	-11.7392
▁крикну	-11.7396
▁самостоятельно	-11.7399
▁слушаю	-11.7403
▁спле	-11.7405
льства	-11.7412
▁прячет	-11.7412
▁коег	-11.7427
▁пригоди	-11.7455
▁воротивши	-11.7463
▁подпрыг	-11.7467
▁побег	-11.7489
▁перешл	-11.7493
дж	-11.7499
▁кликн	-11.75
труд	-11.7533
▁грешн	-11.7538
▁собрал	-11.7552
раздельно	-11.7568
жины	-11.7596
озволение	-11.7607
▁перепис	-11.7612
болтал	-11.7618
▁модн	-11.7634
падение	-11.7642
▁недостойны	-11.7649
▁сбивает	-11.7681
▁подлинн	-11.7693
▁благодетельн	-11.7695
писывал	-11.7696
нке	-11.7697
▁вечн	-11.7699
▁пугает	-11.7702
▁рожда	-11.7708
скользнул	-11.7713
иджа	-11.7718
▁милл	-11.7722
▁кирпичны	-11.7731
ерег	-11.7732
лян	-11.7763
екшим	-11.7764
▁бочк	-11.7766
▁выражает	-11.7809
▁стенк	-11.7867
▁вызванн	-11.7905
▁лестн	-11.7926
▁жизненн	-11.7931
▁письменн	-11.7942
▁сожител	-11.797
▁зайди	-11.7991
деловитость	-11.8015
▁ящик	-11.8023
боев	-11.8023
▁пониж	-11.8056
▁щегол	-11.807
личным	-11.8084
▁задумывал	-11.81
▁протестова	-11.8121
▁внезапн	-11.8127
искал	-11.8149
▁прогрессивно	-11.8155
159	-11.816
ставляет	-11.8174
▁грозны	-11.8174
▁благодарил	-11.8205
немног	-11.8217
▁отперл	-11.8217
прещено	-11.8241
▁волновала	-11.8242
75	-11.8269
n	-11.8273
▁предвид	-11.8276
▁невыразим	-11.8297
▁попад	-11.8323
одить	-11.8331
ствует	-11.8333
▁излов	-11.8345
данным	-11.8355
шивал	-11.8359
являют	-11.8359
163	-11.8362
хватила	-11.8365
▁приниженн	-11.8365
▁положительн	-11.8366
193	-11.8381
▁смешн	-11.8409
▁тревожны	-11.8417
▁корен	-11.8435
отрез	-11.8438
▁сопровождала	-11.8451
▁любопытн	-11.8454
▁милост	-11.8459
▁помир	-11.8466
▁потребова	-11.8477
заслуженн	-11.8478
говоривши	-11.8485
ерно	-11.8487
▁соглас	-11.8497
▁пролил	-11.8527
рень	-11.8551
▁оскорблен	-11.8553
▁основны	-11.8572
жали	-11.8576
▁старин	-11.8594
▁поверну	-11.86
пирают	-11.8616
▁правильн	-11.8683
▁принижен	-11.8693
▁шепта	-11.8695
▁обвинил	-11.874
▁модны	-11.8773
▁привычн	-11.8779
▁отдает	-11.8803
▁сконфузи	-11.8835
▁приводи	-11.8838
▁перетащи	-11.8865
▁намекам	-11.8872
льской	-11.8874
▁судорожн	-11.8877
▁полеч	-11.8883
▁сырост	-11.8906
▁вздума	-11.8912
▁филь	-11.8928
▁кружит	-11.8938
▁высказала	-11.8956
▁заглади	-11.897
▁ложит	-11.8995
▁неожиданн	-11.8996
▁идущ	-11.9003
▁вежливост	-11.9011
соед	-11.9012
▁открыты	-11.903
▁деловы	-11.9033
▁старинн	-11.9056
▁указа	-11.906
пускает	-11.9087
▁взволнованны	-11.9103
брали	-11.9133
▁презираю	-11.9164
осил	-11.9171
емлю	-11.9171
еломлен	-11.9176
▁308	-11.9184
▁употребл	-11.9186
▁конч	-11.9189
лестно	-11.9194
▁навязыва	-11.92
▁пламенн	-11.9207
▁опускае	-11.9233
вчерашнем	-11.926
слушать	-11.9264
поминать	-11.9267
ышко	-11.9269
▁перестан	-11.9274
▁характериз	-11.9298
▁встревожен	-11.9311
▁идейк	-11.9313
крепил	-11.9335
▁выбрит	-11.9343
▁останавливать	-11.9368
▁скользну	-11.9395
▁сгуща	-11.9409
подлинно	-11.9459
▁картинк	-11.9461
сходны	-11.9487
бегу	-11.9488
▁рассеянност	-11.949
▁разодет	-11.9516
▁оборванны	-11.9525
▁удав	-11.9527
▁напомина	-11.9546
талкивать	-11.9547
▁мамаш	-11.9554
▁омско	-11.9563
пьян	-11.9594
▁дозвол	-11.9609
▁воспаленн	-11.9679
битым	-11.9679
▁улыб	-11.9691
▁рассвет	-11.9713
▁каприз	-11.9715
олюбив	-11.9718
▁притаил	-11.9723
▁пламен	-11.9724
▁собрали	-11.9763
▁познаком	-11.9767
▁надворн	-11.9774
▁подводи	-11.9787
▁объявля	-11.981
▁прощен	-11.9821
▁пациент	-11.9851
▁римско	-11.9861
▁воскрес	-11.9866
eur	-11.9869
▁недоверчив	-11.9882
ложенно	-11.989
сходили	-11.9898
▁залила	-11.9898
ревосходительств	-11.9899
▁раздражени	-11.9956
приличия	-11.998
говорят	-11.9991
▁неясн	-12.0012
▁выброшен	-12.002
▁худеньк	-12.0044
▁благослови	-12.0045
▁запирает	-12.0055
▁заинтересова	-12.0112
▁сыгра	-12.0142
▁либеральн	-12.0143
ловны	-12.0146
▁арестован	-12.0156
▁воскресны	-12.017
▁неприличн	-12.0173
текла	-12.0181
ицей	-12.0185
▁сосредоточен	-12.019
▁колотит	-12.0195
ri	-12.02
ушк	-12.0204
▁выложи	-12.021
▁отвеч	-12.0234
▁переходит	-12.0263
▁засверка	-12.0269
▁отпустит	-12.0281
▁облич	-12.0289
▁бодр	-12.03
▁крашен	-12.0306
▁охватыва	-12.0326
▁начинавш	-12.0327
▁переговори	-12.0338
правление	-12.0347
▁овладева	-12.0368
▁беспомощно	-12.0369
жатым	-12.0382
▁нумерам	-12.0386
умел	-12.0405
▁колечк	-12.0405
▁выходящ	-12.0407
лопнул	-12.0416
▁ослеп	-12.0423
влекал	-12.0426
▁круж	-12.0428
▁наклонив	-12.0433
▁распоряд	-12.0454
рывает	-12.0454
ir	-12.0459
▁враждебн	-12.046
▁вытерп	-12.0465
189	-12.0468
ражени	-12.0477
▁автобиографич	-12.0478
▁точност	-12.0485
шол	-12.0491
▁подготови	-12.0501
▁служив	-12.0504
▁преступникам	-12.051
▁покра	-12.0515
▁зеркал	-12.052
▁склон	-12.0522
делаться	-12.0534
▁образовани	-12.0537
▁выверну	-12.0541
▁подделыва	-12.0554
▁помешан	-12.0558
ученно	-12.0572
▁уверя	-12.0573
годно	-12.0574
хмеле	-12.0588
поп	-12.059
▁хвора	-12.0599
▁точн	-12.0602
▁сверкающи	-12.0603
▁вытащ	-12.0614
▁противоречиво	-12.063
▁береж	-12.0641
▁роб	-12.0643
▁критическ	-12.0651
▁выражало	-12.0653
▁потеш	-12.0655
крывала	-12.0662
пасным	-12.0671
▁ступеньк	-12.0674
сыпали	-12.0693
▁неизвестн	-12.07
▁унижен	-12.0719
шней	-12.0738
▁правил	-12.0751
звратил	-12.0757
▁вспыхну	-12.0763
▁ободр	-12.0764
▁свата	-12.0764
▁вылеч	-12.0772
▁всеобщ	-12.0778
адки	-12.0784
спорил	-12.0787
стоящим	-12.0788
острастн	-12.0793
▁брю	-12.0794
▁усиленн	-12.0796
▁обращени	-12.0802
▁грив	-12.0805
▁беспокойн	-12.081
122	-12.0813
▁осмотр	-12.0813
▁разбуди	-12.0825
▁варен	-12.0828
▁состав	-12.0828
проч	-12.0834
▁сбит	-12.0864
▁многочисленн	-12.0865
льник	-12.0865
думывая	-12.0866
▁замолча	-12.09
▁помещ	-12.0901
▁присла	-12.0902
звольте	-12.0913
▁труб	-12.0915
слушавши	-12.0924
▁папирос	-12.0929
▁таска	-12.0935
просил	-12.0947
67	-12.096
▁плох	-12.0963
котор	-12.0976
▁тягостн	-12.098
▁сообщен	-12.0984
▁потребу	-12.0986
▁приказ	-12.0995
истощи	-12.1001
▁отказ	-12.1006
▁вскрикну	-12.1012
▁среза	-12.1014
▁соблазнительн	-12.1019
▁заходя	-12.1024
молчал	-12.1038
▁правительств	-12.1042
▁надзирател	-12.1043
▁девчонк	-12.1044
▁брюзглив	-12.1047
▁освеща	-12.1048
сматривать	-12.1053
▁воспоминани	-12.1056
▁отставн	-12.1062
▁пронз	-12.1067
▁вздохну	-12.1068
демократическо	-12.1069
▁бумаж	-12.1071
гонят	-12.1071
▁позволя	-12.1075
▁предложен	-12.108
▁строги	-12.1087
▁стеснен	-12.1088
▁установил	-12.1089
▁попросит	-12.1091
тенц	-12.1096
▁заслон	-12.1098
вании	-12.1098
кричал	-12.1099
▁выбира	-12.1099
пишите	-12.1102
больш	-12.1103
любопытны	-12.1109
губ	-12.1113
возили	-12.1113
арестова	-12.1114
берг	-12.1116
▁утвержд	-12.1119
▁девуш	-12.1121
зелены	-12.1121
политическ	-12.1122
старше	-12.1123
родственн	-12.1124
благодарю	-12.1125
губернатор	-12.1125
поспеш	-12.1125
приятель	-12.1127
известен	-12.1127
ангел	-12.1127
дружески	-12.1127
▁лихорадочны	-12.1129
vi	-12.1129
скорб	-12.113
литературно	-12.113
почт	-12.1131
▁возмущен	-12.1132
напрасн	-12.1133
▁купц	-12.1133
▁отходи	-12.1134
двадцати	-12.1134
порох	-12.1135
▁стихотворени	-12.1135
чистот	-12.1135
дыхани	-12.1135
наполеон	-12.1136
офицер	-12.1136
военно	-12.1136
оборот	-12.1137
дороге	-12.1137
склоня	-12.1138
образованн	-12.1139
коленк	-12.114
слушивал	-12.114
лежал	-12.114
посл	-12.114
завтра	-12.114
комнаты	-12.1141
любит	-12.1141
человек	-12.1142
люди	-12.1142
1860	-12.1142
этот	-12.1142
марф	-12.1143
стоит	-12.1144
сядь	-12.1146
прощ	-12.1146
помню	-12.1146
лицо	-12.1146
▁тщеслав	-12.1147
высоко	-12.1149
▁росси	-12.115
▁шту	-12.1152
скоро	-12.1152
▁перепуга	-12.1153
▁гляди	-12.1153
▁доходит	-12.1154
стакан	-12.1155
ловко	-12.1159
▁приказан	-12.116
▁бесчувств	-12.1161
полняет	-12.1161
▁меланхоли	-12.117
▁улож	-12.1174
роман	-12.1175
▁форт	-12.118
утро	-12.1181
лжет	-12.1183
▁sa	-12.1185
действовать	-12.1186
ишко	-12.1195
▁вырывали	-12.1207
рект	-12.1209
104	-12.121
▁скрив	-12.1211
▁цини	-12.1218
▁недоуме	-12.1223
na	-12.1226
▁перевед	-12.1233
▁чаш	-12.1239
▁пробормота	-12.1241
лопал	-12.1241
пьет	-12.1243
▁un	-12.1243
▁попрос	-12.1244
▁дерзо	-12.1246
развяз	-12.1248
благодари	-12.125
▁мадонн	-12.1257
крашены	-12.126
тяжел	-12.126
умеет	-12.126
▁крич	-12.1264
гадал	-12.1264
скривив	-12.1265
езди	-12.1266
▁выздоровл	-12.1269
ручк	-12.127
▁отдохн	-12.127
художественн	-12.1272
маленьку	-12.1274
▁распоряж	-12.1274
▁перево	-12.128
упила	-12.128
▁шулер	-12.1282
складн	-12.1282
йдемте	-12.1285
▁предупре	-12.1287
бессмысленн	-12.1287
▁представит	-12.1288
▁хран	-12.1288
стряхну	-12.129
фанфарони	-12.1291
абак	-12.1291
▁унизи	-12.1292
▁моск	-12.1296
домашн	-12.1301
▁параш	-12.1302
▁февр	-12.1303
▁грани	-12.1304
▁сложенн	-12.1304
▁трога	-12.1304
▁погас	-12.1305
миллиона	-12.1306
▁цитирова	-12.1306
▁школ	-12.1306
ьице	-12.1308
▁косын	-12.1308
▁расслыша	-12.1309
▁бешен	-12.131
▁капернаум	-12.1311
▁австри	-12.1311
▁выбеж	-12.1313
мысленно	-12.1315
▁трепет	-12.1317
означен	-12.1318
▁танцева	-12.1318
▁тревожит	-12.1318
огромнейш	-12.1318
бирали	-12.1319
коротк	-12.1319
угад	-12.132
▁помилуй	-12.1321
гнув	-12.1322
▁промышля	-12.1323
▁хлын	-12.1323
▁полити	-12.1324
заведен	-12.1324
▁хозя	-12.1324
еспокойно	-12.1324
▁подозрител	-12.1325
▁воспри	-12.1325
▁сконфу	-12.1326
▁григорьев	-12.1326
▁феномен	-12.1327
▁революци	-12.1327
истически	-12.1328
изглади	-12.1328
▁манкиру	-12.1328
▁професс	-12.1328
▁бурнус	-12.1328
▁тракт	-12.1328
тязани	-12.1328
ристаль	-12.1328
uss	-12.1329
▁возненави	-12.1329
дарности	-12.1329
▁вражд	-12.1329
▁тринадцат	-12.1329
▁вакзал	-12.1329
▁индивид	-12.1329
▁аккомпан	-12.1329
▁буффон	-12.1329
▁гроденапл	-12.1329
▁заказывать	-12.1329
▁интеллект	-12.1329
▁наездни	-12.1329
▁падебаск	-12.1329
▁реакци	-12.1329
▁рубинштейн	-12.1329
▁соучастник	-12.1329
▁храбр	-12.1329
120	-12.1329
гороженн	-12.1329
компромисс	-12.1329
нескрываем	-12.1329
совокуп	-12.1329
улярно	-12.1329
▁nouve	-12.1329
▁байрон	-12.1329
▁бармгерциге	-12.1329
▁бонапарт	-12.1329
▁вдохновени	-12.1329
▁воздушн	-12.1329
▁вольнодум	-12.1329
▁гарнитур	-12.1329
▁губернск	-12.1329
▁елагин	-12.1329
▁ермолк	-12.1329
▁зарожда	-12.1329
▁испужа	-12.1329
▁колбасн	-12.1329
▁накрыва	-12.1329
▁нянч	-12.1329
▁однаодине	-12.1329
▁опроверга	-12.1329
▁освобожден	-12.1329
▁отхарк	-12.1329
▁посредник	-12.1329
▁постукива	-12.1329
▁предвзят	-12.1329
▁предпринима	-12.1329
▁разбира	-12.1329
▁раздирающ	-12.1329
▁разыгрыва	-12.1329
▁располага	-12.1329
▁рассори	-12.1329
▁растолку	-12.1329
▁религи	-12.1329
▁сумасброд	-12.1329
▁традици	-12.1329
▁устремлен	-12.1329
▁фанатизм	-12.1329
▁фридлендер	-12.1329
▁эпитет	-12.1329
220	-12.1329
230	-12.1329
essions	-12.1329
зависящим	-12.1329
илософскоэтическ	-12.1329
инигилист	-12.1329
крадывал	-12.1329
куролесил	-12.1329
ологически	-12.1329
опромышленность	-12.1329
причаст	-12.1329
прыгает	-12.1329
рационалистическ	-12.1329
ряжают	-12.1329
слышавший	-12.1329
тивообщественны	-12.1329
укоризненно	-12.1329
умопомешательств	-12.1329
фигляр	-12.1329
форс	-12.1329
хирург	-12.1329
хлебывая	-12.1329
чиновничь	-12.1329
щедри	-12.1329
▁1806187	-12.1329
▁1813187	-12.1329
▁1853	-12.1329
▁1900	-12.1329
▁5000	-12.1329
▁авантюрн	-12.1329
▁адамант	-12.1329
▁административны	-12.1329
▁афанасьевич	-12.1329
▁африк	-12.1329
▁афросиньюшк	-12.1329
▁багровокрасн	-12.1329
▁белобрысы	-12.1329
▁бестолковы	-12.1329
▁бесцельн	-12.1329
▁библиографи	-12.1329
▁благонравн	-12.1329
▁благоразумие	-12.1329
▁блестящ	-12.1329
▁блондинк	-12.1329
▁брезга	-12.1329
▁бриллиант	-12.1329
▁брызнул	-12.1329
▁бутылоч	-12.1329
▁варьиру	-12.1329
▁великодушия	-12.1329
▁величав	-12.1329
▁венгерск	-12.1329
▁взбунт	-12.1329
▁вифании	-12.1329
▁влюбля	-12.1329
▁возбужденны	-12.1329
▁возвыси	-12.1329
▁воспалени	-12.1329
▁вульгар	-12.1329
▁выкрикивал	-12.1329
▁высасывал	-12.1329
▁голландски	-12.1329
▁грациозн	-12.1329
▁грохнул	-12.1329
▁гумаг	-12.1329
▁денежны	-12.1329
▁договарива	-12.1329
▁дореформенн	-12.1329
▁досаждаю	-12.1329
▁дослушива	-12.1329
▁достижения	-12.1329
▁дьявол	-12.1329
▁единогласн	-12.1329
▁единородн	-12.1329
▁екатерингофск	-12.1329
▁желтеньки	-12.1329
▁житейски	-12.1329
▁жувеневски	-12.1329
▁жюльен	-12.1329
▁завистлив	-12.1329
▁зазвенел	-12.1329
▁закорузл	-12.1329
▁замелькал	-12.1329
▁заподозри	-12.1329
▁зарубежн	-12.1329
▁заскрежета	-12.1329
▁засыпа	-12.1329
▁затрепетал	-12.1329
▁затруднительно	-12.1329
▁захватыва	-12.1329
▁извещен	-12.1329
▁измучивш	-12.1329
▁изобретен	-12.1329
▁изодранны	-12.1329
▁изъявил	-12.1329
▁иллюстраци	-12.1329
▁императив	-12.1329
▁инстру	-12.1329
▁интерпретаци	-12.1329
▁интимно	-12.1329
▁интонаци	-12.1329
▁исследу	-12.1329
▁иссохше	-12.1329
▁исстрада	-12.1329
▁итальянск	-12.1329
▁карамазовы	-12.1329
▁категорически	-12.1329
▁клокота	-12.1329
▁козляинов	-12.1329
▁коллизи	-12.1329
▁коммерческ	-12.1329
▁комплек	-12.1329
▁комплимент	-12.1329
▁конфликт	-12.1329
▁кровопроливц	-12.1329
▁кулебяк	-12.1329
▁курносые	-12.1329
▁лайдак	-12.1329
▁локончик	-12.1329
▁лохмотник	-12.1329
▁мальчишеск	-12.1329
▁масштабност	-12.1329
▁меблированн	-12.1329
▁министерств	-12.1329
▁мягки	-12.1329
▁назначил	-12.1329
▁напуган	-12.1329
▁насмеха	-12.1329
▁неаккуратн	-12.1329
▁неблагоприятно	-12.1329
▁невероятны	-12.1329
▁недоучивш	-12.1329
▁неестественны	-12.1329
▁ненасытим	-12.1329
▁необъяснимы	-12.1329
▁неопределенно	-12.1329
▁неотразимы	-12.1329
▁непонятлив	-12.1329
▁неприятны	-12.1329
▁неразговорчив	-12.1329
▁несомненны	-12.1329
▁никифоров	-12.1329
▁ночевывал	-12.1329
▁обезображен	-12.1329
▁обмерива	-12.1329
▁обреченны	-12.1329
▁обробел	-12.1329
▁обставленн	-12.1329
▁обшарканны	-12.1329
▁общеобязательн	-12.1329
▁оживление	-12.1329
▁окарикатур	-12.1329
▁окровавленн	-12.1329
▁оледенил	-12.1329
▁омбрельк	-12.1329
▁опасения	-12.1329
▁опровергнут	-12.1329
▁опусте	-12.1329
▁оружие	-12.1329
▁отбросил	-12.1329
▁отворачива	-12.1329
▁отталкивал	-12.1329
▁оцепенени	-12.1329
▁пакост	-12.1329
▁пародийн	-12.1329
▁пароксизм	-12.1329
▁перекрещ	-12.1329
▁переплете	-12.1329
▁переступа	-12.1329
▁пересылал	-12.1329
▁перипети	-12.1329
▁петроградск	-12.1329
▁побаива	-12.1329
▁побудивши	-12.1329
▁повивальны	-12.1329
▁повсеместн	-12.1329
▁подкрепляющ	-12.1329
▁подразделени	-12.1329
▁пожертвует	-12.1329
▁поколеба	-12.1329
▁полемизирова	-12.1329
▁полемизиру	-12.1329
▁полусумасшедш	-12.1329
▁помертвел	-12.1329
▁поощря	-12.1329
▁попробуй	-12.1329
▁потаскун	-12.1329
▁потрепал	-12.1329
▁почерпну	-12.1329
▁почтальон	-12.1329
▁пощекота	-12.1329
▁праведным	-12.1329
▁превращени	-12.1329
▁предрассудочны	-12.1329
▁преуспеяни	-12.1329
▁приготовля	-12.1329
▁приобрест	-12.1329
▁присоедин	-12.1329
▁присужден	-12.1329
▁прихлыну	-12.1329
▁пробавля	-12.1329
▁проворча	-12.1329
▁проглоч	-12.1329
▁произвольн	-12.1329
▁промежуто	-12.1329
▁пропуска	-12.1329
▁прослушал	-12.1329
▁протанцева	-12.1329
▁прохарчин	-12.1329
▁прошмыгну	-12.1329
▁пружина	-12.1329
▁прямолинейны	-12.1329
▁разбирательства	-12.1329
▁разбросан	-12.1329
▁раздроблен	-12.1329
▁разжалоб	-12.1329
▁разочаровать	-12.1329
▁рассвирепе	-12.1329
▁рассмешил	-12.1329
▁растолков	-12.1329
▁расчесанны	-12.1329
▁ребятишки	-12.1329
▁ресторан	-12.1329
▁ретроград	-12.1329
▁рефлекси	-12.1329
▁ругательски	-12.1329
▁салфетк	-12.1329
▁саркастическ	-12.1329
▁сафьян	-12.1329
▁сбережен	-12.1329
▁сбивчив	-12.1329
▁сверкнул	-12.1329
▁свинств	-12.1329
▁свинцо	-12.1329
▁свирепо	-12.1329
▁сдерживать	-12.1329
▁символизирую	-12.1329
▁сказывай	-12.1329
▁скрежета	-12.1329
▁смрадн	-12.1329
▁солнечн	-12.1329
▁соприкосновени	-12.1329
▁сопротивлени	-12.1329
▁социолог	-12.1329
▁спутник	-12.1329
▁ссыльнокаторжны	-12.1329
▁старушеч	-12.1329
▁стилистически	-12.1329
▁страстями	-12.1329
▁страусов	-12.1329
▁стрижов	-12.1329
▁стряпчи	-12.1329
▁суфлеры	-12.1329
▁таракана	-12.1329
▁теребьев	-12.1329
▁трепещ	-12.1329
▁тюремн	-12.1329
▁уведомлен	-12.1329
▁увеличени	-12.1329
▁угнетени	-12.1329
▁угнетенным	-12.1329
▁удовлетворени	-12.1329
▁удовлетворя	-12.1329
▁уполномочил	-12.1329
▁утонченности	-12.1329
▁уторопленно	-12.1329
▁уязвлен	-12.1329
▁фабул	-12.1329
▁факультет	-12.1329
▁фланера	-12.1329
▁хватит	-12.1329
▁хожалы	-12.1329
▁циммерман	-12.1329
▁циммермановская	-12.1329
▁чердак	-12.1329
▁чопорн	-12.1329
▁шапочк	-12.1329
▁шныря	-12.1329
▁экспансивност	-12.1329
▁эксперимент	-12.1329
▁ювелира	-12.1329
▁ювелирск	-12.1329
▁юриспруденци	-12.1329
▁1829	-12.1329
▁бартон	-12.1329
▁забавник	-12.1329
▁зародыш	-12.1329
▁истерик	-12.1329
▁ликург	-12.1329
▁недовер	-12.1329
▁опекун	-12.1329
▁пассаж	-12.1329
▁повязк	-12.1329
▁путаниц	-12.1329
▁блиставше	-12.1329
▁висбаден	-12.1329
▁галантерейн	-12.1329
▁голгофу	-12.1329
▁девчоночку	-12.1329
▁довольств	-12.1329
▁заблагорассудил	-12.1329
▁запутыва	-12.1329
▁застря	-12.1329
▁император	-12.1329
▁инсцениров	-12.1329
▁испачка	-12.1329
▁кацаве	-12.1329
▁кеплер	-12.1329
▁колбасы	-12.1329
▁кушетк	-12.1329
▁лиссабонско	-12.1329
▁магдал	-12.1329
▁малодушно	-12.1329
▁мягко	-12.1329
▁надруга	-12.1329
▁невероятно	-12.1329
▁необитаем	-12.1329
▁необъятно	-12.1329
▁неподдельно	-12.1329
▁несостоятельн	-12.1329
▁неумолчн	-12.1329
▁неучтиво	-12.1329
▁облагороженн	-12.1329
▁обнаружен	-12.1329
▁опозор	-12.1329
▁опрокинуто	-12.1329
▁отталкивающ	-12.1329
▁пазух	-12.1329
▁перепечатан	-12.1329
▁пересохл	-12.1329
▁повеселе	-12.1329
▁повседневн	-12.1329
▁позитивистско	-12.1329
▁полубреде	-12.1329
▁поморщил	-12.1329
▁понадея	-12.1329
▁преднамеренно	-12.1329
▁прикрыл	-12.1329
▁примирени	-12.1329
▁приподыма	-12.1329
▁прокорм	-12.1329
▁публицист	-12.1329
▁разодран	-12.1329
▁распечатыва	-12.1329
▁рубищ	-12.1329
▁рукопис	-12.1329
▁сережка	-12.1329
▁скреб	-12.1329
▁скрючи	-12.1329
▁смущенны	-12.1329
▁совокупность	-12.1329
▁соединенн	-12.1329
▁сычиха	-12.1329
▁типичност	-12.1329
▁тяготил	-12.1329
▁тяжб	-12.1329
▁увенча	-12.1329
▁укрепля	-12.1329
▁учтиво	-12.1329
▁фамильн	-12.1329
▁хозяйнича	-12.1329
▁цитируе	-12.1329
▁чумичк	-12.1329
▁швейцар	-12.1329
▁эфемерн	-12.1329
геройно	-12.1329
▁бледножелто	-12.1329
▁востреньк	-12.1329
▁галсту	-12.1329
▁громадны	-12.1329
▁десятилетн	-12.1329
▁изнурительн	-12.1329
▁изумительно	-12.1329
▁коварств	-12.1329
▁коротеньк	-12.1329
▁надорван	-12.1329
▁небрит	-12.1329
▁неделикатн	-12.1329
▁нетронут	-12.1329
▁перчаток	-12.1329
▁повихну	-12.1329
▁подавля	-12.1329
▁пробира	-12.1329
▁растреклят	-12.1329
▁реакционно	-12.1329
▁религиозно	-12.1329
▁сближа	-12.1329
▁совершивш	-12.1329
▁увеселя	-12.1329
▁арабско	-12.1329
▁блаженств	-12.1329
▁будируя	-12.1329
▁визжат	-12.1329
▁вильне	-12.1329
▁витиеват	-12.1329
▁зажженны	-12.1329
▁измокше	-12.1329
▁колпак	-12.1329
▁кряхт	-12.1329
▁недоконченн	-12.1329
▁нетвердо	-12.1329
▁оживил	-12.1329
▁отзвук	-12.1329
▁подража	-12.1329
▁радищев	-12.1329
▁сердечны	-12.1329
▁сребр	-12.1329
▁утешенн	-12.1329
▁ухажива	-12.1329
▁уяснил	-12.1329
▁чистоплот	-12.1329
▁шорк	-12.1329
▁алмаз	-12.1329
▁капитолии	-12.1329
▁отрезанны	-12.1329
ничанье	-12.1329
▁активно	-12.1329
▁болтун	-12.1329
▁величайши	-12.1329
▁заявля	-12.1329
▁купчих	-12.1329
▁отверженны	-12.1329
▁похвальбы	-12.1329
▁проявлял	-12.1329
▁сговарива	-12.1329
▁сочиняю	-12.1329
▁торчавш	-12.1329
▁умертви	-12.1329
▁финанс	-12.1329
▁шубк	-12.1329
вязчив	-12.1329
▁вскло	-12.1329
▁зайцев	-12.1329
▁изгиб	-12.1329
▁михайловск	-12.1329
▁оправля	-12.1329
▁присыла	-12.1329
▁тяготит	-12.1329
окружен	-12.133
▁бакен	-12.133
▁всплы	-12.133
▁второстепенн	-12.133
▁горбат	-12.133
▁дюссотов	-12.133
▁запылен	-12.133
▁майков	-12.133
▁монтировало	-12.133
▁окончани	-12.133
▁подчиня	-12.133
▁похищен	-12.133
▁споткнул	-12.133
▁эмаль	-12.133
▁вояжирует	-12.133
чудесная	-12.133
▁неминуем	-12.133
▁одинаково	-12.133
▁ожидавш	-12.133
▁примыкающи	-12.133
▁пробива	-12.133
▁продранны	-12.133
▁профил	-12.133
▁смежн	-12.133
▁углубля	-12.133
▁актера	-12.133
▁вольтер	-12.133
▁высочайш	-12.133
▁журналистик	-12.133
▁искажа	-12.133
▁михайловн	-12.133
▁накорм	-12.133
▁танцевальны	-12.133
▁тетушк	-12.133
▁убави	-12.133
▁холстин	-12.133
разборчив	-12.133
ционны	-12.133
▁барск	-12.133
▁запомнил	-12.133
▁истолкованно	-12.133
▁освежи	-12.133
▁поперечн	-12.133
топыр	-12.133
▁контраст	-12.133
▁обличител	-12.133
▁примечательн	-12.133
▁постановк	-12.133
▁относящи	-12.133
▁прилажива	-12.133
▁прозяба	-12.133
▁формулиру	-12.133
▁божь	-12.133
▁водевил	-12.133
▁глухим	-12.133
▁задрема	-12.133
▁мольер	-12.133
▁почерне	-12.133
▁стушев	-12.133
▁унижаю	-12.133
▁шиллеровски	-12.133
ряженны	-12.133
▁нынешни	-12.133
▁перекосил	-12.133
▁уловлен	-12.133
▁композитор	-12.133
бубен	-12.133
▁гитар	-12.133
▁жутко	-12.133
▁пещер	-12.133
▁снимает	-12.133
▁исхуда	-12.133
▁неизменно	-12.133
▁обнаженн	-12.133
▁пунш	-12.133
дающею	-12.133
▁клейм	-12.133
▁непочтительн	-12.133
еньку	-12.133
▁изучил	-12.133
▁кухонн	-12.133
▁металл	-12.133
▁покидал	-12.133
▁привез	-12.133
▁генри	-12.133
▁обанкр	-12.133
▁приватн	-12.133
▁разрушител	-12.133
▁сигар	-12.133
▁цивилизаци	-12.133
авливая	-12.133
▁толкнувши	-12.133
▁помедл	-12.133
блистал	-12.133
фасон	-12.133
▁движим	-12.133
▁порадовал	-12.133
▁морочи	-12.133
▁пережит	-12.133
▁подвальны	-12.133
▁посудинк	-12.133
▁православно	-12.133
▁обвивал	-12.133
▁озлобленны	-12.133
▁повторю	-12.133
▁подкладк	-12.133
▁разбива	-12.133
▁климат	-12.133
▁развяж	-12.133
лекси	-12.133
▁глинян	-12.133
▁исцел	-12.133
▁невольны	-12.133
▁загороди	-12.133
▁совлад	-12.133
▁осанк	-12.133
▁дрыхнут	-12.133
▁певиц	-12.133
▁принуди	-12.133
▁приотворен	-12.133
▁возросл	-12.133
▁драгоценнейши	-12.133
▁замашк	-12.133
▁своеобразно	-12.133
▁откопа	-12.133
▁регистраторш	-12.133
▁мороз	-12.133
▁дядьшк	-12.133
▁пособи	-12.133
▁анархи	-12.133
▁липки	-12.133
▁потрясающе	-12.133
▁рисун	-12.133
▁владельц	-12.133
▁лакее	-12.133
▁пророчеств	-12.133
▁прислон	-12.133
физик	-12.133
▁высохл	-12.133
▁полишинель	-12.133
▁ледене	-12.133
▁знаменск	-12.133
▁завиты	-12.133
▁построи	-12.133
▁шучу	-12.133
▁лезвие	-12.133
▁неверующи	-12.133
▁переборо	-12.133
▁учащенны	-12.133
▁фортепиан	-12.133
▁подвально	-12.133
▁портным	-12.133
▁увертк	-12.133
▁пустяшн	-12.133
▁припадочн	-12.133
▁сглуп	-12.133
▁собьешь	-12.133
▁хрен	-12.133
▁вводил	-12.133
▁найдутся	-12.133
▁ослабевал	-12.133
▁отсталы	-12.133
▁факторам	-12.133
▁глуповат	-12.133
▁обновлен	-12.133
▁повлия	-12.133
▁усади	-12.133
ехав	-12.133
▁пирамид	-12.133
▁удивительны	-12.133
▁ловушк	-12.133
▁производят	-12.133
▁изделия	-12.133
▁госпитальны	-12.133
▁нахальств	-12.133
▁ничтожнейше	-12.133
▁негромк	-12.133
▁отечеств	-12.133
▁мотивировк	-12.133
▁нищенск	-12.133
▁поедин	-12.133
лобыза	-12.133
▁брось	-12.133
▁припас	-12.133
▁детально	-12.133
▁назида	-12.133
▁свертывает	-12.133
▁прочтени	-12.133
▁туалет	-12.133
▁заменен	-12.133
▁караул	-12.133
▁привскочи	-12.133
▁птица	-12.133
▁небылиц	-12.133
▁умалива	-12.133
▁недовольн	-12.133
▁новеньки	-12.133
▁ряб	-12.133
▁дмитриевн	-12.133
▁выздорове	-12.1331
▁обоюдн	-12.1331
▁парк	-12.1331
▁плац	-12.1331
▁нарастал	-12.1331
▁таиров	-12.1331
▁выяснил	-12.1331
тверез	-12.1331
▁противопоставля	-12.1331
▁кабачн	-12.1331
▁смешивал	-12.1331
помаженны	-12.1331
▁ворует	-12.1331
▁финифтяны	-12.1331
читающие	-12.1331
▁придворн	-12.1331
▁центральны	-12.1331
нанс	-12.1331
▁залог	-12.1331
▁сопля	-12.1331
▁обидчивость	-12.1331
▁смертельно	-12.1331
▁парнишк	-12.1331
▁прояви	-12.1331
▁госпожинок	-12.1331
▁субъективн	-12.1331
▁запамятовал	-12.1331
▁поверхност	-12.1331
▁неравн	-12.1331
сплетен	-12.1331
▁крыше	-12.1331
▁махочк	-12.1331
одаль	-12.1331
rev	-12.1331
тыканн	-12.1331
▁неустраним	-12.1331
▁поддразнива	-12.1331
▁поедем	-12.1331
▁бурнусик	-12.1331
▁просторно	-12.1331
▁дранье	-12.1331
▁пошлейш	-12.1331
▁купол	-12.1331
▁кротости	-12.1331
польски	-12.1331
▁станци	-12.1331
▁формировани	-12.1331
▁2973	-12.1331
▁запутаешься	-12.1331
▁манкируете	-12.1331
▁предшествующе	-12.1331
▁глубокомысленно	-12.1331
▁запихива	-12.1331
▁вымыты	-12.1331
спухше	-12.1331
▁крючочки	-12.1331
▁рисовал	-12.1331
тивоестественном	-12.1331
▁исполнителя	-12.1331
▁доверш	-12.1331
▁накопл	-12.1331
▁нанков	-12.1331
▁обсуждавши	-12.1331
▁предпочте	-12.1331
хныка	-12.1331
▁лишени	-12.1331
▁стонал	-12.1331
ессор	-12.1331
▁добью	-12.1331
▁запряженн	-12.1331
▁неизгладим	-12.1331
▁рязанские	-12.1331
▁курчав	-12.1331
▁переделан	-12.1331
▁взбиты	-12.1332
▁возмути	-12.1332
▁монах	-12.1332
▁казненн	-12.1332
▁старичк	-12.1332
надцатилетн	-12.1332
менски	-12.1332
▁прилип	-12.1332
▁замышляла	-12.1332
▁незван	-12.1332
▁помрачени	-12.1332
▁повально	-12.1332
рекаете	-12.1332
▁спускавшая	-12.1332
▁сопряженн	-12.1332
▁расстроить	-12.1332
▁догоравш	-12.1332
▁заехал	-12.1332
▁надумал	-12.1332
предназнач	-12.1332
▁исаев	-12.1332
▁убедительн	-12.1332
▁геран	-12.1332
▁порожденны	-12.1332
штоф	-12.1332
▁благодарность	-12.1332
▁белокуреньк	-12.1332
▁предельно	-12.1332
▁онерами	-12.1332
▁красива	-12.1332
▁вознагра	-12.1332
▁затуш	-12.1332
▁посыл	-12.1332
консул	-12.1332
▁запыха	-12.1332
плетены	-12.1332
▁феноменальн	-12.1332
▁гонени	-12.1332
служивает	-12.1332
▁отстран	-12.1332
▁давивше	-12.1332
тировать	-12.1333
язатель	-12.1333
▁певц	-12.1333
▁исправн	-12.1333
▁ночлег	-12.1333
▁архи	-12.1333
задори	-12.1333
▁раскрасне	-12.1333
▁формально	-12.1333
▁обогащ	-12.1333
▁откровеннича	-12.1333
▁настоятельн	-12.1333
▁чистеньки	-12.1333
▁форменно	-12.1333
▁всеведущ	-12.1333
▁привлекательн	-12.1333
▁выраст	-12.1333
▁замочн	-12.1333
▁каак	-12.1333
▁отгоня	-12.1333
▁решет	-12.1333
вяжу	-12.1333
▁зацепит	-12.1333
сложнен	-12.1333
▁мужьям	-12.1333
▁соседств	-12.1334
▁пущенно	-12.1334
▁кроше	-12.1334
▁поэм	-12.1334
▁вспыл	-12.1334
▁ехал	-12.1334
▁артель	-12.1334
▁отлуч	-12.1334
▁развешива	-12.1334
тическом	-12.1334
▁выезд	-12.1334
деревенел	-12.1334
▁разразит	-12.1334
▁нерешенн	-12.1334
▁отбор	-12.1334
▁прижимал	-12.1334
▁затревожи	-12.1334
▁скрывали	-12.1334
▁произнос	-12.1334
оглотил	-12.1334
▁прозвал	-12.1334
▁полученно	-12.1334
▁рутин	-12.1334
▁сопоставля	-12.1335
▁заблу	-12.1335
▁остановя	-12.1335
▁помогите	-12.1335
▁животн	-12.1335
▁красноваты	-12.1335
▁бедненько	-12.1335
▁сочета	-12.1335
▁касающе	-12.1335
трическ	-12.1335
▁предугад	-12.1335
▁мучаешь	-12.1335
▁разбор	-12.1335
оган	-12.1335
▁паяц	-12.1335
▁мистически	-12.1335
▁подделк	-12.1335
столюбив	-12.1335
▁изувер	-12.1335
▁отбива	-12.1335
▁посвя	-12.1335
▁сорвет	-12.1335
антов	-12.1335
▁убытк	-12.1335
▁трепетавш	-12.1336
▁обдела	-12.1336
▁куплю	-12.1336
▁зарыда	-12.1336
▁чиновн	-12.1336
▁поселить	-12.1336
▁облегчает	-12.1336
▁заломив	-12.1336
▁синеньк	-12.1336
▁выбор	-12.1336
▁даровани	-12.1336
▁столпил	-12.1337
▁унес	-12.1337
▁косноязычные	-12.1337
▁выручи	-12.1337
лудни	-12.1337
▁притих	-12.1337
▁игривости	-12.1337
▁музыкант	-12.1337
▁брякну	-12.1337
▁уверова	-12.1337
▁соглашени	-12.1337
▁предшеств	-12.1337
▁сосредоточивш	-12.1338
▁терзания	-12.1338
ieu	-12.1338
▁крыс	-12.1338
культ	-12.1338
▁предопределение	-12.1338
продолжительны	-12.1338
▁выбива	-12.1338
▁расписал	-12.1338
▁озлоб	-12.1339
▁выкупл	-12.1339
▁вертя	-12.1339
▁преклонил	-12.1339
▁суслов	-12.1339
▁гнезд	-12.1339
▁ботиночк	-12.1339
▁исчисл	-12.1339
▁альмы	-12.1339
▁постиг	-12.1339
▁кафе	-12.1339
▁жемчу	-12.134
▁горест	-12.134
яснять	-12.134
▁летуч	-12.134
▁почтовы	-12.134
▁склонивш	-12.134
▁обозва	-12.1341
▁массивн	-12.1341
▁правительствующ	-12.1341
▁возыме	-12.1342
▁кормил	-12.1342
▁эксп	-12.1342
▁свист	-12.1342
ильд	-12.1342
▁отчищ	-12.1343
▁рынк	-12.1343
ъ	-14.2659
0	-14.266
